3CFEF221
3CCCD64E
3BF2EF6C
BD454AF9
BE0A80BF
BD82071A
BD9912E7
BDA6A580
BD00DE33
BD862E5A
3D0D24AB
3CDAA800
BD0D313C
3E009B00
BCB73372
BD7D785B
3CB56FC6
BDEA3B58
BD9988B9
BE34134B
BD919725
BD679EE9
BE0AD98E
BE126989
BDB3577A
BD06D807
BD7D17A5
BC6E0CBD
3CCEB704
3E2D32AA
3DC44652
BCFFB083
3D5BDE4D
BCCA68C1
BDEBD3F4
3DC2CABD
398F4974
BEAE0F3D
BE9D2A7F
BDEA5875
BE96FCD3
BED081A6
3C622DA0
3DA7294A
3E30FDF5
3E5FFB30
3E24FB20
3E1CAFA5
3E3262EE
3DC5897E
3B85565B
BDA905A9
3CC86A5F
BDA95B66
3DF878C1
BE4505A5
3DC7FB60
3D8F8F9D
BD0FBEAB
3E006F3F
3E39AB49
3E37FD92
3DFF07D3
3E540CC8
3EA1506F
3B228828
BC737B47
3C1423E5
BDBA390E
BCAF74EF
3C8146BC
3D521387
3D991FA2
3E158D90
3DC0B64F
3DAA4BDD
3E11211E
3E85AA7E
3E3ADC86
3CEECDCF
BC83E5A3
3CE0BE23
3C98AD7B
BE2DB047
3E28EB71
3D82F3FB
3C4E34AD
3C849AE5
3DF3462D
3E74C388
3E1D0C3D
BC7E5C59
BCEA67A9
3DED2C08
BD86249D
BD8CB520
BE7E0B0A
BE14655E
3DA6DDD8
BCB8288B
BD0777BE
3D7ED274
3E88EF80
3E5F0C47
BCC5A178
BE4365F8
BD0C4F32
3DBB4183
3C9FDFA0
BCB3DBF2
BE04A6F6
BB355901
BDA1F4CB
BD0FACB3
BA5C3A51
3D8CB512
3E8411CB
3DAC9EA1
BE455FED
BD3CAC62
3D4D2498
BAA9C686
3D988206
3E11B0FB
3D49E932
BD8A1950
BD873F9C
BC846FD4
3CA52FDD
3D973CD3
3DC77468
BD9604F9
BDA74836
BCA6DCD4
3D80A0B7
BBAEF45C
3DD14EAB
3D1135FA
BA4811E4
BBC13EB4
BD0CC563
BD66FEC9
BD030E34
BAB5B47F
BDD6AB02
BE2C3DCC
BE1395D7
3D2050C8
BDFAD669
BE2CD089
BDD36A14
3D17788B
BD44D964
BDB299FA
BE8FAA6C
3D119774
3CAEDD4C
BCDC4174
3D11F94A
BC312881
3D244EB4
BE325254
BE608276
BE5B229F
BE501D67
BDC69E68
BE1724F3
BEC0E7F5
3D4D903B
3D9D1F60
3E09F29A
3D98AFE9
3D57A751
BCA250CF
BD46CC7A
BD4D0CAC
BD6E1EBA
BDA1B9D7
BE2A1165
BE2D2C2D
BEADB706
BEB93D02
3E2B0152
3E1E4C50
3E5DF69E
3D821E03
3D60F4B8
3D018D23
BDA8959A
BD2C5526
BE1E3318
BD893FB3
BD801F46
BD3257CF
3D83D1B7
BD3619B8
3DF73AD2
3D56DA6A
BD21B5B1
BE15EC02
BE3F5404
BD91FCE7
BE426A6B
BE5CC1A9
BE333BF5
BB0D75EF
3D05027F
BD8CE296
3D43C3BC
3BCE41C5
BD260800
3D0E3145
3DB1C96E
BD9BDAC6
3D73B0EB
BD94AFEF
BE3C22CB
BE997230
BEA64D46
BE48AA04
BE23F50E
BE5686C0
3CBBE7C7
BE586580
BD64934F
3CCE8187
3DCBA556
39B6A328
3BD9BAC9
BE232432
BEA4283C
BE8082B3
BE8F461E
BE02A655
3E5EFA7B
3D5D0F2B
3E2B46DF
3BB55DC0
BD9EF3DE
BCE44CC4
BD990ADF
BDE94AEF
BD332A3A
BE208910
BE542A42
BDB1DC2E
BD609CEB
3E040D10
3EB1FC12
3DDE3BAD
3E3889CA
3E1D8FC3
3C708A26
BDBF811D
BD35506A
BE1ACB1D
BC6C5E64
BCE7A45E
3DAAEBEA
3DB1FA7E
3E16FEC1
3CE042BE
3DDFF644
3E0582F6
3B5FD8B7
3DC69D6B
BC859AD8
BDC4DCD9
BD9C1184
BE35EC7F
BDDC506B
3C59DFF4
3E86ADD1
3E2B41FA
3DAF50AA
3C837820
BE554BC3
BDB6F14F
3BD729F6
BD12F519
BDCB098D
BDBA9DB8
BDD8AECE
BCE1838C
BD121BD4
BD2247ED
3E467AB0
3E513D70
3E24C558
BCAD9CAB
BE2F608E
BE030BD3
BCA59DE7
3DD1AC70
BCF2008E
3C951231
BD00E01A
3D41F097
3D6BC053
BD8FB1D9
38F12282
3E29CE7D
3DA2A8B8
BD5C9EF0
3BB3A0E3
3E2374E3
3E95F92B
3E133EFC
BD6154F9
BDB3DFB5
3D8AD7AD
3D17ABB9
BE02211A
3D2BA6E4
BD054843
3D1E233E
3DCAD55B
BDF0FBEB
BE710821
BDE80159
3D9CD123
BDCC9EDA
BE2FFDED
BDA8FE08
3DB41116
3D46F184
3C8107BD
BCAAB16D
3D941A77
3D863F1F
3D7A591A
BE05F854
BECBF5E9
BE0E2E36
B9827597
BE70238E
BC8CC522
3DFDFA06
BC7B448A
3E053BA1
3D547E83
3DCC3B14
3DB46ACA
3E0AF64B
3D9A3158
BBF05E25
BE5CA06B
BDF23DF3
3D4BB849
BE65E08A
BB247EC0
3E42F22E
3D7F62C9
3D86D3DF
3E2E4EED
3DEBB70E
3E2D2B32
3E5E8035
3E1B50F5
3D51C95E
BD9842BF
BE19C38A
3A2249DC
BC76B932
3E56A3A5
3DBAE7F5
3DEC0EFB
3D9D5C48
BC849A9B
3E32AA7B
3DCA6DCF
3E2A6EF9
3E02C244
BD4F279C
BDF85688
3BD7F7A2
3E5ECCF4
BC8C0902
3E79A73F
3D573DC7
3E72B0FD
3D96E833
BD08472B
BC8F84EF
3D9527A1
3CB0CE8A
3D9C8586
BE1A41BE
BE259659
3D3C56C5
3E027E9A
3D16ACFF
3DD729B3
3D0F90FD
BD57BC65
BE8A72C9
BE85413C
BE7F1991
BDED4FEC
BE2D6CE6
BE3F68BA
BE7C22EF
BDF602B3
BE0F15EF
3D0488B9
3D25F903
3DA1E42B
3E30F775
BC111000
3DBE0C0E
3CAF09F5
BD952C61
BC860156
3B2C6405
3C4FFC59
BD7AA67F
BE15AB97
BE084BE1
BD851B7E
BEC35C10
3CBFC56C
3DBC1DE4
3E45693F
3D9633AA
3E0EF51E
3D57A4CC
3E1C851C
3DBBF357
3DB0CC2F
3D7FB3A3
3BE9F7EB
3DB90611
BD8067FC
BE2F0114
3ADC3BC7
3DB1FA5D
3DFA1DCA
3E79EED8
3E5F0E27
3E926126
3E79A78A
3E4C7879
3DD9959B
3E33CEE7
3E0A13C9
39EFB9BD
3DEA1413
BE6A640E
3DBD086F
BBDEF3FC
3DF5E05F
3EDF22F9
3EAA76CF
3E7DEDFE
3E2123EA
3E08BB66
3E012595
3DBCC696
3D9F08C0
3CB2CEC1
BB577F42
BEA1D54C
3BBAE8A2
3ABB4697
3E8D9042
3ED777F0
3E18E357
BD85F894
BC9C2177
3D29BCD9
3D85D150
3C20C34B
3E007EFD
3E3E63DD
3D86E314
BE14B3D3
BDAAF5DC
3D3D37F2
3D6166A3
3D795D07
BDD8F47F
BE31CF3C
3C37CF65
BE173061
BE058DFD
3DC549B8
3DDAA426
3E1A228F
BD9BD834
BDCF0B20
BC7B3ABD
BD2DE2E7
BCFBFBE2
BC86613B
BE6474FE
BE36C44A
3CBD18FA
BE309183
BD204091
3E06F6E7
3DB22D1E
3AC77F5A
BC299F9E
BE49E201
BDF538F8
BDD4D77E
BE81419F
BE72CA47
BEBDAED1
BE6B4023
BDDB4257
BDC821C2
3C4E4F48
3DD56668
3E258AD3
3E133332
BDC27056
BBD6EDA9
BE4F0123
BE000C26
BDB3CCAF
BE2BE2A6
BE9727FE
BE7F2364
BDE525C1
BB8C1358
BE6CE9D5
BDF2643C
BE0CCAD6
3C52EC9B
BE40E0BC
3D49990E
3D982485
3D1D8EF5
BDA5D016
BD68D99D
BEB45053
BEB22369
BDDB2AA0
BDFE125B
BE8C4567
BE5E61F7
BE9FE8BA
BDC8778C
BEB19A17
BE86B53B
3D55A539
3DD778BC
BD20FE42
BE2BEA79
BE8CA2FF
BE643A16
BDAD5059
BDA62635
BE2405FA
BE5528EE
BECD2FB1
BE3AC0AB
BE66773B
BD2F8FE0
BD4FC39C
BCDC8297
BEA4EDF5
BE656613
BD239EBE
3DD1CDE1
3E703E3B
3DFEBE02
3E036A99
3E634730
BD672FF0
3C2C1502
3E006C43
3DB132BE
3E05B36C
3D56EE43
3D5F72AE
BDD40D5A
BD0CF39A
3E00E591
3E49DB5F
3E3AAA39
3DCB9D83
3E1DFBA6
BCC13E00
BC818397
3DF6DC1A
3DE88F35
3DACD12E
BD8F78F6
BE157D42
BE94F485
BE94987B
BEB84336
BF103432
BE89DEB5
BDBA02EF
BE8D70F4
BECDF1BD
BE10035D
3CF3790B
BE8F1E9B
BDE1FDCD
3E1274FE
BE85AEB3
BE42C5B8
3D407C69
BBCE2DEC
3C950215
BDF3239A
BE17EF18
3C0E00C4
BE0D023D
BD9A35F4
BDF06489
BEF210BD
3D0C2C28
3C837A09
3E7BBF1E
3E0715E6
3E6A3275
3E0EF2E4
3CCE300C
BCC021CF
3D504415
BD5188D4
3E40D7DD
3E0AF734
3E039EFC
BE0A39D2
3D879873
3E07B728
3DE46C61
BCAB0F63
BCB15F08
BD16FB8A
BE13B0CA
BD8E6704
BDEE24EB
BDB91253
3CA650A3
3C819C18
3DB55F71
BD388C13
BCB18216
3DCB02DC
BD92C041
BCC4F33F
BE056AE7
BE84B807
BE2E1726
BD4EBB9A
BC8C5B98
BDBE5EAC
3D00FCC7
BE0C201D
BB689872
BE64EA2D
BD971D52
BDC55922
BD388BAE
BE5C7545
BE375D1F
BD276C1D
BC4B320E
BDAF6552
BDFC5A73
BE226720
BDF28657
BE502A72
BDAC4692
BE62EDFC
3C9E9C71
BD62255F
BE11019D
BE15FD1B
BE10D60A
BDAA6224
3CAC9017
3D092011
BDF93EC1
BE6AF8C3
BE0D59A8
BE1FA1C5
BC944EDF
BE433F7B
BDD94314
BDD02AFE
BD99DD47
BDE94E8B
BD90A9FF
BCD92EB6
3D0438AE
BD1E05BD
BE45E0B6
BCC3A840
3D5747E8
3C93977D
BD603B9B
BE74B905
BDF64E65
BD127C13
BB098063
BDA4AC4E
BE5DE629
BD69670D
BC9B6BEF
BDD009DF
BDE603DF
BE1AAD48
3E192704
3E4BA6CA
BE530DEF
BDE06858
BDC1EDDF
BC30929C
BDD9AAA7
BE48EC51
BE10A745
BCEF32EB
BC858E6D
BE65D878
BE99BE24
BD3CA633
3E5F8EDA
BD38F8E2
BEB72840
BEE5CEEB
BDF10E04
3D9BF605
BD6297B9
BDD046A6
3C9E2FC3
BD9CE5BC
BDB03078
BE023B21
BE4D71FD
BD2D1EE3
3CC0A706
3D87E5EB
3CE21F74
BDB2F522
BD6A9626
3DB83617
3DFC116A
3DA040C0
3E0DD991
BC83961C
BDAF2CC8
BE0C298A
BE1D6169
BEAA9C4E
BE4C60FD
3B572707
BBD4FEBD
BDBB5A8C
3CC5CDF7
3D9ADD1F
3AA2713B
3E09A257
3C622A0C
3C1F3F24
BBF6B154
BE1A784E
BDDA38D6
BE8E655A
BE158F03
3D316641
3B3B350F
BE057BC1
3E961DD4
3D8C036F
3D72C6AA
3E4D63A8
BB7AD8D0
BDD2E62F
BDA26FAF
BD4A8E1D
BDB2F07B
BE80DAE9
BE93CC71
BE33BE0B
BEA92AAF
BEB14DE3
