3E105B5C
3D9876F6
BD51C621
BD7C99BA
3DA14125
3DFC76E6
3E164A9A
BD061D57
3C43B1BB
3CE843A7
3CAF54D5
BCE390A6
BD4CCD43
3CAF6A8D
3C0E7374
3CE32796
BE085B7E
BE58BC9D
BE152A0E
BDC3BF84
BE21A8F5
BE3D5BA6
BD5FFD45
BD30D481
BD8D0C4F
3B5CE5C3
BE4DCB2A
BD347815
3E08140B
3E505C8C
3B816CD3
BCD87F0B
BDBE8483
BE1A1B43
BDEF4097
BC90807D
3D1F615A
BDAAA500
BCFECC9A
3D83D965
BC9EE884
BAFC4212
3C71C8DC
3D60ED1C
3D17E3C9
BD3EA6F0
3D855FEA
BD9C87C1
BE0E9951
BE38E23D
BE3FEA63
BEB4B932
BE8C6C1B
BDD01626
BDD47F14
BC0018B9
3C165998
3D26382D
3D540EB7
BD890984
BD726F18
3D859EB3
3CA1066E
BE3F4346
BE53AD44
BE905EB6
BD9B26D5
BD825863
BD08DC51
BE3C956C
3D556446
BE253645
BD4F227C
BDF03A79
3D5D65E4
3BC8DBB0
3DE0306F
BD724135
BDDBCE18
BE32970E
3AE9F1EE
BB8844F4
BCF7FDB1
3CD4C917
3D26B409
BE1A7EA5
BDA0C5B2
BD99F4FF
3D696D0D
3D3D0304
3D4C5582
BD5E48B9
3CC4FD4E
3D7980C2
BC9EA18A
BDD2AB46
3D33FD5A
3C3F7004
3E6F9CC7
BB29BB01
BBD8927E
BDF45974
BD20A57F
3D8A1980
3DD7EB32
BE0AF398
3D7B70FC
BC40A368
BE16BA05
BE4EAB8D
3E05FE4E
3D4433DF
3E608352
BD0B611C
BAC213C9
3D0C67C4
3C9B0ECF
3DC9C9D0
3B6B8AEC
3C98E558
3DA9F6EE
BE84EBDE
BE978D6C
3E049F71
3D2720D0
BD0C2E2A
BE29A4EB
BE159B61
BD9F08BC
BCC457CD
BB426E46
3DBE9671
3E2B1033
BC826C5A
BDBEFFF1
BE9CC8AD
BDCD7D43
3DAAB9A3
3BEA93A5
BD513D9E
3CCCE055
BCC5352B
BD947A96
3D6A48D3
3E0E030A
3D8B389E
3D04FC70
BD0AC7A2
BDD346B8
BD3676A4
3D9D1D10
3E0AC88B
3C9AC60D
3E3A20B4
3D5A9A13
3D49A219
3D0BC955
3E0A891E
3DE613FB
3DC1EA86
BD454920
BD6C1DA2
3C466A0C
3DC34308
3DFD2A2E
3D3EFC77
BD7C355A
BD91F0FD
3DECCE02
BC18D8C5
3D91D835
3DCEC369
3D904A3A
BD0E29DB
BDB8D000
BD2F79AB
BD64E171
3D72DAC8
3D1499B1
BCE248F0
3E3C0827
BE9813C4
BE81AA1D
BDE09AE8
3D79156C
3D913043
3D22DF18
BDBCF41A
BD5B1F45
BE316A95
BE024F6C
BD61AB88
BE029E36
BEC0D168
3D117B98
BB4F37F8
3DFB6D8F
3DE4F35D
3D0CF7FC
BDACC007
BD67EEF6
BA1F8597
3BAC8441
3D489B20
3D73684F
3D15994E
BC92D870
3DB881E6
BD03E537
3D4E9AF9
3DF5DE72
3E11C090
BD507750
BBACAD9F
3D22A776
3D553358
3DC5CA8C
3DC2FE52
3E800A5A
3E982FAC
3E2ADA7D
3E0498FC
3DD4C276
3E256E99
3E318F60
3D3ED07B
BD3E634B
BE29F922
BD6498A8
3E003A0C
3E2D25D4
3E6FC15B
3ED6A318
3EA3DB41
3DC3D869
3D9EF88B
3E33248C
3E456233
3D106F02
BD750084
BC4A0D4C
BE13C000
BD461C1B
BD005989
3C4EB7AF
3E8925F6
3E89DC13
3DA33775
BE10D9BD
BE437F26
3D8F3A8D
3D72067D
3D31AE16
3D664C48
BDC14DD1
BDF63EAC
3CCAC502
BCAE8C15
3D9CED43
3E030F28
3D4F599D
BC710380
BE94D5FC
BEB95E0B
BDB722E2
3E08E15C
3E32DB30
BC6D74DA
BE5B388B
BDD4ED2F
BD8CA50A
3E1A77FC
3DB6ABE6
3E004720
3DBA2557
3E4CE462
BD2A05F5
BE82BA60
BD43543A
3CF8D8C8
3E04DED4
BDCEA218
BDC481C4
BE326F93
3E139DC8
3DB3ECFE
3E0CB3E5
3D86EA4F
3E9F35D7
3DE00155
BE027E60
BE394A09
BD8EECCF
BDA545D6
3DDCD920
BE25E31E
BE263EE5
BD59CCC5
BD09E1F4
3E4A7EC6
3DE1E97D
3D3E90CA
3ECF2066
BCA6CABB
BE1A9E74
BDEC291D
BD82E78E
BD686A1E
3BA1FD46
BE726AF5
BD700F50
3C9A960D
3D95F6ED
3E11AB3D
3E64C600
3D6C3557
BD1EC470
BE9A428F
BE3C5C49
3D0A8CE5
BE1C6618
BDB20B5D
3C9D7636
BCFBACCA
3B65383B
BB996CB0
BC1FC4CB
3DA1E16B
3E64EF01
3D6B08F9
BEACA4ED
BED7D220
BDA2D520
3DD93933
3D917BDC
BD0D1C3C
3B8F2F96
3BC3BC55
BD4D7F4F
3E024D3D
3DC12E1C
3CE375D5
3E5F80E7
3E3E9D93
3E466088
3B18FD18
3E71B192
3E94B612
3E2D7FD8
3D9BB26A
3D271965
3DA61CC9
BC2B20D0
3DC7D623
3C3D8E8B
3D6B4950
BD3E8313
3DB82371
3E86CE61
3DD2C601
3E5F4A53
3E126DFA
3E39EE93
BE0440F9
3E0CE0F2
3E0B48DE
3CDF2F1E
3D0590F5
BC8D816C
3C91A8DF
BDA6A1A3
BCE80EEE
3DCE8FD8
3D928603
BDD22F47
3DB68B93
3DD8BA6F
BBD4CB5A
3DB55DAA
BD783669
BBE46818
BC11F400
3DD23817
3CB5C0B7
BE00E10D
BC8D95FE
3D566142
3E398A0F
BDA9F3BD
3BE50C2D
3DBE33D7
3E37E041
3E36B3A4
3E2A2BB1
3D7B19E1
BE02C399
BD5C6534
BD62F1F6
BD93FE10
BC46BB34
3D241AE5
3CB1AF5A
BCB13FAA
3CE48C9E
3CA737DB
3DFF3328
3D692A27
3E025C9A
37605670
3DE46F2E
BD796127
BDBB85B5
BD90CA79
BCC42251
BE095972
3CBCD394
3CD981EC
3CF9E0B7
BD0E1BA3
3C533C0E
3DC79C15
BE0274DD
BC509C1A
BD2B71FA
BDDB8152
BD350AEE
BDE08035
BDC066DA
3D55BE0C
3C6A89C8
3D21BFE6
BB2823F3
3DC6377D
BE051AC8
3D916A52
3D64E561
3D3F13EF
3E39D56F
3DC5E36F
BD93C76D
BD74C522
3D14CEED
3D22A830
3BE18AFA
BCA18862
BCF985E7
3DCF2E73
BDD3328D
3C5585A1
3D2F1395
BD84F75F
3E734EEB
3E421979
3C4B26D3
BE4D8DC4
BE7443E4
BDA981ED
BDF3DD2B
BE6E5294
3D6A330D
3D151D67
BD404006
3CD5307E
3DB0D8C9
3DFFD4CF
3E2EF367
3D86A5C4
BE285CA2
BE5509B7
BE1CA518
BDC7AB78
3C99795D
BDBD92C5
BD0F19B5
3C8171C3
3E1708DF
3E1430AE
BD8A96E9
3CF25D25
3CDDB107
BE2654FD
BE94614C
BEC90269
BE31BB03
BD5C0F3F
3D30904C
BE19EC91
BDA729B5
BD7C6DD6
BCBCB5DF
3D019CCB
BD598A61
BE4B9AC1
BE01CF2C
BE3C58C6
BEA391A0
BE81BEA8
3D8B150D
3D089ADD
BD824AE3
3D498214
3D843DE3
3CF41A73
3D4E3CDC
3D9B7CEE
BDF09AA4
3DA55BE2
3D4564BA
BD0ADDD5
3D2A25A4
3C43F3C2
3D862CA4
3D31088E
BD88D51A
BA5E2B89
3DA85497
3CC1FAB9
3E2787F0
3DAB91AE
3E2F7682
3EA5601C
3D9A33F1
3D159366
3D572CF7
3DA18BCA
BBD4BBFF
3D85745B
BD86787E
3DA8DF73
3DBEE523
3DAD6AE1
3DCDC9C0
3C2C4BA7
3DF1FA68
3C1AD9CA
BDF906A9
BE785FFF
BE1C708B
3D881F47
BE20216E
BD987935
3CA834DA
3E5DC413
3DE294BE
BCDDB0D3
3D5AF3AE
3DE6B067
BD47CFF7
BCE53164
BE4B79CA
BE9352CD
BDD6D4D9
BD4EDE5A
3DB88435
BE84AD98
BE432C55
BE033DB0
BD3BB58D
BE0AA57D
BC5B49BE
3E4AEA79
3DC2304D
3CE02A95
BD715E7B
BCED3B7A
BB83D7A7
BBA42A95
BE4A4D23
BD8D29AD
BE5AB07E
3DDE2DA8
3E1B81C6
3D337005
3E106275
BDADC96A
3DE04F9F
3D6603D7
BC39DDA8
3D3703BF
3CE59E9C
B99DD107
3D8755FA
3D967338
3E677ACD
3D666D90
3D14643A
3E1D511B
3DD46F85
BCB59ED9
BD8DE3E3
BE612B6E
BEBDC0B6
BE0CC0EF
3E4B0483
BDC90C22
BD81E41A
3D5C4530
3D232B17
3DADD1CD
3D01986F
BD44556A
BD5D2A94
BD293828
3D3E6B7D
BC92283D
3DE6E61E
3E22FE80
3E1EF4C9
3E41DB10
BD2550AC
3CDF4846
3D0C6757
3C3FDD87
BD113498
BA9F3CA5
3B28A964
BD730876
3BA12634
BDC58B34
3DF3119D
3D85FB18
BCA7C9E0
3C7EEC3C
BE3860EF
BE68B4C5
BE544C94
BD47985E
BDDED541
3D389294
BCDBA491
3CAE2924
3D110B33
BD48D9B7
BC3C77BF
BD88778D
3E21765A
3D4C6258
BDFD1DC8
BE5C301D
BE8E59BC
BD965707
3D42AD75
BD438BA4
BE24C09F
3BE3EE17
3C58DE56
3CA90E7E
BD8F3267
3CE28FAF
3D04C283
BC8DD979
BDA46AD0
BE84F5C9
BE49DBBE
BED5B3FE
BE98A2BB
BE97D18C
BE29923A
3CCB8864
BDEC4446
BE0346D0
BE0B34DD
BD8E8AFF
3E1D4A50
3DDA08E9
3E13B2FB
BE289EF8
BEDEA6AF
BF06FDBE
BE4B3558
BE593E8E
BE3E0BB2
3D05156C
BE717617
BE5A377F
BDFE29E9
BD11FCDB
3E05D60C
3E436E02
BD2F8D75
BE9CD558
BEDBFBF4
BE65F757
BE808EFF
BCB5D4C1
BE3AE175
3C22E573
BE046C7F
BD9D315B
BE0213B6
BD9C3258
3C66F3C1
3D957ED8
BE6451B6
BF0371D4
BF481126
BDA7F9BA
3DE5656E
3B029E9E
3D352A75
BE1AF675
BEA3C081
BD951F88
BDD9800C
BCC57EAA
3DADD522
3ACAB06F
BEE08381
BF10DC80
BE9BE50F
BE00753E
3E115F83
3DD85C93
3D6CEC5F
3C9129CE
BE526086
BE19C595
3DFFE069
3D88CD91
3DBEB9E8
BD2E280E
BDE98E4E
BE45F73A
BE722629
3CFD9A1C
3E47D90B
3B893465
BD0AE564
3B0B04FF
3D85549B
BDC09FE1
3D6DD741
3CE440D4
3DAC9C48
BCBE6224
BE670B51
BE97C4A3
BEC8EE90
BE257A8A
3E85DB40
BD5FDC8C
BE92E7ED
BB481111
BB95006C
3D3AEA11
3D00F783
3DC5F9AC
3E4F4E18
3D3D4360
BE1A7C53
BDB5B6D9
3D7A6F13
3DE8CF84
3E3C7E57
3DDA02DC
3D8D6574
BCBD1C3E
3DE02CFB
BD014944
3E1E20AC
3DEBD31C
3CE64CA2
BD4974B4
BD8FE212
BD577944
3E3B8002
3E125DBD
3D0A8256
BD73B326
BD1B3B63
BE57B12B
BD36570B
3D82CF16
3DFC3DB0
BE08757B
BCE1E507
BC83DCF5
BC833DF6
3DF1AF6B
3DA66DCB
BCD342D2
3E159704
3D3A956F
BE48F37E
