3DD14580
3D23E7F9
BD897913
BC9CEB7D
3BC1F889
3D0C92B4
BD56CD05
3E08CD0D
3E3B6431
3DE986FE
3E1D2F2B
3DF53304
3E0D92D3
3E25F424
3CB302B5
3D83985B
3D37EC89
BD6279BE
BDD7F69E
BD6B7FC6
3E2745B1
3D39745C
3EB11199
3E17A24B
3C5BE99C
3E5E730E
3E77ED01
BDA0F5CD
3D565EC2
3D703F43
3D28057D
BD9E79CE
BDA7EF92
BE9BED93
BDC1E414
BE068381
3DB5B222
3BC17E04
3E37ED77
3D272424
BD9620FC
BD214755
3DD34F03
3CCEAB0C
3C5755B2
BDFBA8E2
BE299FB8
BE232EA2
BE70C196
BDCFE7F6
3DE08CDF
3E890634
3DC77C49
3E11F2E6
3E0DD8EA
3DFB729D
3E3114B8
BE0666EE
BC22AEE1
BE8BD238
BE8E631D
BE4AA009
BE11985C
BC098D8E
3CDE0B01
3CFA4BE6
3DE5F678
BC84A50D
3D29B345
BCA79C5D
3CD74D4E
3D4332FD
BE43B2F6
BE8680FD
BE9766FC
BE9BA2D2
BE8C5F14
BE57B755
BBB81907
3D1C4140
3D9ED371
BDD4D714
BE0BEBE6
BE41CA36
BD076B3D
3C60A7A0
BDFBA16A
BE1D4327
BEBC96DD
BE84B668
BE9BAB2D
BE4C2F55
BD8713BF
3D5777DB
BD1A295F
BE408E82
BE534ED3
3DC90528
BE3A4933
3DA81D28
BD0C5361
BDC2E30D
BE85CD70
BE6A0274
BE14A8FE
BDA3B2F2
BD01C2D8
3D2D1993
BDA23493
3DA2222F
BDA859FC
3D3F8C65
BE4BB068
3E1AA460
3CE8DF5A
3AA4AA75
BE3AB575
BE788E28
BE8B4F93
BD482C1F
3CC5EB56
BDE3F124
3C7A94E8
BC7EECCA
3DD01A9D
BB98B1BD
BDDD9819
3C0FD32A
3DBA9530
BC80FA67
3AB55D39
BD872DBC
BDDE6EF2
3DA9B650
3CFDE6AF
3DEDDD73
3DFDD82C
3D5A3824
BD06E64A
BDC6A3F3
BC407E69
3D2AA2AE
3D21D425
3C598F94
BCFD05A1
3D95C80B
3CE9F9D1
BC0810C1
BC2F9EBB
3D72BE61
3D38B27F
BD38E23E
BDD71518
3CA91E76
BC424354
BDCAF601
BD670718
3D7E1938
BD82428C
3D6978B6
3DD852E4
3D8E7081
3CE91A8F
3D00C0B5
3B1BF895
BD19A553
BD00DFC5
BE526452
BE44BFF8
BE6E9913
BDF9F601
3C46DAF9
BD455828
3D39FD92
BD415723
BC700D6E
BDB12CCB
3D77ED78
BCE2A04F
3D005690
BE722597
BEA3072D
3D1A6378
BE7CA0A8
BE8A1B6A
BE396553
BDA4AA85
BDC2D737
3D130D3B
BCC86694
BDC9DD9D
3C59E8AD
BD3B3F5B
BEAD2D0C
BE2C2A5B
BB0ABB77
BD824754
3E0F3073
3E564563
3E17E782
3E83784D
3D97418C
3E04752A
3E0A0E9D
3E60A7D4
3E6E46C3
BD40B0F9
3DE600DE
3DADC4C9
3DA55C51
3E075BAD
3E0F7EAD
3D088DEA
3DE52D53
3D1DF7DD
3DDF94C6
3E67F45F
3E211EB8
3E0FDADD
3DB8B483
BDDD0C6E
3D01082E
BDB3B97D
3CA21624
3E5E9C2A
BAD248B1
3D89A9AD
3E52BD38
3E273614
3E2BC0A3
3E357C31
3E1FD7A9
3CD754FF
BD818CA3
BEC40293
BE0231D0
BDDDE70E
BD8874BA
3E3EC4F4
BAA9AAA0
BC203CC4
3E0AEAAF
3D1A18D5
3DA4180A
3DE8775F
BD54B226
BD207991
BE82CB49
BEEC3798
BE80D57B
3D9B0E8D
3D230531
3E0017C4
3D8CC5A3
3E1B334C
3E366783
3D4E6823
3CFFC33D
BC86AE25
BE8DCB9C
BE6D0871
BEDADA2A
BF0FDF24
BE5EA4D8
3E49EB82
3D9C9FF5
BA7D7E52
3D58F564
3E38DF24
3DD72465
3D9B1EF5
BD2B79ED
BDA57560
BE4DB35D
BEA9B856
BE754B01
BE8D9BB8
BE1F62B9
3E1B0873
3E225F68
3C8D98FD
3E6C93ED
3DACEE31
3E2C4A69
3DAC27CD
BC185190
BC1AB15F
BD053B5C
BE8F654D
BD71B7A1
3C82FEA1
3D236464
BD22026B
3DE8D7AD
BE364A44
3E4C729A
3DEA2C45
3E0E9772
3E5ADA6F
3DE75AF1
3DF5586E
3D02BE08
BD6EB16B
BCDD98BB
3E17E932
3E467D41
BDBA5E1A
BD2C9288
3C44076D
3E4598F1
3E1AF68A
3D5B68C2
3E014733
3D53EB72
3DF5590D
BD44F1BD
BD66CAA2
3C5CCA31
3E07777D
3CDF722D
BE5E1FEF
BDBDBF03
BCB92D89
3DB23608
3E0F3073
3E1DDC3F
3DDEE3B3
3D4E1DC9
BE14C407
3D78D2DA
BD39894D
3DAB4F2C
3D19CD4C
BE13C9B2
BDDD17B0
BDC20DFB
3AD46D36
BDFF2106
3D016811
BC2ED345
3D8994E4
3D6A9C75
BCB1CF7E
BE75D223
BE1E64C6
BE162C17
BE9F7A6D
BE4EF380
BDDC708D
BE22815A
BDCD3958
BDEE7FE6
3D165A11
3D9E9030
BD3E84D6
3BE4D366
3CD9C6F3
BDDCED97
BE75AEAA
BE5A2A2C
BE94E6FC
BDBE0C11
BCFECD57
BE0EE28B
BD5CB2CF
BE6F2645
BE369282
3C4E3E8A
39A5C229
3C7E50CC
3DD19C3F
BDF5500E
BE2C750C
BDD4AEBB
BE27D1E2
BE3C857B
BE0627F0
BC9918BE
391638A2
BD08CA89
BE45B5DF
BE89DC81
BDFB557E
BE06EE46
3D65738B
3D987898
BE2739E2
BDEB2325
BE42076E
BE15151E
BD56F20B
3D458603
BA2B30C1
3D707DE0
3DCEA512
3E1BEBA3
3D746C99
3D38B899
BDBFAC1C
BCE73C17
BCC3211A
BD59B974
3C3E90C1
3DA4AE43
3E350997
3C625851
3CAA49E7
BBFF3E7C
3D330F07
3CAC49C0
BD9F27F1
BE1FD154
BE0CF0F6
BE22BBF7
BDF41869
BDE2A057
BDD94E9B
BD6C1577
3E12FA5C
3D5BE85B
BD5126D4
BDA1EC57
BE14AD4B
BD3B1624
BE52983C
BD14E89C
BE234A1A
BE8F4FDA
BE8D7543
BE2E1E08
BE473F5F
BCF3C229
3D99F509
BD53692D
3D998C29
BD2B1720
3D102DCB
3D47C059
BDE1873B
BD9AE73F
BE7B22E0
BEC03921
BE4F4903
BE524CF9
BE1A281E
3C651128
BD85717D
BE424D9E
3C5274C8
BE2C5CD0
BC9FD991
BD9EAD44
BE1432BD
BE166952
3C79D7EF
BD9E6788
BCF63757
3CFE34EC
3DA0E5DB
3E8AC4EB
3E109800
3D66EA00
3C9D08A6
BE0E6AD6
BE3607C6
BE06BDD1
BE50E6A7
BE29CBDD
BAA71C57
3E3ABFF4
3E1CCC68
3DF25953
3E343F0B
3DEE5D3A
3DCEC68A
3DC1C796
3BEC4958
3BB07A42
BE6FBCD4
BE90C3AF
BE21E630
BE8983BC
3D37B449
3E82FFEE
3E2F21AA
3E504EF7
3D7B1359
3C313744
3D0AD165
BD0339BA
3CA22414
BCAEB298
BDB8F662
BDD06C48
BE80A6F4
BE73217C
BD9D65C6
3E1C3332
3E291418
3D54865A
3C51FB8D
3D78CF43
3C1555B9
BCAD5A9C
BE210942
3E0352D1
BE7BB881
BE714141
BE183280
BDF124BC
BDDE0BCA
BD949E7E
3D6D788F
3DBDC1E5
BCEBCD75
BD30F749
BB3F27DA
BB44C153
BE5672B0
3D90EAF5
BE09537A
BE1FD35D
BD87C776
BE447FF3
BDFF981F
3D2699C3
3C01FC4A
3DAAD527
BC44FF3E
BDA3F92E
BDA2444D
BD9993EA
3D9ED8F2
3CBAA232
3DCFEEFD
BC820F83
3E2E1053
BC522631
3E03E802
3E30DF56
3E5F4785
BCBD7C21
BD11C33D
3C8C0D5B
BE03BAD5
BD3212C9
3D4DE628
BD84ACF4
BD642986
3AB48522
3E30E401
3E835DEA
3E7FEFD7
3E8F0655
BEB03B7A
3C3B3CC7
BE56CFBD
3D89B42E
BE853D9F
BD0F480D
BD488100
BDE5EB03
BC32B44C
3CED8336
BD1388A2
3E2C1487
BC8FB8C6
3D9FEBF8
3E08F813
BE0B5EFF
BE67B0F1
BD609B1C
BDDFF2B9
BD5EDCD5
BC7BFBDA
BE2B9789
BE585A51
BE47E05D
3CC75DE5
BC61B802
3CA2426F
BE4F8461
BBA3F6C6
BDB16305
BE00B97B
BD902C63
BDEB7AA1
BA47053A
3E08500D
3E1E2DD3
3E74B949
3E88EDA6
3EA59780
3EB8313A
3E8766CB
3E563DAD
3E2CCCA0
BDA3AEA6
BDC688BF
3DAA237E
3DC129C3
3C8ED7DE
3E77EEF3
3E10155B
3DADC0B2
3E821F35
3DE47376
3D76E17F
3D3AC10C
BD9DBDE1
BD94DE2C
BE3FC9C7
BDBF53DF
BD78695C
BB7B1002
3C2423D3
3E4021F4
3D6C9061
3DF18C89
3E54DABA
BC3377CF
BE3AC64A
BE23C1E0
BE54B221
BD4F5701
BDC5CA21
BD8B7A64
BE7AE94B
BE071475
3D971781
3E21C8CA
BDB8CC12
3D873EBF
3C2EBD37
BE1447DD
BE569EAC
BE0CDCCA
BE8106F7
BE545E3D
BE05D734
BDFEF172
BB5D98EA
BD07CE41
BE28EA81
3DB664E0
3D4F8467
3DD4FB04
BD1E1CC6
BD632578
BDD925DC
BEB3B4DF
BE5B074C
BD828A7B
3D5DA042
BCABA14E
3DCB290C
3DF328D1
3D0F0E21
3DA4D4BA
3B4560D5
3DE42374
3D9BD03C
BE02CF59
BE4467BE
BE85C975
BE805D44
BD059454
3DD556D5
3D4A74C5
3DD684B3
3E615A2C
3E135E7A
BD9E8CC0
3E307F8A
3DB53B42
3D8CC4BE
BDBC5159
BE4AEF6A
BE8664EF
BE5C7CEF
BABAE1C8
3E426C9C
3E3CDA94
3DFC697F
BD0F3227
BE3D0166
BDA5563E
3DD5C2F2
3E102231
3DC89910
3DB67836
BDCF4AC4
BE973575
BD4E3771
3E37806D
3E4AA4F8
3E1C7B71
3D92F1B2
3C62DF95
BDAECC12
BB98E268
3D2EFD6A
3E1E701E
3DC91874
3D4C77B6
BD14596D
BE0E4C7B
3BE02D4E
3C537453
3E39FF87
BCBA4116
3CD8D9F4
BD681A68
BE00A4AE
BCB3A855
3CC264F5
3D459E68
3E19612D
3D840A6B
3CCC5E22
3D5829F8
3D3A51EB
3D35E012
3D37B832
3E003E59
BD35ADC4
BCEA11BD
3D1A1812
395E3782
BE0E1A07
BB8C650E
3D12AD30
BD6B4F07
BE02FB95
BE02FC54
3D07F8EF
BD0DCA54
3DFB96D3
3D844AED
3D6EC885
BD080C72
BDAF74A2
BD4DCFD5
BD906976
3D8F80BD
3D830E8F
3D298CFA
3C5C1F9E
3B5F9A9F
3D1B1C35
3E3CF97F
3E797CD5
3DEE2FB4
BE23F35F
BC0E2752
BDA18624
BDC9D970
BE91C2D9
BE23B9F1
3C430CF4
BD835B48
3D1E4A37
3BFEE24A
3DAEF680
3E27E07B
BD3D7853
BBFBBE41
3DB53D46
3DDBCB03
BDDEB75D
BDDE5C55
BDF38286
BEADE871
BE9C86FC
BE8A370F
BDFAC38D
3D80938F
BA7B6A10
3C02A177
3D085D62
3DAC2F00
3E1B3A35
BE2E61A6
BE9035B1
