3DA58405
3DB039A1
BDE03109
BE2978AA
3DD6D275
3E44522D
3E05B0A4
3E1CACBE
3E760A00
3D2DD3DD
3E1406B4
BE52B142
BD4808DE
BE77DABB
BD370933
BDB23C70
BD58F18E
BDADD0FE
BDD7BC0B
BE2E27AD
3DDBB9FC
3E0E449D
3E9DFEE1
3E1F4997
3E0D2C9F
3DA0539D
BD8BADED
BE7323F9
BDCB3279
BB1021AD
BD1E22B5
BDEB93D6
BE32FD07
BE5D84FC
BDF0B9A6
3C85DFE7
3DD115AE
3DEFBEF9
BD9D07A9
3E04C284
BDA41D25
BED8324F
BE430879
BD3C6C69
BDD5ED0F
BDD867C3
BE2B3723
BE4B2906
BE3A4905
BD379CB4
3E0B5F93
3B9916C8
BDCA2369
BDABA3E0
BE4C85FC
BE4C0009
BDD067F6
BD751411
BD5B7A44
3D9790E4
BCEE1316
BC090A38
3D0B0610
BBD5B0D7
3D90574A
BDA633F6
BE22198B
3AD7829C
3C2F5262
BD121943
BE510E43
BC3C95B0
BC12F04B
3D73E8C1
3CE37523
3BFE9951
3D25E96F
3E04DF64
3C570A73
BD5392EE
BD938A23
BD1CE9B7
BC558841
BD4C02D2
3D0E1402
BDBC80FB
3C855657
3D322139
3D9EA63F
BCA6293D
3E22E7E5
3E2D9BCD
3DAC268E
BC092BC0
BE4477F5
3C63E8C0
BD7C9CE5
BBECBA54
3DF96A77
3DC9C0CA
3D8D7348
3C8962C9
BE168D68
3D048408
3C4FCFDC
3D02DC37
BC652E2C
BE143BAE
BAD84CCA
3DB64D91
3D738673
3D8FD5A2
3E121F0E
BD85434B
3C76BC42
BD8A36A6
BDE6A0A1
BD28FECA
3C989D83
BDB9F5F3
BE297130
BC357637
BDC3872A
BE579665
3E0CB515
3DFE8AF6
BCE0FACA
3D0A5B4E
3C806771
3E01BE92
3A4DD88B
3DE33850
BD780B38
BE05D984
BD1A7B9B
BDE52026
BE2FA5E3
BE0D63C7
3D3B11C2
3CC2BDC6
BD5E0147
BD3609DC
3D81AAFF
3CEA07B7
BCC92EDF
3CB91635
3D25EBEA
BBE0D522
3D5C0263
BCDBFB74
3D1F2BE3
3C6AE81A
3DA44E4F
BD2D4C4F
3CB73C88
3C293AB9
3C14B70E
3A485327
3D8FFC4E
3E11FD7F
BC6E818D
BCA8B6A4
BBC4BA97
3C5530CC
3DC82ABE
3E10AA14
3DA46686
3E05D030
BD6791C5
3D5204FF
3D6704A5
BBBD91D2
BD4BD7F4
BD692985
BD25FED8
BCC11C6A
3D08080E
3E222432
3D98691A
BBBD6CE0
BDCA2CC6
BD04EEA6
BE06FF41
BE6AA162
3D41F57D
BD27FCEB
BD28E9F5
BD5F3571
BD30845F
BD3601A8
BCDFB5C6
BE082FB8
BD845287
3D34696A
BD866C33
BE538538
3C1ED8E1
BD9D365B
BE70BFD4
BD6592AC
BC8B2DD4
BE09AE5B
BD244F09
3DC85553
BDB688A7
3D887387
BE18C1A9
3C691F79
BE064E4F
3CFDC3FF
3C30760C
BD8BAA84
3DB6BEAC
3E137B2F
3DE3E9EE
3DD78979
3DF6A0B3
3E9437DE
3E506FB4
3E5DE2D3
3E8C7A6F
3E72EBFA
BEC69432
BCD5B554
BE2E05B0
3E0DD1B0
3DDC47C3
3E22F1CB
3E63E65B
3D825829
3DB51C5E
3DE57DAC
3C950744
3C4E381F
BD9623AA
BDAAC05A
BECE8D3C
BE27477E
BE214FFF
3DB5223D
3DD35510
3E284E25
3E863E76
3E1F15D7
3DF2BB37
3E017C3D
BE054F26
BE1933E8
BE8F8827
BDD06540
BDBA74D6
BE868F40
BDA4AA57
3E0ABB1E
3E0F7561
3E110BE2
3CD796DD
3DDB6FB2
3E7A6264
3DA92252
BDA84832
BDFF1970
BE890491
BCB1D1EB
3C6FDC95
BE7173DE
3D85F913
3D23A4A5
3E1B703B
BE00CA47
BED4A9FF
BAEABA10
3E06504F
3D855C51
3DD0EA42
BBFC75D4
BE4EC3E9
3E1C262B
3DD4C2F3
BDC3D875
BC3B57ED
3E5AFBAD
3E209838
BE2078CF
BEB4179D
BE951A4F
3E060ABB
3D422BD7
3DC0AD98
3B6E45EF
3D69E6D2
3D780AC0
BC91C49F
3B23A2AE
BD1ABF0D
3B90A047
3D0CFDBF
BDC9B2A7
BE883766
BD5B665F
3D29DD5C
3DA9993C
BD0F1BD6
3D20E5DB
BDDE5A64
3D1BE9FD
3D1BA9B8
3D8FDC61
BD8FB0FE
BDBF8F10
BE8A9CFA
BE67F379
3CA87AE8
BDEFBB20
BDF09AF6
3E226ED0
3CF61794
BDD56CB5
BE47577A
BCCF7F54
3DF76294
3DA65549
3D907EFA
3DE0C58D
BE4BCE7B
BE3AB66C
BDEBA6F5
BD492EEB
3CEAA902
3D82808A
BD37F107
BDF0E81C
3DBDF4A5
3DD99DCE
BDD88256
3C001A44
3D45141F
BDB2032C
BE86C710
BE86F112
BDBC68E0
3D9C9E8A
3E375390
3E2A42FA
BC3363E4
3D993642
3E19D8FC
3E08D6D2
3E327643
3D929164
3DDC6960
BD4BA368
BE02FDE0
3E2760BB
3E85B8C9
3E9A7913
3E45D8C1
3D00121F
BDC85CB2
3E4EC031
3E81B4CF
3DCBBF53
3CC21584
3E2EAD4A
3C86403A
3B830E85
BC8CEAFD
3E229F04
3EBAECE7
3E5A8761
3CB52089
3C5B4F3C
3DB2C0DD
3D478691
3E5232D6
3DAAA33C
BE2ACB5E
3DA05F28
3C3A1B9D
BD89E85D
BDAFFD3F
3C1FF0F6
3D6EA19D
BCA6D7D4
BDB408DD
BC974A4A
BDAD0800
BD7C6090
3E0F0D61
BD86BD88
BE623C3A
BDFDE55C
3D8F2A6C
3DE3C898
BE193624
BDC8F3F2
BCB26442
BDFF6B76
BC27446D
BD4195AA
BDE3C3FA
BD8369C5
BE425066
BB03E253
BDE0A722
BC88AB6C
BC1B03F1
3DC0FBF7
BDAB8609
BE040472
BDFEFDCF
BD901E89
3CD9679E
3DBC8616
3DEA94D7
3D8ED602
3D8E5E4E
BD6BBC92
BDF74D29
3D92E21A
3D2DF3C6
BDC7D257
BE3595AD
BDB68C54
BDC82730
BC94D562
3CE91C48
3E538094
3E8F3A3D
3E891A65
3DF01915
BE6CEC99
BD860F69
BE08FFFA
BD25E928
BD15185C
BD73805A
BD6BFABC
BE308C39
BE4AE7F2
3DD40958
3EB4A417
3EAAE0F2
3E364D17
BBE020A3
BEBDB0C2
BE9A56C9
BE4B6D80
BC84426E
BD856F4C
3D97EFA6
3E329F18
BE20C6BE
BD18C93E
3DD6AF71
3E6223B4
3E132F4A
BD6F5F37
BEC90335
BF1337F6
BEDBB7FB
BE6596C4
3E0803AF
BD649E3E
BB690CBC
3D94430D
BCE3A0C4
3D3B9387
3E1C3A63
3DB2B1BC
BCC85395
BE9E354A
BEF51B88
BE80468F
BE69880B
BEA16514
3DB32304
BE52BF87
3D38A031
3C604419
3DBC8280
3DB905D0
3E18ED10
BD44795A
BDC67D52
BEA888BA
BEECC100
BE029962
BDBA17EF
3DE9BB57
3D8413EA
BE0F38B8
BCD6E261
3D80CE9D
BD66DEEA
3D5493D3
3D1C8716
BE16084A
BE1D418A
BE14EAB1
BE03E7CE
3D99C41A
3D7D46A9
3E6FB09E
3C1B12F7
BE1D1D29
3E13060C
3D3D2085
39661404
3DB31FF6
3E1F2098
BC8C3ED7
BED41F30
BEAB4183
3C9B3513
3E76E4C4
3DAA3BD7
3DF93AA4
BCF542AF
3E4A342B
3DE50D2B
3E3753A1
BBEED8FD
3DDE04CA
3E8B01ED
3DDDA008
BE443D70
BEADE851
BE9C5BE8
3DB128B3
3E53FC37
BB0254B5
BDDCE5CB
3CCF27E8
BBA63C1E
3D407EB9
3D98260E
3DA339A2
BCBA8DCB
3DE9CBDF
BD50DADC
BDEE9760
BCC85CD3
3E1B0922
BD544889
3D15BC09
BE007641
BDF08F49
3D8CEE91
3CB4CF1E
BCE290CA
BC4DDAF0
BCFD6EB5
3D0D74CB
3E284D88
3E5DD5C0
3E8A0FA0
3E94F60F
3DF43BED
3E1F1B8E
3D6E3CF2
3D64367D
3E3F999D
3D1D2C65
3D710F26
BB30968E
BDA8C499
3D0BBC3E
3DF44702
3E836413
3E3AADFA
3CC0F496
3C87C15F
3DA590D5
BDF32FD9
BC65E53D
B9F7FC6A
3DE81E95
3CDBF197
3E2185BA
3D335A70
3E5199CB
3E409BCA
3D3F6CEA
3D112DB2
BE190A98
BCBCFB81
3D439CC4
3D9E19E2
BE10CF4B
3C9BBE06
BE0E431F
BE143738
BE2EC6F0
BD57BA27
BDB97F90
3DDF35F5
BD1A9D9E
BCDF4535
BD998E6A
BE06E671
BE1F52D5
3D408DBB
3D7AD10F
3CFAC516
3C15158A
BDEEA418
BE012A76
BDF7FF13
3CE7B450
3BC5853C
BE19B386
BDD84027
BD238913
BE15EC8A
BE39DB34
BD9EAE7A
3D4FDCB3
BCC965BE
BD31C850
BDCC4559
BDDE6285
BD817CCA
3C3CFFE2
B8815058
BDA33A7F
BCB62664
3D442D89
BD8296B6
BE975F52
BDBCA8FF
BC52564F
BDD0C01B
3DC643D5
BE510740
BE4F2A4C
BD6B3773
BDA008EA
BDD0E188
BC5BE48F
BD21220C
BD076278
BDD2FAD7
BE4E11DA
BC7A91E3
BD541FBE
3D34FA7A
3B97050F
BDCA2E24
BDFE8049
BE7EB39B
BDBC5904
BDE44E93
BD2862D9
BD8BD924
BB3717AD
BD9E9B9F
BDCC170D
BDB63B8F
BE14DB4E
BC9E393A
3C57AFC0
BE842152
BCEEA464
BE7A8F13
BE005975
BD4BA1D5
BDB48AE0
BD5FE6A9
BD9A65BC
BD12EB29
BD7EE420
3D338C49
3D14BCAF
3E1E5746
BD26FFAA
BE3B5AE5
BEA9967B
BEBEAFE9
BE006A21
BDA00266
BEA873BF
BE7AF20F
3D9EF0E3
3DB9C365
3D89878B
3D0441D3
BE85D965
3C87FE15
BD033D46
BDF7F86E
BE82186E
BEB9E5E7
BE147B64
BE51177F
BE7B8969
BDAA0272
3E011D30
3C05ACF8
3D3C1390
BD413A77
BD9945EF
3D7F9AE5
3DE6B299
BE85C2F8
BE9F805D
BEB7B33B
BD945E9E
BE45AAD2
BE4E09F5
3CFBFA97
3E12AD19
3C65FB49
3D93191B
BD5FD9E7
BD2003C7
3D94B0EF
3E17D351
3D4A7441
BE4A1782
BDEC1593
3D968A1F
BA26C2A4
3E033D65
3E03379E
3E5A240C
3D3FA763
3DA394C2
3C85C9A5
3E27A50E
3D970EE0
3DCDD335
BD77666D
BE707394
BE1E9DC1
BA0CD2B1
3B919CC1
3D8D0711
3DBE0E1F
3DF1DFF1
3B5300FD
3E596310
BDBDCDD6
BE33BE02
BDAF9912
BDD6B16F
BE8E017F
BE9071CB
BE1A606A
BD351848
BD1096EB
3D639995
3E31456D
BDB95D17
BE3650A0
BD788968
BE4D1CF9
BE83E639
BE43C554
BE83222A
BE0546DB
BE16A362
BE82F0EB
BE10FA7E
BDDB9028
BE2D1E67
BD28AFB7
3C62A600
BE14B6D0
BDBFE94E
3D29834A
BC8DC59F
3C6BBB9F
3E46D6A0
3E23CFA9
3D03E84F
3DAEF029
3C9E4A39
3DF22222
BD3C9D92
BD80CD7B
BD4907C5
BDA5AF47
3DB894DF
