BD30CF1B
3D83D2D9
3D1181E8
3C007486
3E0C9FB5
3E5D5E95
BDA882E8
BE22F46C
BE1D9BFD
BE042635
BE894790
BCE1A13C
BE1D3508
3D49A871
BC33EF95
BD2554A0
BBBE4F9A
3D80E248
3D0E2778
3DF1FFEB
BD24BDC2
BDE311E1
BE161C8E
BE5A5E09
BE956A97
BD9E45DD
BDCE9FF1
3E01260E
BB5153E6
BE0701D0
3E1A41BC
3E151B5B
BC9CD4AC
3D6C116A
BD482C8E
BE0B640A
BE358EEC
BDBE9B40
BE0BE987
BD97E30B
BD889348
3D118640
BD03E6C9
3E001C58
3E606595
3B241680
3BF6286F
3D0A3934
BD005F69
BE1B6955
BD4A39C4
3DA194B9
3D2701C9
3E173BC3
BDAB9E20
3BDC22EB
3DE042B6
3DDDB195
BC59D919
BDB95323
BD8D07F5
BD62B870
BDB91DCF
BE076127
BD06F906
BCA96CB9
3D9F9B67
3E055CF2
BD59DA01
3D4205D2
3D0146D4
3E1ACE23
BC8F9CC3
3D3B13B8
BE20AD6E
BE3CF175
BE551866
BCEE8C5A
BCFBC643
3D358A6B
3D697CEE
BB7235CE
3E112BFD
3D8C9885
BD9BDC8A
BBD5A9B1
BC958054
BD7ECA0A
BDD19419
BE55180D
BDA3105B
BD868B20
BCF76CCE
3D6BB116
BCC18780
3DF7455F
3DCFA623
3DAC0975
BD92DB51
BDD9A5B5
BCAC634B
BDA0B61B
BDA3DCD1
3D87616C
BB465ACF
BBBEA845
3B9B8530
3D6D20B0
BD1B77EA
BC246D3E
BDC14430
3E946F64
3E264316
3D3FBFCE
BAEE77A0
BB968BAD
3D2EDF8F
3E595FDC
3DF85BC8
3CABE89B
3D67306F
BBBD8162
3D08490B
BBA302A8
BE03D14B
3E951F15
3DFC59D0
3DD6DF1A
3DE35808
3E2A48D5
3E15B289
3D231D79
3CA5282C
3D11B9B6
3C04FF75
3DCE2C98
BE0D9CEB
3D4C3BB0
3DE135E6
3E24C138
3E64C84F
3E4CF28C
3D40E395
3DAFAC6F
3E18B1D7
3DC3F57F
BBD44254
3D8A2044
3CAD7DE9
BDC47CA2
3D3908D4
BC68FA47
3DBF713B
3C52C6BA
3DE86956
3D3A722E
3CBE8096
BCD80434
3D7C0D77
3D64A19A
3CD257D8
3BAC39FD
BDA6677C
BC822654
BCD5FF7D
3D3502EC
3D33F740
BE140C58
BCB19CD0
3D6E2D9D
3D80E40B
BD378517
3D8BEF79
BD801CF2
BC5B237C
BD963077
BE180974
BE13E5EE
3DCB3CE3
BDCB960A
BE180A5D
BC9C23CD
BE6BBCA7
BE1E6D97
BD00310E
BD8D76AB
BD528F99
3D59191C
3D93E508
BD71701C
BDBE7C0F
BD9D2D7F
BD0BD1D6
BE8A7D03
BDD1FFBC
3E020C7B
BD49383E
BDE1EC4A
BC7CFB1A
3DE89D72
3E1FE78C
3E2C3873
BBA1908E
BC653CD8
BD8BAEE3
BEA75885
BE53B6AB
BDE0FD26
3D4E189E
BD5E0D61
BE142697
BE28550D
BDDA6B5B
BC8D18CC
3CF7959B
BD35B2DC
BE13DA70
3C99A46D
3E0109DA
BCCF65C2
BE1F5B9C
BE5F76CD
3CECEE01
3DC21A04
BCAF0CFD
BBD1EB4D
BE230932
BCA68A77
BE02DA3B
BD2573A8
BD6E5970
3CDDB3DA
3E4DC91A
3E04169D
3E4A5787
3DCE89E3
3D9DFE4E
BD52F895
3E56D0CB
BD9FA97E
BC6D5063
BE5B8AE1
BE1B820E
BCD3B983
3DA5BCCE
3E19DB7B
3E4205FB
3D60968D
3D1F3ACB
3E3DE1E5
BE4FBD29
BDF64E73
3D8A425C
3DC477BD
BD44BD78
BEB54613
BEBF4969
BDD2FFCB
3DC62CC8
3E27EB1C
3E38A3B1
3DA0711E
3E1C30A8
39C90B9E
BDEB13D2
3CEC0338
BDC909FF
BD4CC9B2
BCC6BD08
BDFA3BA7
BE74952B
BD04E432
3D31EC7C
3BEB8602
3DA82291
3DA4696E
3DB8DC11
BDB0AD37
BD867ED1
BEABCF2C
3CAAE72D
3CDFBA30
BE41C68B
BE64D8A5
BEA12A12
BE9EB5C5
BD3B9D8A
BD801CCC
BD8F77D1
BDD1C6BD
BDD01443
BE5116EA
BE4011C1
3DB43508
BBF2E096
BE494149
BED92C1E
BF141BA1
BF0A9A6E
BE9D2C97
BE28E643
BE6CB794
BEA857CB
BE38F9FF
BDFFBE9A
BEA787AA
BE1BDD5D
3E8AD89A
BD6DD2A2
BE7B15DD
BE690F72
BE91CF3F
BE845C25
BE2CC75B
BD2CE9CB
BE2D79A3
BE1BA7AC
BDD7BE30
BDED3F25
BE31DA63
BCCAC392
3E7FE664
BE61E276
BD216F9F
BDDAA14C
BD60AF05
3ACF9842
BCD8B2CA
BDAF341C
3BA47D0C
BD0F4FB8
BDA6B275
BDEEEDD8
3CB3FAE8
BC8FB01C
3E265225
BE15D5B7
BDC2A011
BD0B46D0
BC6AE42F
3E0A052C
3D86DEFF
3E127B60
BD525232
BD06227F
3DB74FA3
3DE4F9B7
3CDF8E98
3CFD27FC
BDB1545F
BDA25EEC
BE0F9D31
3BF12208
3E1757D2
3DEF1E28
3DAEAC05
3CF02820
BD0691A4
3D291848
3E080209
3E0051CC
BD818CF4
3D46ABC0
3D8F30E5
BD27E717
3D677F65
3E369511
BD570D00
BE1E3425
BE3F3E9A
BEA05549
BE53979A
BDA2C7AB
3CCF9891
3BCA4E4B
BE0E4BDF
BD46463A
BB79666B
BD429C56
BD2F411E
BCED164E
BE6844F7
BE552EB6
BEAFC690
BE92956F
BE62151A
BD1D40B4
BE086C41
BE8E7A7A
BE8B26F4
BDEE370C
3DD1EE74
BD9DDD49
BDB6AD79
BD4F1826
3E0FA41F
3DA18ED0
3C77C66C
3DB5827E
BD8D1B34
BD2CC783
BE1B639C
BE182E76
BE65281D
3D3CC5E2
3AC947C1
3C7B8C29
BDAF7DD6
3DB9DBCD
3D3B3D29
3D8744FE
BE1BC28C
BE2AEFDE
BD8F9920
BE073FCF
BD051B99
BE4213C2
BD999EC7
3D81839E
BD0BF549
3D31D04B
BD290487
3D691F99
BD12EB6D
3B70F54E
BDC04587
BE1E75F8
BE7E4E34
BE9E2BEE
BE773A5C
BE915FB3
BEA1D481
3BB89937
BE66CC7F
BCA0529C
3D064813
BCFD8ECE
3DDBD8D0
BC86101F
3D7A9D44
3DC80BF8
3D6F03B8
BD9608E2
BC94B868
3C76AAA5
BE311FB9
BE6822CE
3BBFE51C
BE2485BF
BDD1BE8B
BD38E3CF
3D4A01F7
BDA85BD9
BDB4C3D1
3D48D3BC
3E12C1CE
3DCB36FE
3D3D8BAB
BCE70852
BD9FC383
BE08AB74
BDCFC837
BDF8F34F
BDE865AC
BD03FCB6
3DA153E0
3DD09784
3D372860
3E19302B
3E3C2771
3E06FA17
3D5F9AE9
BDB4EDD6
BD81A723
BE5F6E52
BD8239B7
3BB4F157
3D7FB5A4
3DDF19A6
3E3E861F
3E5070E2
3E2FBE76
3E10C5A7
3E3A1F03
3E69305E
3E3DBCE6
3E238CDA
3CC655E5
3CED0F3E
BD25FD77
3CF45A9E
3E14C0C7
3E3B48FC
3E1EF803
3E2810D7
3E5CB19F
3DA49DA9
3DD08A92
BD38A1F1
3C3DFF92
BDCB55EE
3E180CC9
3E52C587
3E3BBC02
3E201F0F
3D12D70E
3D405B03
BDA4D737
3D1B6035
3D74CDAA
3B8C39B0
BDC0E6E4
BE35FCCF
BD7338C8
BE2A6F8D
3E358D72
3EE70F5D
3ED9592D
3D93A61F
BD70B583
3BDE89DF
BDB5355E
BE063FE4
BE6CD5AB
BE348F62
BE2F82A6
BDE7CDDD
BD702DF6
3D1C4518
3F16D983
3F115B26
3EB6FDA5
3D2D764B
3D9D6A98
BC58E092
3D045A92
BDADD74A
BE09C72F
BDFE37C1
BC40B28F
BB399759
3E5A4D49
3EDC6680
3EEDA3FC
3EAF229D
3EA33188
3C5977F4
BDCDA1B1
BCDE0D77
BE122E38
BD526689
BCD01FDB
BC2572F0
BC398BF7
3E2BF198
3E936360
3EFE07AE
3EA645D0
3EA04CBA
3E1C1370
3DCE5164
3D30CF4F
3C11044D
3C9B19C6
3D143314
BD454F7F
BDBDB115
BD91C2F7
BCD8DA5F
3E3A6219
3E47C4C1
3E000941
3D9E8DD9
BCF04ED3
BD8ED166
BD9700B8
3D5225B0
3E0611F5
3CC2E7AC
3AC0BA83
3CEBDA7F
3C41667B
BD81892D
BCE6157D
BDA7EEBD
BD825E04
BCF64142
3E3006A4
BCCE4B90
BE0C87C4
3D45D4D7
3DBB38DC
3E9259CF
3E864BE9
3E262278
3E5BDC9E
BC5C98AF
BDCC986F
BDB31519
BD29076A
3CDA1F64
BB75A82A
3C44EE31
BDB72720
BD26C27A
3B3F1B95
3D73BACE
BCD2F161
3C8D5B6B
3C1F8C31
BC865EF6
3CC5C067
3D7B01D7
3C58A392
BD37C387
BBE40C6D
3DB19CCD
BD2EB6AE
3D1870AA
3CDBABC8
3DC21648
3DAF70EF
3D1747F5
3D99ECFD
BCFD1409
BCB0D6B5
BD1F6B2D
3AD7C3FD
BD90ECC2
3D5F4CE5
3C10A410
BCABFCA5
BD537975
BC33A925
BC1B7F27
3DCCEC66
3CF93FB8
BD9EEC12
BD072FA3
BE053F50
BD932E48
BC489F05
BD1BE10C
BD0F245C
BE19EC7F
BD8C5FF5
3DC92C56
BC0A57A3
3D65B76B
3D55E49D
BDD9B06F
BE2C78F5
BCBA7C95
BE33F629
BE5704B3
BD145531
BE0C7825
BE33079C
BE5F946B
3D64B5AC
3E240A14
3D75C9FF
3CC8FCC6
39F8A0F4
BC6D8C85
BE71814D
BDF1017F
BE00C9EE
BDB42001
BDE09449
3CABDAD0
3A73CB2C
3DD39D52
3E3DCACA
3E5DAEEB
3E10F1CC
3DFF7AAA
3DB2B010
BC722770
BD9BDB76
BE53C677
BDDF0ED4
BD46F9C3
BDD2C472
3D999D73
3E4A50E8
3E40ABDB
3E3BE68A
3E309F53
3E0BD679
3D9C2EB0
3D1D1B9E
3D520CA6
BCE965E2
BC623778
BDB8D98A
BD535A75
BD94F99E
3CE874BB
3EACA9B9
3DEB13F9
BD12BCA9
BD12CCA6
3D76E152
3C25B01A
BDBAE1B6
BC575B43
39A27E81
3BD1343F
BC91744F
3CDC029C
3D920B44
BDA6BBA6
3DD4B457
3DFC4A1D
3DAA13CE
BD6CC041
BE1930EC
BDA48BCA
BC4CBD4A
3DF56006
3CA42219
3D3D8858
3DB6DBEB
3E1599A1
3D93E080
BD69AB1B
3D4503C8
3DC7EFA7
3DB56C82
BDAFF637
BDD6CE43
BD4C3922
3D9C89FD
3D8418D4
3DA55993
3E74AC72
3EA657F4
3E85B5BA
3DF1E821
BC8442E8
3C23BAFC
BDA9FEC5
BE4301D4
BE856B46
BE471EB3
3C277DF0
3D2900FC
3C9548D3
BA972ACE
3E1B3A72
3E873E1F
3E912FF8
3E1A763A
3E142713
3E2F6361
BED074AD
BD8FED29
BE533DBD
BEAC1B74
BD7650F5
BD01D348
BD3FD5D1
3E5A8FD9
3E8C5AFB
3EA5B847
3EAEE3BF
3B9F356F
3E1DFFEB
3E439A4D
BD6D5D93
3C8A37F3
BD87BCB0
3C40E577
3D0999E3
BE5B41C8
BE98EE46
BE546726
BDF405BE
3DD3EB98
3E2D51C8
3BB468D5
BDB889EC
3D5B12C0
