BCEF9130
BE066AD9
BD221C16
BE69A958
BDA26D7A
BE2AB65E
BE00C4F1
BDE88033
BE8DF025
3E4148F0
398EFD3F
BBD0C2E9
3E0A9E05
BD9B94A6
BD752BC4
BC09ADE4
3E08CFA8
3D7C4B0F
BE1A0878
3DA8FBAA
3DAC96D6
BDE9F934
3E464821
3CB21552
BDBC0884
3D434885
BC45EDE3
3DC6277E
3CE78E41
3D30A8E8
BD878DD2
BDAEBAAA
3D18434A
3DC5C5F0
3E09A71B
BD32B6C8
BDA2DF43
BE22D480
BD5041A3
3E00730B
3D88763F
3D483D2A
3CA8C344
BE174071
3D28E40A
3E1A7325
3D7D8349
3D2E2C56
3DF66774
BDCC1035
3DC35191
3D022E12
3DA148C3
BD98C229
BD6F7B1C
3DEDF5D0
BE018FB4
3D6AD2DD
3E4E0061
3DC530DA
BE08F551
BC90FD37
3D4235B0
BE182315
3DE78BB8
3CA065F3
3D2035A7
3ADC9B97
BC85464E
BD88E25E
BE066783
BCB7939E
BDB2C433
BD369D4D
BD8E6CF5
BC65D4A6
3BBAF3F8
BE15D68F
BCEE6656
BD32B676
3CADDC17
3D6DC45A
3D4DCF07
BD3010CC
BDA7590F
3DD311B6
BD6FCF7C
3B7FB4E9
3D98DCBB
BC42F7D4
3C734C7B
BEA2D842
B9245497
3B89BFC9
3CA94937
3E0BE1E8
BC454646
BD893907
3D10AFAB
BC2B9D79
BE726B84
BD19E828
3E1ED28F
BD35CE64
BD97A05B
BDA43287
BE6C5A5F
BCF16AA6
BD284F87
3DACA069
3D327ED4
3E6ABBA8
BE14E096
BE01B79F
BE7EAE5E
BD54F5F2
3D3A1B53
3D953C2E
3E354316
BDDBD37E
BE158EFA
BE08AA74
BE3352C7
3D8B9A75
3D78F6D7
3E2E0134
BEA5E730
BD4DB538
3AB7E5F9
3D7C435F
3CC23E44
BCF224C6
3D37A729
BE5B6C45
3E1D101D
3DBEE642
3E24B505
BE074525
BDC53A6F
3E17C3AB
BE898DDE
3DE2E5D5
3E162840
3DCB7240
BE542B55
BD16F8A7
3E6C6A96
BDCAF4FE
BE8544BE
3E23B021
3D1353F0
3D888228
3BC8290E
3E00AED4
BDD4B990
BF20242D
BE05BA10
3D48F4C5
3DCCC03B
3D1C0703
3CB0CD4B
BE4D7B57
BDA51120
3CCB3F93
3C16EEAC
3E221085
3C8D9202
BD3F1430
BE4A9314
3D86C1A8
3E8322A4
3C681D65
BDBD7387
BB976AF5
BB88EB09
BE0F84BD
3DA33ED5
3DC59413
3AA23BCB
BE1C9403
BD007E9C
BCE892C3
BD9B4BB0
3D5941CA
BE7853B3
BCB9DA00
BD830345
BD81433C
BE01165F
3D3E0799
BE7ED2DC
BE7B6174
BC7DDE96
3D8039FE
BC58F39F
BDD4E424
BD754E88
BDBCDCD9
3CB169AF
3D00DDF8
BDF3E7ED
3B2B589C
3D2DCCF3
BE329D09
3D6FEE25
3E167D45
3D8F2CF6
3E103984
BDCCEC4C
3D09062F
3D40045D
3D799BD4
BD269D78
3CE364EE
BDB1E765
BD9344E5
3E20F489
BE36A44D
BD6535B5
3C69B1C0
BE922935
BE602CEC
BE0245D7
3E7745C4
BDA0332C
BD731419
BE45EADE
BDE81AF1
BD91A107
BD814BC7
3D1208EF
BC1935CE
BE1E63CE
BDB94324
BDF12F42
BCE88D84
BC7ECCD7
BE2C1515
BEAD8CC9
3D24B958
BE24AAC7
BD5E3B34
BD585B84
BE31BAD4
BE9CC076
BE4E995D
3D7941A4
3E143EFD
BE7FD7A8
BE84B341
BD296993
BD60BEC3
BE092829
3DA8E5F9
3E1FCFEF
BE72E872
3D378F4F
3DE0A60F
3DB473C5
BE1FA81A
BA9DFC2E
BDD00340
BE667E48
3C863426
3E43C33B
BE9F5419
BE7F7C84
BD9DE744
BE16E84A
BE8515CA
BE70FB87
BE428EEF
BE88A344
BED8AC3B
BE4B4522
BE352D2E
BE3806BB
BDD9DA12
BDC8BC54
BD0748F5
BDC49E68
3D8FBBAE
3DD2D0A9
3DC879CD
BC6E9F29
BD2F3933
BE1D74AD
BE82900E
3D7DE92A
BC92269B
3D0808FE
3DEF3280
3C0A92BA
BD7EC3BF
BCEFB5CA
BD819078
BE0FC38F
BDD32A0F
BC8E99B3
3E0B844B
BCB2D63F
BE51D3DE
3DB9B651
3E070A63
3D1C12D0
3D88ECC3
3D9DF176
BCD58C49
3B3B45BF
BD3E0B0E
3C0C2575
3C5B9B03
3C7533C6
3D321E02
BC38560C
BD09B048
3B0F046E
3D8E49FC
BD17DFDC
3D20B886
3C5F3D68
BD51FB77
BD188456
3D062B05
3D6E596D
3E218B98
3CEB85E0
3E46F29E
3DABB2ED
3C817600
3D476CD5
BCB3EDC3
3E6EC579
3D60AD7F
3DAB8E2B
3E29CAA2
BE2BA394
3D1076C1
3AA8A5C9
BBCE27A3
3DB35123
3DB3E65F
BDE387C1
BE1B5C2A
3D6869F2
3D846486
3D8510DA
3D7B6735
BCF910CC
3D665AF9
BC08FC46
BD4E489C
BD58A913
3CC079F1
3D31CDB2
3DF1DEDE
3DC7A8C6
BD8567C3
BDA48736
BE208CE7
BBC9BCD7
3DB9D69B
BCEC3F3F
3B6D8564
BDD027F3
BDB5EEBC
BDDC345A
BBB7ADDF
BCA23E1D
BD822751
BDCA442E
BE71FF86
BE9CA5FD
3C858BEE
3C8F9DB7
3DA82C87
BD4EDB51
BCCAD6F9
BEFE3650
BEBD86C6
BDACCD35
BD1771C0
3D2E7348
BE9FA0EA
BE660B9D
BBF1E17E
BD50CD2E
3C680C4F
BD0ECC25
BE627435
BE748491
BEB4221C
