01C
1F1
031
03B
013
00F
1DC
017
010
008
03C
02C
029
1DC
1E6
1FE
1D6
01B
028
037
196
011
1EB
1C4
1D7
02C
01B
1D3
199
001
1DB
1ED
01B
1B2
1B2
1C1
001
00E
01A
018
1E6
1E2
026
1F7
1D8
00C
01B
1F3
1DA
040
1E9
1B9
00B
1F3
1F5
01C
1FB
1AE
1C8
1FF
1D8
1B5
014
1E0
00F
1D4
1F3
1B1
18A
01B
01E
01D
1FD
1F8
1EE
009
017
020
1F0
1BC
1D8
019
032
025
1CC
1FC
1E5
1EE
01B
017
016
1FA
009
032
037
021
006
1D0
022
00C
00F
01A
039
033
02D
01D
023
1E5
1D4
1B8
01A
00A
038
00E
01A
1D6
1C2
1A1
1A8
028
1DB
01B
1D7
1E3
18A
1B6
008
000
008
1E9
1D8
1C9
1E8
016
1FF
1FE
1EE
1DF
1E8
1F9
01E
00C
1F4
1D6
014
000
007
00D
015
001
1E5
005
1F0
019
01C
1F4
1EC
1EE
011
1CA
1E4
01B
001
00A
1EC
006
019
01C
00F
011
1F9
004
1FF
02C
023
015
1FA
014
019
007
031
00B
019
01E
01D
001
00B
1FF
1D1
018
019
1F1
1FF
00C
1FB
1EB
01F
00A
03E
1F2
1E7
1DC
1AF
00C
00A
00E
1F0
006
1E5
1FD
015
00D
012
1E2
1F7
1FD
1EB
036
00F
009
020
025
014
1EE
009
1E4
1CD
011
025
005
1FC
1F5
00A
18A
1DD
009
1FC
00F
00B
1E7
172
1AC
01D
1EB
005
010
006
1A2
1CA
01B
1FE
1DC
037
1FC
1D3
025
035
1D8
006
1F3
1F0
1EF
058
03C
005
1F3
003
1E9
1CA
03C
1FE
019
1F6
017
011
02D
036
1CB
017
1EE
1F0
00C
03B
1F2
00C
021
1C5
00D
006
002
007
006
1F7
1C5
025
005
033
029
017
1E8
1B5
01F
1CA
1DC
00A
019
1F3
1EF
030
1ED
1DD
1FA
1F9
1EC
1EA
1FD
1B8
1DF
1C9
1FB
001
1FE
1EA
1DA
1F4
1CB
016
1FB
01D
1DC
1DA
1EF
1A8
012
1F7
000
009
016
1EE
1B5
011
1C1
1EF
02A
021
1C7
1C5
1E9
1CB
1F0
1CE
1E8
196
1AF
026
1E6
1F9
1D0
03A
1C5
1FA
035
008
017
026
017
1F4
1F5
028
025
004
1FE
1F8
1D2
1CA
1E7
003
1F2
1C3
000
1F1
1BF
1D1
002
1F1
01A
1F3
00C
1F9
00E
015
02A
