BD30CF1B
3D1181E8
3E0C9FB5
BDA882E8
BE1D9BFD
BE894790
BE1D3508
BC33EF95
BBBE4F9A
3D0E2778
BD24BDC2
BE161C8E
BE956A97
BDCE9FF1
BB5153E6
3E1A41BC
BC9CD4AC
BD482C8E
BE358EEC
BE0BE987
BD889348
BD03E6C9
3E606595
3BF6286F
BD005F69
BD4A39C4
3D2701C9
BDAB9E20
3DE042B6
BC59D919
BD8D07F5
BDB91DCF
BD06F906
3D9F9B67
BD59DA01
3D0146D4
BC8F9CC3
BE20AD6E
BE551866
BCFBC643
3D697CEE
3E112BFD
BD9BDC8A
BC958054
BDD19419
BDA3105B
BCF76CCE
BCC18780
3DCFA623
BD92DB51
BCAC634B
BDA3DCD1
BB465ACF
3B9B8530
BD1B77EA
BDC14430
3E264316
BAEE77A0
3D2EDF8F
3DF85BC8
3D67306F
3D08490B
BE03D14B
3DFC59D0
3DE35808
3E15B289
3CA5282C
3C04FF75
BE0D9CEB
3DE135E6
3E64C84F
3D40E395
3E18B1D7
BBD44254
3CAD7DE9
3D3908D4
3DBF713B
3DE86956
3CBE8096
3D7C0D77
3CD257D8
BDA6677C
BCD5FF7D
3D33F740
BCB19CD0
3D80E40B
3D8BEF79
BC5B237C
BE180974
3DCB3CE3
BE180A5D
BE6BBCA7
BD00310E
BD528F99
3D93E508
BDBE7C0F
BD0BD1D6
BDD1FFBC
BD49383E
BC7CFB1A
3E1FE78C
BBA1908E
BD8BAEE3
BE53B6AB
3D4E189E
BE142697
BDDA6B5B
3CF7959B
BE13DA70
3E0109DA
BE1F5B9C
3CECEE01
BCAF0CFD
BE230932
BE02DA3B
BD6E5970
3E4DC91A
3E4A5787
3D9DFE4E
3E56D0CB
BC6D5063
BE1B820E
3DA5BCCE
3E4205FB
3D1F3ACB
BE4FBD29
3D8A425C
BD44BD78
BEBF4969
3DC62CC8
3E38A3B1
3E1C30A8
BDEB13D2
BDC909FF
BCC6BD08
BE74952B
3D31EC7C
3DA82291
3DB8DC11
BD867ED1
3CAAE72D
BE41C68B
BEA12A12
BD3B9D8A
BD8F77D1
BDD01443
BE4011C1
BBF2E096
BED92C1E
BF0A9A6E
BE28E643
BEA857CB
BDFFBE9A
BE1BDD5D
BD6DD2A2
BE690F72
BE845C25
BD2CE9CB
BE1BA7AC
BDED3F25
BCCAC392
BE61E276
BDDAA14C
3ACF9842
BDAF341C
BD0F4FB8
BDEEEDD8
BC8FB01C
BE15D5B7
BD0B46D0
3E0A052C
3E127B60
BD06227F
3DE4F9B7
3CFD27FC
BDA25EEC
3BF12208
3DEF1E28
3CF02820
3D291848
3E0051CC
3D46ABC0
BD27E717
3E369511
BE1E3425
BEA05549
BDA2C7AB
3BCA4E4B
BD46463A
BD429C56
BCED164E
BE552EB6
BE92956F
BD1D40B4
BE8E7A7A
BDEE370C
BD9DDD49
BD4F1826
3DA18ED0
3DB5827E
BD2CC783
BE182E76
3D3CC5E2
3C7B8C29
3DB9DBCD
3D8744FE
BE2AEFDE
BE073FCF
BE4213C2
3D81839E
3D31D04B
3D691F99
3B70F54E
BE1E75F8
BE9E2BEE
BE915FB3
3BB89937
BCA0529C
BCFD8ECE
BC86101F
3DC80BF8
BD9608E2
3C76AAA5
BE6822CE
BE2485BF
BD38E3CF
BDA85BD9
3D48D3BC
3DCB36FE
BCE70852
BE08AB74
BDF8F34F
BD03FCB6
3DD09784
3E19302B
3E06FA17
BDB4EDD6
BE5F6E52
3BB4F157
3DDF19A6
3E5070E2
3E10C5A7
3E69305E
3E238CDA
3CED0F3E
3CF45A9E
3E3B48FC
3E2810D7
3DA49DA9
BD38A1F1
BDCB55EE
3E52C587
3E201F0F
3D405B03
3D1B6035
3B8C39B0
BE35FCCF
BE2A6F8D
3EE70F5D
3D93A61F
3BDE89DF
BE063FE4
BE348F62
BDE7CDDD
3D1C4518
3F115B26
3D2D764B
BC58E092
BDADD74A
BDFE37C1
BB399759
3EDC6680
3EAF229D
3C5977F4
BCDE0D77
BD526689
BC2572F0
3E2BF198
3EFE07AE
3EA04CBA
3DCE5164
3C11044D
3D143314
BDBDB115
BCD8DA5F
3E47C4C1
3D9E8DD9
BD8ED166
3D5225B0
3CC2E7AC
3CEBDA7F
BD81892D
BDA7EEBD
BCF64142
BCCE4B90
3D45D4D7
3E9259CF
3E262278
BC5C98AF
BDB31519
3CDA1F64
3C44EE31
BD26C27A
3D73BACE
3C8D5B6B
BC865EF6
3D7B01D7
BD37C387
3DB19CCD
3D1870AA
3DC21648
3D1747F5
BCFD1409
BD1F6B2D
BD90ECC2
3C10A410
BD537975
BC1B7F27
3CF93FB8
BD072FA3
BD932E48
BD1BE10C
BE19EC7F
3DC92C56
3D65B76B
BDD9B06F
BCBA7C95
BE5704B3
BE0C7825
BE5F946B
3E240A14
3CC8FCC6
BC6D8C85
BDF1017F
BDB42001
3CABDAD0
3DD39D52
3E5DAEEB
3DFF7AAA
BC722770
BE53C677
BD46F9C3
3D999D73
3E40ABDB
3E309F53
3D9C2EB0
3D520CA6
BC623778
BD535A75
3CE874BB
3DEB13F9
BD12CCA6
3C25B01A
BC575B43
3BD1343F
3CDC029C
BDA6BBA6
3DFC4A1D
BD6CC041
BDA48BCA
3DF56006
3D3D8858
3E1599A1
BD69AB1B
3DC7EFA7
BDAFF637
BD4C3922
3D8418D4
3E74AC72
3E85B5BA
BC8442E8
BDA9FEC5
BE856B46
3C277DF0
3C9548D3
3E1B3A72
3E912FF8
3E142713
BED074AD
BE533DBD
BD7650F5
BD3FD5D1
3E8C5AFB
3EAEE3BF
3E1DFFEB
BD6D5D93
BD87BCB0
3D0999E3
BE98EE46
BDF405BE
3E2D51C8
BDB889EC
