BC776AE3
3D9116F5
BD4427F7
3C115992
BDF2099F
BE06DBBC
3CF40A36
BD9B2B59
BD8A4058
BE49FF04
BD64513C
BE3EE41B
BE1E9ADB
BDD00311
3B8C388F
BDB45FD6
BDE75BFF
BDB17042
BDF332E8
BE2B1F65
BD8B105C
3C8D5E4A
BD44C9C1
3CC105D1
BD94DDA1
3D2F2D25
3D8B9E5D
3D922DB2
BBD2C61E
BD79FA02
3D15ED45
BC252FB9
BD813BF6
3D850F14
3C980CBA
3C11EA91
3C57B310
BCB730D4
3DD0ED60
BDCC2BE5
3D9838C3
BC9BA04F
BDF992C6
3E0CD3A6
3DCBE05C
BBB0273A
BC661273
3D547817
3D6C36D8
BDB0C1B2
3DD3CCAC
3DD9911E
BD5A9BBF
3DBC6637
3D84A26E
3D54008C
3BF51EDD
3D188972
3D0E749B
3D05524F
3DC11B1B
3E0ECCA4
3CCF3DA9
BC828057
BD361BDE
3DB5E67C
3C2803E6
BD105522
3DEA1B9D
3D0EC3C4
3D4D572F
3D2440D0
3E07DE3B
3DD0C398
BD7B4BB9
3D770070
3D54BDE4
BD8A32C5
3D5B3B71
3DB2B3B7
3D15EA57
3D84597A
BD7B3454
BE2585CA
BDF3F18B
B9A9B546
BD851522
3CB1420A
3BBCFC4C
3CD64590
3C5504B3
BDACC9EB
BE855D09
BDE80B66
BE6F4075
BE10A802
BE502772
BD4C9C08
BD56D646
BDE0BB6A
BC635D58
BCD74E25
3D65D790
BE0C3BE2
BCC4FBE0
3D046091
BE24AE41
BD1945AB
3D238838
BC4FD320
3C0F42D3
BEB53BAC
BDFD403B
BE2A8A1B
BE11EB28
BCA2EFD4
BCCB91F5
3D8A0DF8
BD78F8C1
3C5FD653
BE58E92B
BD888FC8
BDA93EA5
3DD848AD
3DE9D415
3CA7C0E7
3D9841AC
BE7E920D
BD9CD670
3D71020B
3E780E02
3E1CE5B9
3C97CC0D
3D9DA79D
BE7FAED7
3DA94C87
3E0E6AAD
3E85DFCE
3E1D3548
3D8ADDF7
3B3F97F1
BDD12E91
3D78A32A
3E715D0A
BC6B701B
3D5F90FD
3DA54AFB
BE196059
BD08E766
3DEE9153
BC9AF4F9
BCB9121C
BDB7D089
3C9B2247
3DC3F38D
3DE3A4E6
3DA07049
3DD3F68C
BE3A8E1D
3C9F1D0A
BC5F0875
3D8E98A7
3D5F389C
BC39EA29
3DE407D0
BC12C4D5
3CC2E409
BD8119C9
3D00F028
3E750E86
3E1E4B70
3DBDA147
BD98BEAC
3C69E5B4
BE13CF6D
BCC2DF14
3D062910
3E8583E2
3A9806E5
BDE594C6
BD92BD1E
BDB68597
3D0369D2
BD99F80C
3DE03944
BE7A1581
BE4ABA47
BE7BF0AD
BDD3748D
BDA036C8
BDBCCD4D
BD06C380
BE4000A9
BE32546B
BEA805D0
BDE83089
3DC36E40
BD7A3ECE
BD3F9A32
BE034C50
BBEB9596
BDBB3198
BE10442D
3CA5F0FF
BDF967BA
3BDC1DBF
BC1BAD42
BCAA2CEC
3D25ED69
BDC701F6
BDADE144
3CDF5924
BDBE4A73
3D0039D3
BDF8D12E
BCA3F737
BE64A14E
3D7D4EEA
3D4F726A
3CC3BD5C
3D611B78
BDC1A5B2
BD890286
BE5DD444
BD58E42E
BCA709FC
3DFC8E29
BE5B2E4B
3C179147
3CC57CA0
BE9F1E47
3D7305B5
3DC5690A
3D776471
BE382993
BD238D37
3D60C85B
BE9DABDA
3D82F938
3E1C6C5F
3DFF216B
BEB34737
3D567D55
3D21B9FD
BEE579B1
3D31BA1D
3D429434
3D27FD2C
BEC9BABF
BB6C71AD
3D1538B4
BEC32734
BCEC1DB9
BD88419D
BE1C3080
BE614537
BDC4606D
BD991996
BEA23D5C
3DBD2112
3AEA0FDF
BE0BF515
BE8FA5C1
BE6E7F1D
BE03400D
BDD8F833
BD62CF71
3D94CE18
3CFCD70A
BE5A48F2
3DEEF722
3E578CE0
BC78D964
BC98A91B
BE430188
BD00FC4B
3DD07C18
3DEC5670
BD2EFCC8
BEAA4373
3A8B2E3D
3DCCB28E
3C98FB50
3E14EBC0
BD3D707B
BE6EE2D0
BC851A55
BD4E6EDD
3DF821A3
3CF34BE2
3DEC5DA9
3B1D4697
BE0EEB69
BD014C77
BCF7B66A
3A1E8A3C
BE2805CD
BDB7EEFA
BDDEDEA4
BE2C3AEE
3D72C034
BD606778
3D044BE7
BD678992
3C8BC767
3D953C02
3C3B1F12
3D3A546E
BE23CC79
BD5E15AD
BCC3CE2F
BCAB76BD
BD87AE77
3C82E8A3
BAA6FEBE
BDA4A714
BD8B0F7D
BDFF544D
BB3A5652
3D9A717B
3D25B3D4
3E113B68
BDEDF21D
BCE24092
3D0E9E89
BCCEB69A
BD3CAE1E
BC67CB3A
BD317C20
BD6474F9
BDBAB665
BDD212FD
BE16AC65
BE36BB57
3D88AF51
3E1A5942
BD8AF7E8
3D408E4E
BD677A70
BED17FF0
BE9A1521
BCC196FB
3D0F2196
BDBE3A88
BCDB42D8
BE47EE83
BE1E181A
BE697E10
BCB8D9A1
3DD493AE
3C8A6829
BE6E72BA
BDAA0870
BDB74209
BD396EEF
BD56652F
BC3348BD
3E44AA0F
BE71639B
BDC19FB0
3BACCD8A
BDD3776F
BE21897F
BDFC74CA
BE1A2556
BE22DC84
BCD7D3E4
3E1BEDEB
3E01D8D6
BE0CE3BB
BE01D56F
BE4E9CBD
BE930353
3D071E00
BABDD552
BDDABBA7
BEA39E54
BE50B890
BDE5AC5A
BEBE5EA4
BEA2905A
BE55F692
BEF63E2E
BE72E313
BE46F2E2
BD1BF32C
BD2120DE
3D018EB3
3E05F1EA
BE43CB24
BE92B60A
BE0A73AF
