BC458A9D
BEABBAEB
BEA1A8C0
3DBF548E
BE26D91E
BDA40520
BC58AAAC
BDC5D783
BDD1E563
3D333AB6
3E72A125
3E4BACA2
3DD1AB1F
BDF6C0D7
BE490BAC
BDC71396
3D49115C
3E08D1ED
3F0367F4
3E697AC1
BC83E15F
BE472FA6
BD960938
BBB96689
3C05923B
3E815D06
3E4C97ED
3CA46D37
BE5C6241
BBB10AE5
3D8331AF
BD8D9345
3D50CB7D
3CCA8C16
BDFB581E
BE10EBFE
3DA23137
3E1A055D
BDF06B78
3DEC23CC
3D2A2A23
BD397412
BD3C5F00
3E05550A
3E08D3BF
BDEC1386
3C88F81B
BD295570
BD8C3B1D
3DC6CA4A
3E09A884
3D401135
3D2DAC16
3DD1DB9E
3D9707D0
BDE8E52A
3DA20D08
3E118BC8
BC85F74A
3DA298B1
3E0C116B
3D7CD69A
BD7D119F
3D8130DC
3D6567C0
3CB84080
3BA9D0A6
3DE3E60E
BDC1986C
BC51E4BC
BD3AF7C2
3D37E5F4
3D5303AA
3CBBB05A
3C53C6CF
3E082FD9
BE0F59CB
BCB2D2C4
BDF6D78B
BD0AB338
BE0EFEAF
BCF7F795
3D35930C
BD719DF1
BE9B55BB
BDA7B800
BE153A92
BDF4B993
BE2B75C4
BD4BBCC2
BD596092
BE39FA2A
BDDC4CA4
3C9DB77D
BDDDE564
BD21DF7C
BDFB0B68
BCCD04F6
BE2BADEE
BE2526CD
BEC7420D
BE18DD85
BE4E1141
BDCA1B4E
BD1E3F0B
BC2CA7BD
3D9FB899
3E1A81D5
3E906AE7
3E03DD22
3DC7A730
BE0F162E
3D45D795
3DA615FA
3EC05E5D
3EC59A5B
3E6E3AAF
3E296CB4
BDC2A310
3D176FC1
3E9940FF
3EDC734A
3DC317CC
3D69E412
BDC1E3B3
BD8339AE
BD8B5233
3E3BCE0D
3E50FAB5
BE0A597A
BDB27FA5
BE602B0A
BC5C6F7A
BDF7AFDF
3E0AF035
3E495F0B
BDA230E9
3B103338
BE2081B4
3D0A29B3
BDEEDED7
3DA42E8A
BD2F3A9E
BDAB65E7
BCAF2B55
BDEFC321
BCEF468A
BE8B17E5
3E010C8E
BD97862D
BDC0DB12
BDB39DA5
3A863AF0
BD661614
BED597A4
BD5262A0
BDB7034D
BE0A8713
3CABB5F2
BD1FB950
BE026F84
BE890988
BE6D3696
BE21F6CD
3C6F0CB3
BD1E7EC6
BCD4BF73
BD2B0340
BE67CF7C
BDCEFA8C
BDE9116C
3D7B8A3A
3CD65130
BCAC842A
BCC43EA9
BC93FCDA
BCE19355
3D58B81D
3E60F935
3CB27A57
390EBE62
BE66F96F
3CD84038
3E0F2E02
3E57EB54
3E471685
BC986301
3E0E680B
3D79454D
BDCB00A7
3C13682C
3E0D70D6
3C7E6CF9
BCB46BD6
BDA5DF4B
3B0AA857
BE7B5002
BE545D8C
BDF44F32
BE54442B
BD5A7074
3DF561FB
BE0DCD0A
BD6F28BE
BDD04A62
BD82AD58
3D16F474
3DAFC95D
BD002087
3D62CCAE
BD18F5DE
BD212DEF
3DA34C32
3DF9D300
3E834194
3CFDD2FE
BE3A94E6
BD7CEB39
BC68E056
3C971ED1
3E39D94C
3E83BDB5
3E1EC608
BE15D5AE
BCE101EA
3DAB378F
3DEE05E9
BE891883
3DE84202
BE6DE0C4
BE9E808A
3D6F339E
3DAE50B4
BE299541
BE6305AF
BD6B2D51
BE43B2D5
3D774A5D
BD69558B
BDCC54D4
BEBBB633
BD00AC1D
BDF7135A
BE5FDF01
BCBBC56E
3C261C46
BD23BD0F
BE073108
BCD23FB7
BD00630F
BD0B7F70
3E1A3E1C
3D7A4953
3D1540B2
3D9D41BF
3D96704E
3E164CE4
3E856AB5
3D46CDE6
3C6675FA
3DF758CD
3DC30811
3DB401F6
3C92E0F7
3DCACC86
BCE48E5F
BCD87A40
3D74016B
BD0E258D
BD234EED
BD8F462D
3E2859F8
BD41E71E
3D8A059C
3D3704DC
BE17A9F1
BE075A52
BDA9BD43
3B4C9D98
BE7C0F4B
BDE0B25E
BDA82B6F
BE811303
BE7D2BDC
3E291217
3E1890CD
BB70751E
BE7D9BA2
3D4D50E9
BD5ED54D
BD45E8AC
3D00D884
3DFD0B55
BDB02FB1
BDE6FD34
BEC47496
BECE6BE0
BEB3C5AF
BED9D10A
BE92E40A
3DF4A13E
BDC37EEA
BDF3A92D
BE5E0005
BDDB96BC
BDDDB9A0
3CC28199
BCCD4994
BDF0D7D9
BD4C4997
BE47F918
BE65E513
BE931CB3
BAEB6E41
BD6157B7
BD882BD2
BB9739A1
BE1EF5A8
BEAC1609
BE532052
BD527212
3DBBCDA0
BC5B976B
BE0CC145
BE9CDA46
BE9DDFFC
3D15883B
3D47BB32
3C9FC00B
BCF09268
BDA660E3
BE18A3DD
BE8A8BDD
BBB4E2A8
3D04F95C
BE83C219
3D567C54
BD193B74
3D30AA9D
BDE9E6F8
3D1CA08C
3D173A3C
BCE75CCC
BDAADBBE
3D015C32
3D87D6D8
BD8FFB7B
3DBC3595
3CE68C48
BE0E9F9E
3D96B326
3C845449
3D9C58E7
BDBE6E35
3DC8EA74
3CDC66FC
BDCDCB0A
3E381330
BD19AA84
BCD2985D
BD66B534
BD96655D
3A72D9B8
BE13E8CB
BD4A3BAA
BD8BA290
BECD776C
BED2DE29
BD8BEC2D
3C41D5A8
BE00AE3F
BDF88D7F
BE101E43
BE8C726F
BE068BB8
3D949099
3E0D889A
BD1A5E4D
BE8D5958
BEA4897F
BE64C516
BE079D0B
BE03A81C
BE0B8246
BD92755C
BDB083BC
BCF2BC47
3D88D36E
3D137A0D
BAC9ACC1
BEA6FB9B
3E17B0F9
