BC776AE3
3DBC75EC
3D9116F5
BD9F5E42
BD4427F7
3D8C5D3F
3C115992
3C844A09
BDF2099F
3CCBF8B4
BE06DBBC
BD7B11BF
3CF40A36
3CDFFB03
BD9B2B59
BDC2975F
BD8A4058
3D5AEA79
BE49FF04
BE2F1ADD
BD64513C
3CD139AD
BE3EE41B
BCDA6058
BE1E9ADB
BD041B46
BDD00311
BEA1DEFE
3B8C388F
3B5CD85E
BDB45FD6
BE0A4CA2
BDE75BFF
BD38F217
BDB17042
BCB0F7D6
BDF332E8
BD0E9991
BE2B1F65
BD3E58FB
BD8B105C
BD9AAF11
3C8D5E4A
BE103890
BD44C9C1
BD827CBC
3CC105D1
3DC2C6F0
BD94DDA1
BD83EED6
3D2F2D25
BDB2AD40
3D8B9E5D
BD2BFC2B
3D922DB2
BE0C16D8
BBD2C61E
BD9EC42E
BD79FA02
3E2264B8
3D15ED45
3C8102E9
BC252FB9
BBECD650
BD813BF6
BE165B79
3D850F14
39083EC8
3C980CBA
BE6CD377
3C11EA91
BDB512D2
3C57B310
3E35A98E
BCB730D4
3E09E27F
3DD0ED60
BC51BB67
BDCC2BE5
3DA6BFDC
3D9838C3
3DD38A3A
BC9BA04F
BD0CED0C
BDF992C6
BDE6B47B
3E0CD3A6
3E14348A
3DCBE05C
3D4FF183
BBB0273A
BE3DD080
BC661273
3D72C88A
3D547817
3E36A047
3D6C36D8
398CB504
BDB0C1B2
3DD1D730
3DD3CCAC
3E170425
3DD9911E
3D4FBC2A
BD5A9BBF
BE7B5D19
3DBC6637
3DBB1850
3D84A26E
3E2D6923
3D54008C
BD6740A8
3BF51EDD
3D81C55C
3D188972
3E0A3AD0
3D0E749B
3D7A316D
3D05524F
BC97B66C
3DC11B1B
3CCC03BC
3E0ECCA4
3D07EEFF
3CCF3DA9
BD2D6D44
BC828057
3D9906FC
BD361BDE
3D2551A3
3DB5E67C
3D3D7C91
3C2803E6
3D280DC9
BD105522
3A0CA787
3DEA1B9D
3D39730E
3D0EC3C4
BC6CF15E
3D4D572F
3DD44D0A
3D2440D0
3D06AADC
3E07DE3B
3D4CBAD5
3DD0C398
3DBE564B
BD7B4BB9
BCB3837B
3D770070
3C97B798
3D54BDE4
3D071031
BD8A32C5
BD2EA6E2
3D5B3B71
BBC86831
3DB2B3B7
3C05E64A
3D15EA57
3DEA07C9
3D84597A
BE18010F
BD7B3454
3D4656C7
BE2585CA
BE44C378
BDF3F18B
3E6C6492
B9A9B546
3D878310
BD851522
BD8772C3
3CB1420A
BDB7161A
3BBCFC4C
3D454A3B
3CD64590
BDE19707
3C5504B3
BD9785CC
BDACC9EB
BDD47543
BE855D09
BDC01B10
BDE80B66
BD6C1412
BE6F4075
BDD668E8
BE10A802
BE3EE61D
BE502772
BEBD117E
BD4C9C08
BE64429B
BD56D646
BCF1C350
BDE0BB6A
3C64F9E3
BC635D58
BD56C6B8
BCD74E25
BC23C8FC
3D65D790
BE5B8D1A
BE0C3BE2
3C3C69F4
BCC4FBE0
BDAFC4D4
3D046091
BBC77E73
BE24AE41
BE081819
BD1945AB
3D177AF9
3D238838
BB85BEF9
BC4FD320
BCF0D263
3C0F42D3
BD940C23
BEB53BAC
BD9A0A7E
BDFD403B
3BA83E61
BE2A8A1B
BE3D4082
BE11EB28
BD969239
BCA2EFD4
BD733D45
BCCB91F5
3DF5D988
3D8A0DF8
3D4ACE54
BD78F8C1
BDED2115
3C5FD653
BDA02EA1
BE58E92B
BDC8948E
BD888FC8
BE42F523
BDA93EA5
BB843A10
3DD848AD
3DD92743
3DE9D415
3E3B36B7
3CA7C0E7
BEA1EC32
3D9841AC
3DCC119F
BE7E920D
BD245673
BD9CD670
BE0BDEA8
3D71020B
3DCB43BB
3E780E02
3E6C446D
3E1CE5B9
3E57ABBA
3C97CC0D
BEA42825
3D9DA79D
BBB0F3D3
BE7FAED7
BD043192
3DA94C87
3DED1E9E
3E0E6AAD
3CFA296F
3E85DFCE
3E33C42A
3E1D3548
3E4C7114
3D8ADDF7
BE8BCC77
3B3F97F1
BDADD6E2
BDD12E91
3C039C84
3D78A32A
3E301750
3E715D0A
BDA350A2
BC6B701B
3CC4CD86
3D5F90FD
3E1A9D58
3DA54AFB
BE533AD3
BE196059
BDBBC2D9
BD08E766
3D711847
3DEE9153
3D8D931B
BC9AF4F9
BD81C311
BCB9121C
BCF1B5DD
BDB7D089
3C20EC73
3C9B2247
BD2D90EE
3DC3F38D
BE621B1D
3DE3A4E6
3DC21BD6
3DA07049
3DADBCC4
3DD3F68C
BEC58DD0
BE3A8E1D
BD598453
3C9F1D0A
3DA89432
BC5F0875
BD4A5DAA
3D8E98A7
BD92A899
3D5F389C
3D968E5D
BC39EA29
3E2574EE
3DE407D0
BEB61454
BC12C4D5
3D2BC10F
3CC2E409
BCEC83BE
BD8119C9
BCE87B2A
3D00F028
3D64D43F
3E750E86
3E1985D2
3E1E4B70
3E0C26F3
3DBDA147
BDF34DD2
BD98BEAC
BD90110D
3C69E5B4
BD9C4078
BE13CF6D
3D309F10
BCC2DF14
3DD2F37D
3D062910
3DF6F174
3E8583E2
3D5E8A46
3A9806E5
BD4F16D5
BDE594C6
BDE0CA5B
BD92BD1E
3CB0E98B
BDB68597
BE4F8281
3D0369D2
3D6BEAE8
BD99F80C
BDB4EE0B
3DE03944
BC6CE04C
BE7A1581
BE7D463C
BE4ABA47
BE33C362
BE7BF0AD
BDB56080
BDD3748D
BE29FDFE
BDA036C8
BCD8FB07
BDBCCD4D
BE937E44
BD06C380
BE181111
BE4000A9
BE896DED
BE32546B
BE15BB00
BEA805D0
BE73E3CA
BDE83089
BE83769E
3DC36E40
BD741519
BD7A3ECE
BC81FA27
BD3F9A32
BD92F6DE
BE034C50
BDB4FE52
BBEB9596
BDCAE8B3
BDBB3198
BDA0CA19
BE10442D
3C099BD5
3CA5F0FF
3D3BD23C
BDF967BA
BDB29274
3BDC1DBF
3D1B6DAB
BC1BAD42
BD5F1BE5
BCAA2CEC
BD2C256B
3D25ED69
BE02072A
BDC701F6
BE116DCB
BDADE144
3DA92CBB
3CDF5924
3D8E6345
BDBE4A73
BE1AC1A3
3D0039D3
BCF1A520
BDF8D12E
BE63DC24
BCA3F737
BD0803D8
BE64A14E
3C2DD4D9
3D7D4EEA
BDD1B14E
3D4F726A
BC63B114
3CC3BD5C
BC9DF685
3D611B78
3CF007D9
BDC1A5B2
BD8FEBF1
BD890286
BE59742C
BE5DD444
BD5D7671
BD58E42E
3C91180F
BCA709FC
3DB71123
3DFC8E29
3BF0A8D4
BE5B2E4B
BDDE6F75
3C179147
BD50F36F
3CC57CA0
BDA5A80D
BE9F1E47
BE3B674D
3D7305B5
3DB25C29
3DC5690A
3D55CF21
3D776471
BBF8480E
BE382993
BE8FCB0F
BD238D37
BC3393F7
3D60C85B
BDB2AC20
BE9DABDA
BE80E5B6
3D82F938
3DA087AE
3E1C6C5F
3E39F560
3DFF216B
BDD4151D
BEB34737
BDFE11C5
3D567D55
BDD8DD88
3D21B9FD
3C103D36
BEE579B1
BEB191C1
3D31BA1D
3D15F8E5
3D429434
BCDECF0B
3D27FD2C
BE9E0212
BEC9BABF
BE025D6E
BB6C71AD
BC50F76B
3D1538B4
BDF7C8A4
BEC32734
BE878200
BCEC1DB9
3DA493AA
BD88419D
BD872D58
BE1C3080
BE3C25D2
BE614537
BE8096DE
BDC4606D
3D847BEC
BD991996
BEA6E9AC
BEA23D5C
BE5D3C76
3DBD2112
3DB428DC
3AEA0FDF
BE025BFF
BE0BF515
BEB32457
BE8FA5C1
BDF92D3F
BE6E7F1D
BD6510C6
BE03400D
BDEC3ACB
BDD8F833
BCD15AA0
BD62CF71
3E4958C6
3D94CE18
BC54632D
3CFCD70A
BE13EA35
BE5A48F2
BD6B8BAE
3DEEF722
3E35CC80
3E578CE0
BD3236C4
BC78D964
BE0A17A2
BC98A91B
BDA3DE55
BE430188
BE1A22A1
BD00FC4B
BDECADE7
3DD07C18
3DD930AF
3DEC5670
BD7880FD
BD2EFCC8
BD6B9C9B
BEAA4373
BE5BDB96
3A8B2E3D
3E30DE88
3DCCB28E
BCC84602
3C98FB50
3D6CB167
3E14EBC0
3DA610C5
BD3D707B
3B9BE091
BE6EE2D0
BD475102
BC851A55
3BAB848C
BD4E6EDD
BE26606B
3DF821A3
3DFDBBB4
3CF34BE2
3D4B8FF8
3DEC5DA9
3E051D9B
3B1D4697
BE29931C
BE0EEB69
BDEE5CCE
BD014C77
BE3EE846
BCF7B66A
3C8CDD05
3A1E8A3C
3CC36F91
BE2805CD
BD189806
BDB7EEFA
BE0FFB76
BDDEDEA4
BCF9EA8A
BE2C3AEE
BE251BEA
3D72C034
3D805A55
BD606778
3DE99CAD
3D044BE7
BC85AE75
BD678992
BDAC5D39
3C8BC767
3A9E1F6E
3D953C02
BCF8D637
3C3B1F12
3D0AB704
3D3A546E
3DE22643
BE23CC79
3A8BA225
BD5E15AD
3C7461FA
BCC3CE2F
3D104F9D
BCAB76BD
BAD2CA14
BD87AE77
BCF04D81
3C82E8A3
3E0C707A
BAA6FEBE
BCA9D0BE
BDA4A714
BE0BB59F
BD8B0F7D
BC9A95AC
BDFF544D
BD3BB5EE
BB3A5652
3DC3442F
3D9A717B
BC1349A6
3D25B3D4
3DD0ECFC
3E113B68
BE0E8CD3
BDEDF21D
BDA88673
BCE24092
BD7A9379
3D0E9E89
BDA3A15D
BCCEB69A
3D94CEEB
BD3CAE1E
BC149F94
BC67CB3A
3DE17EBD
BD317C20
3B33951E
BD6474F9
3DA363DA
BDBAB665
3C4EAC8B
BDD212FD
BE2AA7E1
BE16AC65
BE2AA4AD
BE36BB57
BDFB3827
3D88AF51
BA94B45F
3E1A5942
BDE9E754
BD8AF7E8
BBA97C05
3D408E4E
BD137FCD
BD677A70
BE82D941
BED17FF0
BF0B0CF5
BE9A1521
BE1F8E13
BCC196FB
3DEA7102
3D0F2196
3E0A5A57
BDBE3A88
3D9847A2
BCDB42D8
3D157356
BE47EE83
BE56F015
BE1E181A
BE98B8BB
BE697E10
BDE9656A
BCB8D9A1
BD93E5BC
3DD493AE
3D9E8B44
3C8A6829
BE3F75BF
BE6E72BA
BDA0CD04
BDAA0870
BCF4EC2B
BDB74209
BD1E4891
BD396EEF
BE30217D
BD56652F
3CE00CD6
BC3348BD
BDC87990
3E44AA0F
BE123465
BE71639B
3C1FA28D
BDC19FB0
3E0436ED
3BACCD8A
BD285F59
BDD3776F
BD5640B2
BE21897F
BE4FD737
BDFC74CA
BE0DD254
BE1A2556
BE68ECF5
BE22DC84
3C83BFB7
BCD7D3E4
3DB05B40
3E1BEDEB
3D367717
3E01D8D6
BD72F0AD
BE0CE3BB
BDEF93BC
BE01D56F
BD91BEB1
BE4E9CBD
BE7AEE12
BE930353
BDB9DE1E
3D071E00
3C32918D
BABDD552
BD6B4251
BDDABBA7
BDEBCCFD
BEA39E54
BE806E57
BE50B890
BD6C81DC
BDE5AC5A
BE64CC4A
BEBE5EA4
BED35D32
BEA2905A
BE4C1FA6
BE55F692
BEACDC8A
BEF63E2E
BEAE1A44
BE72E313
BED77491
BE46F2E2
BC572902
BD1BF32C
3BCCF541
BD2120DE
3CC2B3A5
3D018EB3
3C887CFC
3E05F1EA
BDD2E82C
BE43CB24
BE7E3180
BE92B60A
BE821E6E
BE0A73AF
3B41C95C
