3DBE1BAC
BE04CF92
BE53061E
BE4DDD8F
3E802F5F
3E200556
3D291604
BC1FC1C1
BE74C134
BDC72ED0
BDF77ADC
3DCA869E
3E85B713
3DA7ED44
BD2643E8
BE362F76
BD309C05
3D14BBBE
BCDC8676
BD8D9283
3D6CB4A6
BEAC7A47
BE0DA9F1
BD5D6499
BC68454E
BE21134D
BE86C249
BD6CE89E
BE90E82D
BDF3113B
BBB0AFA6
3CCEC3CB
BE58C9EA
BE4675F0
BDD616FB
BE90C468
BDDD9C49
3E0BFD3C
BD86777B
BEBA7579
BE98736D
BD9A4AF7
BCFEF03D
3D967CBF
3DC13551
3C8068DA
BE939BE7
BE9A3427
BBC1C0C7
BDC794DF
3D8C2321
BCD83F8C
BDFA8FC3
BDB7619E
BE4D28C0
BDE32E0E
3CCE3941
BDDF0F75
BE087FBB
BCA37FA3
BDC62D35
BDC47BFF
BDF022AB
BD9A6C0C
BD2092A4
BE555A74
BD8C511A
BD8F975E
BD602E8D
BC58920B
BC95A390
BDCC99DA
3D421BE7
BCD4ABA5
3DDC2285
3D5852D9
BBB4B9EF
3CFC1581
BDE2F958
BB83792F
3D29AC6A
BD365808
3E273225
3E5852F0
3E0205D0
BE57C32F
3D1C3719
3CBE0EF8
3DBDBEB6
3DEF482E
3DE99B09
BDCA7448
BD725CAD
BC9B173F
3CB5F14B
3D1436A6
3D1B6FB8
3E1627AF
3D2E4311
BE443E2A
BDE9B5F1
3E2222FB
3E3BF7F3
BD3EAC51
3CF142ED
BD130CC0
BCB47E6F
BD303E61
3DFA0B5E
BE655F4C
BDD4F5CB
3B6B2B65
3D477F5D
BD482FBF
BD0D2057
BE17A936
BE932278
BED41DCF
BE105E79
BD0614FE
BE856054
BBDDF557
BE5578C4
BEA73EE1
BE69744F
BDF2DB04
BE485C08
BE2479CB
3E14FF21
BBBE173D
BE733A83
BDDF0C85
BCA66273
BDD2DD75
3E0E84FE
3E39BCC3
BC4E985E
BE42BA94
BE6CAF09
BCFBDFCE
BE06322F
3E22E0EB
3E55D9CB
3E1E4B2E
3D6F29E1
BB70D9D9
3C7688FA
BDB548DF
3E898608
3BB622B2
3E097B71
3D9F99E0
3DE81A54
BE153C82
3E1A24AE
3DEA604A
BD695067
3D627E69
3D810AE1
3CD28940
3D3A2341
3D902500
BDD7F723
BE21D4AE
BDBD0D31
3D3B1410
3B74959D
3CC62977
3C299500
BCC35460
BDDAA4D9
BE1795F2
BD3E97B2
BCC11B6E
3CEE9AB1
BC1A7301
BDDB7B1C
BE1C1FB3
BE020D93
BB6BB4B8
BE111509
3D77D88B
3BB824CC
BE1DA7F2
BE8515D2
BE27FA09
BD49A07E
3D5C891F
3E932724
BC664CDB
BD51C54E
BE9C291F
BDAC6968
BC706C8C
BDB2EAAF
3D9AB8CE
BDE71DD7
BE82C0AA
3B319D2E
3DD83DF8
3DF2D2BC
BE1DEAF4
3DB9D3DC
BE55D494
BDCE7E57
BC755CE2
3E0614D6
3D9A1EC2
3DEB1C20
3E66458A
BEAFBC5A
3B193AEA
BD67364D
3E28F34D
3E135E17
3E878EF4
BAA373D1
BDBC0825
3D0DE519
BDEC86E4
3BB97E6A
BBA0817D
3E7A2433
3DB02F3E
3CB96B1B
BC04CFFA
BE19CDD3
BD0EFDA0
3DA4605C
3E408B61
3E999408
BDE3583D
BDA56C2D
BE59C6DF
BDDDE411
3DDDA997
3EB30FBE
3EBCD17B
BE57302D
BD9EF66E
BE08FF8D
BD691A33
3E02590A
3EA1ADE1
3F1F8B46
BD0AAFE3
BE014250
BDEB85CE
3E390FD9
3E3DB8B3
3E8EC9AE
3E86F8E7
BD2726BF
3D999FC0
3E09E3DB
3D9D362D
3D0FC9CA
3DDE6603
BEC6C2ED
BD2E4735
3CBB47F4
3E1612E9
3E30FC5B
3D91A57E
3B636218
BED94471
BD48A629
B9B5D8C4
3DE95374
3DB9C0BF
BD2ADED5
BE63D876
BF1ADB24
BD8B6864
BDA813D1
3D57E439
3E121B9D
BDFC2D9A
BE7C7ACB
BDE5E4FF
BD1E55BF
BE32238A
BC9A2023
3DB4BF2D
BD5188FA
BDF0CA66
3DC75358
3C68E0CA
3BB0C236
3CA7237D
BCC066E8
BB891CE3
BDF086F5
3BF82A01
BB886480
BE8381CC
BD1B5B61
BCCFA082
3DB9EC2F
3DFC1D64
BDD28E57
BDC0927D
BDEFFF70
3D71BC05
3D4F4893
3DC68895
3C1C7112
3D2AC3A9
BE73FB09
BD4DBD0F
BCA811D5
3DB25926
3DDD63E1
3CBBAFC7
3AA9967C
BDA662DC
BD4009B0
BCAEA19F
3BD006A4
3E083F51
3D3E6F64
BDC76E29
BDA36171
BE74F604
BDCF62A9
3DCC4D5C
3E0A9D1B
BD995C60
BC85C05D
3BC21074
BDB2DB0F
BC580679
3D74BC4B
3DDD715C
3CC67A69
BE14F0DD
BE3EFAF1
BE6F348C
3D3C66EF
3DF0551C
3DB143AA
3E052101
BDE26FF1
BD8E88C0
3D6070C4
BDABF9D1
BD4994F9
3D24C5E1
BCD7226F
BD495CEC
BDBEBE2A
3EAF4E33
3D997849
BDB2835F
3CB4DB45
3D54A744
3D42878C
3D167176
3E597911
3DDCDDF9
3D77039C
3CFDADBC
3B4DFDBB
3CA424BA
BD1AECD4
3E0191C5
3D1B0259
3D464764
3D23559C
BC000519
3DF8A05E
BD263EEC
3D3EE543
3DFD7EAA
3DA89828
BCAF7F7D
BE34172B
39CB1332
BE1B8DDA
BE10D546
3E5965A8
3DFE1AD9
3DAE7829
BE0C3EA0
3E0810F3
BE06B711
3BFC0785
BB922313
3DA5867D
BD8CE50C
BE3071D7
3D61CA25
