1FA
1FC
1D1
013
1E6
00C
1E5
1C6
017
1D5
1ED
013
1ED
025
1F3
018
020
1FC
1DB
1D4
013
1DF
008
018
1F4
1D9
1FA
1F0
1FB
1DE
1EF
1E3
00D
03A
1E8
00A
1EF
1EE
1F5
009
04C
1E3
1FA
00B
002
00C
1D0
1C0
1CD
005
043
024
1EA
1AC
1D4
1F3
1FE
031
02E
1DA
001
1F7
1D3
1CD
010
004
017
00C
026
190
1DF
1E1
1DC
1F8
01E
00F
1AB
1C7
1FD
014
026
1EF
1DE
1DB
1C1
02B
00B
009
1E2
1F1
1F0
1A1
1D4
1F5
1F7
1E3
1FD
1FE
1B5
1AF
1AA
1D9
1C6
1B7
1AC
1B8
1B6
1F4
00C
1FF
00D
1CC
19A
1DB
1DB
1F4
1F3
037
1F6
006
1F4
1EC
1E8
1EE
1FF
1D5
1F1
1EA
1F0
004
009
00C
1DD
1F0
012
1FE
00E
1E7
008
1E3
012
001
002
1FA
1EC
017
003
01B
1F7
1E6
1FE
00E
01B
003
1E2
1E3
1DB
1FF
1EE
1DC
1AE
003
1F5
1EF
1FD
1CB
1D6
1C6
007
1FE
1FA
00C
1E4
1EF
1EB
1FD
014
1FE
010
011
004
1E8
01C
1F4
000
002
1FB
009
1AA
1E5
008
1FA
016
1F9
005
1B8
1B8
1E8
1FD
014
1F3
1F2
1B8
1C6
1E8
00C
01B
020
01A
1E3
1E7
1AA
1D6
1F1
017
00A
002
1B9
1D8
03F
001
1FB
005
015
009
019
016
1FC
1E3
009
016
1FB
014
030
1F3
1FF
1F9
00D
1DF
00C
023
1F9
1F9
00D
1FF
1FA
19D
1CC
00D
013
1F6
007
1D9
125
1CA
00D
000
1E2
1F2
1C8
1D0
006
1EC
1FA
1E9
010
1E4
00D
033
1F8
1EA
013
005
1FB
1F5
1F8
009
007
00A
006
1E0
1EE
1AD
1F6
1F8
01E
1EA
1FB
1DA
1BB
1E4
003
006
1BE
1FC
005
1E0
1FA
1DC
1D5
1F5
1DD
023
1FD
01B
010
013
1F0
1ED
010
003
00E
1FD
004
1EB
1EC
008
023
029
1FE
001
018
006
1F4
01F
022
007
00E
00E
1F7
1E7
1EB
043
000
009
019
1F5
1E8
1CC
026
011
1C2
1F4
015
1F0
1C5
01E
016
1FB
1FB
1F9
001
1E0
02E
015
01C
014
1FD
018
1E7
007
1FE
006
00C
1FD
1D5
00A
002
001
002
00B
1F6
1C5
1FA
1FB
006
003
1F0
1E8
1A2
1EA
00D
025
1F0
1C9
1CD
1C0
19D
1D0
1EA
1A7
1C8
