00F
01F
1CB
00B
1F2
1F2
1B2
1E7
1E0
1DD
1DB
1D5
19A
1A5
01F
1F3
1EA
1DE
1BC
188
145
036
00E
1E3
1F7
016
012
17A
1FC
1F8
009
02B
01C
001
1A2
021
1F2
000
021
007
1B9
156
011
1B7
1E4
00D
1B3
1A0
1A5
1CE
1B5
1B4
1E0
1D0
1F5
18D
026
1C4
1C7
1EE
01C
008
17B
015
1E1
1D8
011
021
00B
18E
1FB
016
1E9
010
01D
013
1C5
020
004
02C
010
1F5
1C8
1B2
033
00B
1FB
1DE
1D1
1BA
1D4
1E4
01E
1EE
1F2
1E0
1F1
1EF
007
000
023
002
1DE
1D3
1DB
014
027
047
062
02D
1C7
1EE
02D
00F
038
056
009
1A2
19A
1F1
01D
046
03F
1E3
18E
18E
1FD
00C
023
01F
1F8
1F5
1E9
00E
02A
013
017
00E
001
005
1D4
1FF
018
015
013
027
016
1B0
1C8
1FE
026
00F
1F5
1A3
1FB
1EA
014
030
1FA
1F4
1A4
1F6
02F
001
014
1F9
1E0
1D4
1E1
011
01E
00A
1F0
1EE
1F7
008
016
012
1F1
005
1F7
1E5
1F9
015
01D
1FA
00A
007
1FA
1EF
00B
013
1F6
003
1FE
1E0
1EC
1F3
016
1F9
01A
027
1D5
1DB
1F6
1E4
015
019
020
01E
1E5
1FF
019
03D
1ED
1F2
1FE
028
1F7
1FC
1FB
1F4
1F5
018
019
016
1DC
188
1EC
1FE
002
01A
053
1AD
1A8
1FD
000
1F6
01D
064
00C
1B2
007
008
1F5
1D3
077
04D
1E2
1F1
001
1EC
1BD
081
027
1FC
1EE
005
001
1F8
06C
002
1BE
1D1
1EA
004
005
02B
007
1B1
1DE
00B
1F8
1FE
02C
1B3
15B
1FC
012
003
001
1F0
1AD
1DB
1FA
1FF
1FB
00D
1DF
1DC
1F1
1FD
001
1F0
1C8
1E4
006
1D6
1FD
023
1FC
1E0
1F7
005
1E4
009
1FE
00A
02D
00E
010
012
001
019
003
019
000
014
006
00B
1FE
1FE
00A
01B
032
1FD
010
1EB
1FC
1FF
018
023
009
012
004
1DA
1C5
016
011
016
014
1D8
1F9
1C7
00C
1F9
01B
1F5
003
1FA
022
005
013
015
1FF
1F8
00B
1F9
1F6
00E
00F
1CD
1FD
001
1E3
015
01D
000
1E0
1F1
005
004
01A
027
024
00D
1E7
1DC
029
031
04F
057
018
004
1C1
1F2
1F6
1FB
1E9
023
1FF
1C2
