000
00C
1F9
1FD
004
1F6
1E0
005
1EC
004
1EA
1B5
1A5
1DC
011
1FB
1F1
1D9
003
15E
1AD
001
002
1F6
01D
00E
1F6
1DB
01F
005
004
010
002
1C9
1BC
1F3
1F3
001
006
1E2
150
1C4
1DE
1B3
1E2
1E9
1A0
19D
1D1
1E1
1A5
1CF
1E3
1F4
1E0
1AF
1C4
1B3
1E2
1FD
013
1E3
1AD
1FB
1DE
1CC
000
015
023
1DA
007
006
023
015
011
1D4
1DD
00A
014
1FC
1E4
1ED
17A
1C7
049
1F3
008
1BF
1D0
1C5
1B2
038
018
1E0
1BE
1E5
1D5
001
00B
000
1FC
004
1D3
1CB
1F1
02C
024
02F
043
1E2
1D5
1DB
00B
015
03E
024
1E4
197
1E9
00E
021
01C
02D
1D0
16F
1D5
024
014
00C
022
1E0
1BE
1DC
009
00A
01C
00F
012
1FA
199
1E8
1F0
008
01A
022
007
19D
1BA
1EB
025
01E
01B
1CC
19D
1EF
1E7
02A
013
1F3
1D5
1ED
001
018
019
01D
1E3
1C2
1D8
1EA
011
010
004
010
1D9
1AB
1EC
013
1F3
002
1F4
1F0
1D8
1F7
013
010
1EF
016
003
1DB
1F7
01A
021
007
015
1DC
000
1FD
01C
008
005
02D
01B
1D1
000
1F8
009
006
00C
00D
1ED
005
1F3
00E
006
1FB
022
1EE
006
00F
1FA
1FD
1F5
002
00F
00A
00D
18B
1C5
1ED
1F3
002
014
005
17E
1CC
01B
00A
1D0
052
00B
1C3
1F4
1FE
017
1EF
044
061
027
1D8
00D
1FF
1FE
00E
04C
014
011
1F8
1E5
1F0
024
01C
1D4
1D0
1E0
1F6
003
01F
014
1CF
1B8
011
006
1DD
1F7
017
195
198
1FE
010
1DD
1F7
1BF
1B2
00F
1F8
002
1C4
016
1CE
1E7
00C
01D
011
1EA
1BC
021
003
1FB
010
012
1DB
1F9
00F
00E
1FD
01A
022
1EE
01B
1F6
003
013
1F5
001
017
019
011
009
1EA
1F1
1FF
1F7
021
046
011
1F4
1F0
1F4
1E7
010
032
016
022
1FE
1DD
1F6
1F5
023
024
027
1FD
1F6
007
1FF
1ED
010
001
1E3
00D
1E8
1D8
009
005
1FC
1E2
00C
1FD
1FC
1F3
00D
1F4
1EA
1EB
1EA
1F0
030
00F
010
1F0
012
1DA
00E
035
01D
00B
008
00A
1E9
036
048
06C
031
022
1D3
1EB
000
1C8
011
01B
009
008
1EA
