BC776AE3
3DA58405
BD30CF1B
3B56A074
3D1D8DFE
3DBE1BAC
3D868472
3CE4B3DF
BCEF9130
BD37C5CF
3DBC75EC
3DB039A1
3D83D2D9
3D76BB5E
BC458A9D
3D220FC2
3C09BD14
3D15F2D1
BCEFEE68
BDF888CF
3D9116F5
BDE03109
3D1181E8
BBD172FF
BD52018D
BE04CF92
3E19CAA0
BD48023B
BE066AD9
BD9ABB80
BD9F5E42
BE2978AA
3C007486
3DFBE1FC
BEABBAEB
BE59809A
3EA760E8
BE6C3A67
BE41CC92
3BEEC98D
BD4427F7
3DD6D275
3E0C9FB5
BDBF5856
BEA85D1C
BE53061E
3E8924DE
BE89DA40
BD221C16
BE7F9DB6
3D8C5D3F
3E44522D
3E5D5E95
BDD324CF
BEA1A8C0
BE21693B
3ED3AC98
BE9CE848
BED754AA
BEF19862
3C115992
3E05B0A4
BDA882E8
3C42211B
BE885578
BE4DDD8F
3E849727
BE778625
BE69A958
BEAF5E23
3C844A09
3E1CACBE
BE22F46C
BE384BE0
3DBF548E
3D062689
3E48632F
BDEC07A7
BC935FCD
BE2E36B4
BDF2099F
3E760A00
BE1D9BFD
BE584128
BD9CDAB6
3E802F5F
3E54236B
BE1C4589
BDA26D7A
BE56DE0F
3CCBF8B4
3D2DD3DD
BE042635
BE9D091A
BE26D91E
3DDA5254
3DF2F1D4
BEBEB1AA
3BDEBF01
BD5B2A16
BE06DBBC
3E1406B4
BE894790
BD5C92BD
BE1EEBE4
3E200556
3E95F5C3
BEC1889E
BE2AB65E
BDDFF1EC
BD7B11BF
BE52B142
BCE1A13C
BE500CF6
BDA40520
BD0701C2
3E0CA40D
3C0CC3C6
3D6E5956
BE96CAC2
3CF40A36
BD4808DE
BE1D3508
BE977F4B
3D91792B
3D291604
BCC613E4
BE81FC8E
BE00C4F1
BDA47970
3CDFFB03
BE77DABB
3D49A871
BDD4DC61
BC58AAAC
3D97CBDC
BE5606A6
BE0850E4
BD91BB75
BD98A809
BD9B2B59
BD370933
BC33EF95
3E0265F4
3D39F77A
BC1FC1C1
BD952071
BD3C6BA4
BDE88033
3AA0DAC8
BDC2975F
BDB23C70
BD2554A0
BCA15FDE
BDC5D783
BD85B3EC
3D09C300
BC2376D1
BBA4CC3E
BDDB222E
BD8A4058
BD58F18E
BBBE4F9A
3E4D4D81
BE552824
BE74C134
3E558DD3
BD9BBC4F
BE8DF025
BE46E2CF
3D5AEA79
BDADD0FE
3D80E248
3DEA4758
BDD1E563
BE395ACC
3C6D9601
BE090D58
3CAB9D5B
BEA48061
BE49FF04
BDD7BC0B
3D0E2778
3C9C319D
3C3AB3F1
BDC72ED0
3DCB91CB
BEA9E9CB
3E4148F0
BF204575
BE2F1ADD
BE2E27AD
3DF1FFEB
BDE230FD
3D333AB6
BD3C23EB
3E529B7D
BE90A612
3DF6DF1B
BE6DD46F
BD64513C
3DDBB9FC
BD24BDC2
BDCAA6F9
3E3CCFEB
BDF77ADC
3E1D2913
BDE33638
398EFD3F
BE111C92
3CD139AD
3E0E449D
BDE311E1
BE984B5A
3E72A125
BD84E0A3
3D88B1D0
BD899310
3E1D6E75
BE72E3DD
BE3EE41B
3E9DFEE1
BE161C8E
BE9CCDEE
3E9D42EB
3DCA869E
3E16212D
BE07E50B
BBD0C2E9
BE98F94D
BCDA6058
3E1F4997
BE5A5E09
BEE126BD
3E4BACA2
3E36DEEB
3C6AFEE2
BDDA4591
3BE9939E
BE0B851D
BE1E9ADB
3E0D2C9F
BE956A97
BEA3A9D3
3E274750
3E85B713
3C1D862D
BDF0D88E
3E0A9E05
BE7BBC9D
BD041B46
3DA0539D
BD9E45DD
BE87EA3E
3DD1AB1F
3E3EEF92
BBF71244
3D04B619
BD590439
BE24CB10
BDD00311
BD8BADED
BDCE9FF1
BE316854
3E4E9D96
3DA7ED44
BDDC70F1
BDDDD573
BD9B94A6
BE280D66
BEA1DEFE
BE7323F9
3E01260E
BE890EFE
BDF6C0D7
3E0F4750
BD80DD86
BE5F8176
3E162231
3CBC2771
3B8C388F
BDCB3279
BB5153E6
3D80A181
3D2EA30C
BD2643E8
BD36EEBB
BDD30A30
BD752BC4
BD8665A3
3B5CD85E
BB1021AD
BE0701D0
3EBE3F5B
BE490BAC
BE46D4EC
BD13A8A8
3D60C340
BE2D7272
BE620DA5
BDB45FD6
BD1E22B5
3E1A41BC
3DED6AF6
BDE8AFDD
BE362F76
3E20A24C
BE3C9F50
BC09ADE4
BE1FF491
BE0A4CA2
BDEB93D6
3E151B5B
3D969031
BDC71396
BD9802D3
3DD797DE
BD69AB09
3D51DA17
3E167EA9
BDE75BFF
BE32FD07
BC9CD4AC
BD106695
3A0F3FA5
BD309C05
3DD571E8
BE21810B
3E08CFA8
3E4D4CE1
BD38F217
BE5D84FC
3D6C116A
BE3CD00A
3D49115C
BD449BE8
3DFC52FC
BE0831DE
39765476
3E1967C0
BDB17042
BDF0B9A6
BD482C8E
BE53937E
3DB8DB32
3D14BBBE
3E3477C7
BE7F4CCB
3D7C4B0F
3DB1AAC7
BCB0F7D6
3C85DFE7
BE0B640A
BE11C1B8
3E08D1ED
3CFE47A2
3E202C60
BE9F898F
BC3D9783
3CD322F8
BDF332E8
3DD115AE
BE358EEC
BE2DE9A8
3E828C5F
BCDC8676
3E2E9AC5
BD7D392B
BE1A0878
BE3ED988
BD0E9991
3DEFBEF9
BDBE9B40
3D3F8F7D
3F0367F4
BDB8D963
BD206764
3DAB751E
3C8B7810
BEC81432
BE2B1F65
BD9D07A9
BE0BE987
3DE06A9E
3EEA98A9
BD8D9283
BE1248CF
3D61C70F
3DA8FBAA
BEE3ABEF
BD3E58FB
3E04C284
BD97E30B
BD994F16
3E697AC1
3D7CA99A
BCA29C88
3DBF7428
3DA7DE3C
BE283412
BD8B105C
BDA41D25
BD889348
BE00C551
3E587C01
3D6CB4A6
3B2FAA7C
3DF39438
3DAC96D6
BE430685
BD9AAF11
BED8324F
3D118640
BE978FAC
BC83E15F
3DB4E6A7
3C06676D
BE994652
3E151114
BEC27DE5
3C8D5E4A
BE430879
BD03E6C9
3E62A5D9
BAADC8A6
BEAC7A47
BBFC169F
3E616961
BDE9F934
BE88EF58
BE103890
BD3C6C69
3E001C58
3E47AAB0
BE472FA6
BE974CD0
3DC3A41F
BDE2B366
BDB26399
BD53C9FE
BD44C9C1
BDD5ED0F
3E606595
3DC01668
BE3197ED
BE0DA9F1
3DB6CB07
BD90F654
3E464821
BC92F16A
BD827CBC
BDD867C3
3B241680
3D840264
BD960938
BDD782D8
3CC73D90
BE370852
3DFBB99D
3E3B1B34
3CC105D1
BE2B3723
3BF6286F
3C359554
3D317089
BD5D6499
3D55D88D
BD94A528
3CB21552
3DE22A33
3DC2C6F0
BE4B2906
3D0A3934
BD2D7264
BBB96689
3D2618BC
3E132131
BD8AA29E
3CEDDD25
3D088E61
BD94DDA1
BE3A4905
BD005F69
BD0A6F70
3E063E7E
BC68454E
3D3096CA
BBFD6DCF
BDBC0884
3D17F643
BD83EED6
BD379CB4
BE1B6955
BCE57CE8
3C05923B
3BA229DD
3DABB0FC
BD7D7CE7
3D09AC76
BC788C4F
3D2F2D25
3E0B5F93
BD4A39C4
3DB1C30B
3E218617
BE21134D
3CDD338A
3CFB0306
3D434885
BE182BCB
BDB2AD40
3B9916C8
3DA194B9
3DB9A374
3E815D06
BE00B985
BE1A00D6
3DC16A2F
BB39D87A
BDDF6A0D
3D8B9E5D
BDCA2369
3D2701C9
BC6B7DAF
3E706A41
BE86C249
BD8CD99F
3C3BE3AE
BC45EDE3
BE4E86CE
BD2BFC2B
BDABA3E0
3E173BC3
3D89697F
3E4C97ED
BDF37652
BE186871
3DA354D7
3DD58501
BE89DFAB
3D922DB2
BE4C85FC
BDAB9E20
BDA49761
3E5A0169
BD6CE89E
BDD0BD2D
BDB853F2
3DC6277E
BE8DD4E5
BE0C16D8
BE4C0009
3BDC22EB
BE83A6E7
3CA46D37
3D39C8E0
3C1EF6AD
3BB00E6D
3E11B6AF
BE9EA7F9
BBD2C61E
BDD067F6
3DE042B6
3DE43909
BD72F1B6
BE90E82D
BDBBE12B
3E442AD6
3CE78E41
BE292517
BD9EC42E
BD751411
3DDDB195
3DF1FE0E
BE5C6241
BE443CA5
BD10DA51
BD56B53A
3D95D0B1
3C0D6BA7
BD79FA02
BD5B7A44
BC59D919
3E1EA76A
BDD2EF99
BDF3113B
BC3E5845
BD6970A3
3D30A8E8
3DE2FDA3
3E2264B8
3D9790E4
BDB95323
3D5EB34D
BBB10AE5
BDC321FC
3CF313E8
BDCF5F8C
3D344A43
3D19BFE6
3D15ED45
BCEE1316
BD8D07F5
3D469ED1
BD787F80
BBB0AFA6
3CF5A2E6
BD0FA7E1
BD878DD2
3D71925B
3C8102E9
BC090A38
BD62B870
3DA02146
3D8331AF
3DCE1020
3DB5C3EC
3DDB3F17
BE0FC14A
3D66ED98
BC252FB9
3D0B0610
BDB91DCF
BBFDD2BB
BD3CAC80
3CCEC3CB
3C1D8632
3D758509
BDAEBAAA
3D0BF06D
BBECD650
BBD5B0D7
BE076127
3DB3F437
BD8D9345
BBC586A9
3BF5B3BB
3CEC5B7E
3CAF4154
3D274164
BD813BF6
3D90574A
BD06F906
3CBFCF25
BD1A3C19
BE58C9EA
BDB10327
3D9FD864
3D18434A
3DAF4886
BE165B79
BDA633F6
BCA96CB9
3DBC5FFC
3D50CB7D
BE8745C0
BE33D8F8
3E018D27
3E1557E7
BD5DEABB
3D850F14
BE22198B
3D9F9B67
BD28276E
3B5600AC
BE4675F0
BE8B0C14
3DA06012
3DC5C5F0
BDA59E99
39083EC8
3AD7829C
3E055CF2
3CD4DD8B
3CCA8C16
BD2CD032
BE41D537
3D7C589A
3D9D4913
BD8761D8
3C980CBA
3C2F5262
BD59DA01
BD607E01
BBA8A60A
BDD616FB
BC69F43B
3CE8ACAF
3E09A71B
3D67B92E
BE6CD377
BD121943
3D4205D2
BDC06FB8
BDFB581E
3D7571E6
3DF492AD
BE1C2DE9
BC8E5E83
BE8E99FD
3C11EA91
BE510E43
3D0146D4
3DB3C8FE
3D01FDF6
BE90C468
BDD29CAB
3D368C30
BD32B6C8
BCE4E9CB
BDB512D2
BC3C95B0
3E1ACE23
3E3040C2
BE10EBFE
BD2D0076
BE828631
3D7598AF
3D42D03D
3DECB645
3C57B310
BC12F04B
BC8F9CC3
3DA309EE
BD4F2BFE
BDDD9C49
BCBAB1B3
BCEE077E
BDA2DF43
3DAB4F8E
3E35A98E
3D73E8C1
3D3B13B8
BCFCC67C
3DA23137
3D25788B
3D8365E4
3D901220
BE005D23
BD77646E
BCB730D4
3CE37523
BE20AD6E
3CE6371B
3BD36E2C
3E0BFD3C
BD4EBD07
3DBD16B2
BE22D480
3CA2883D
3E09E27F
3BFE9951
BE3CF175
BCD9F23D
3E1A055D
3D04C91B
3D74DE33
3E27AA01
BD9B6E46
BDE89A22
3DD0ED60
3D25E96F
BE551866
3C8D3A25
BDC64F32
BD86777B
3D9A6F5A
BCC88FFC
BD5041A3
3D3315BB
BC51BB67
3E04DF64
BCEE8C5A
3E270C77
BDF06B78
BE2124FB
BDAF8552
BC8FAB2A
3DE92797
3D627029
BDCC2BE5
3C570A73
BCFBC643
3BCA8458
3CD4A3CF
BEBA7579
BE3694BE
3D9D8291
3E00730B
3D054F13
3DA6BFDC
BD5392EE
3D358A6B
3D302F1D
3DEC23CC
BEAA8B2F
BE642FB2
3D348CBA
3DC89879
BC191C24
3D9838C3
BD938A23
3D697CEE
BD73F528
3D36B70C
BE98736D
BE44335D
3CA01CB4
3D88763F
3D03F4CD
3DD38A3A
BD1CE9B7
BB7235CE
BE220287
3D2A2A23
BE0BF82C
BD812C7B
BD9A4124
3DECB666
BD1CDC67
BC9BA04F
BC558841
3E112BFD
BDC884A1
BD8D106E
BD9A4AF7
3D17EB3C
BD7819F9
3D483D2A
BDBE9413
BD0CED0C
BD4C02D2
3D8C9885
BD836C35
BD397412
3DB8A359
BEA9D84E
BD9D7420
BD1D9C65
BE2C45A2
BDF992C6
3D0E1402
BD9BDC8A
BD944321
3C6A1A6A
BCFEF03D
BE97FCBB
3E53A6A4
3CA8C344
3CE93421
BDE6B47B
BDBC80FB
BBD5A9B1
BD929146
BD3C5F00
3CB7319B
BE50E279
3D4A0CA8
3D8375C6
BC0E02CD
3E0CD3A6
3C855657
BC958054
BE0C960B
BCEA8E68
3D967CBF
BC839882
3C4C6A73
BE174071
3D40C31D
3E14348A
3D322139
BD7ECA0A
BE525B2C
3E05550A
BD332BED
BD491557
3DF2C926
BD8A60A4
BCDCFE9D
3DCBE05C
3D9EA63F
BDD19419
BE15EF34
3E058109
3DC13551
3CDBA7F7
3E26D613
3D28E40A
3BA5E137
3D4FF183
BCA6293D
BE55180D
BD263E0F
3E08D3BF
3CCC71B6
3DDCF6D1
BD2CFD44
3B44B04F
BBA578D7
BBB0273A
3E22E7E5
BDA3105B
3CCEB4F1
BDCE2AFE
3C8068DA
3CA412E7
BE2A9AAA
3E1A7325
3E1D33FB
BE3DD080
3E2D9BCD
BD868B20
3C9A64F9
BDEC1386
BE55E5E8
BD485555
BD0440D8
3D733D06
3E353E85
BC661273
3DAC268E
BCF76CCE
BD058442
3DA6AE9E
BE939BE7
BE404354
3CE9DFD5
3D7D8349
3E073898
3D72C88A
BC092BC0
3D6BB116
BD1CAB30
3C88F81B
BEA246AB
BE30068B
3D546084
3DC913E4
3D3D95A7
3D547817
BE4477F5
BCC18780
BCAB1716
3D65A2CD
BE9A3427
BE1095E9
3D19D5FC
3D2E2C56
3DC442D6
3E36A047
3C63E8C0
3DF7455F
BDEDEEC1
BD295570
BDC70B5A
3C8422A6
3D017D9F
BCA329C4
3D71C4D9
3D6C36D8
BD7C9CE5
3DCFA623
3D92C433
BE5B783C
BBC1C0C7
3B0A29F4
BCC29949
3DF66774
BE1FD984
398CB504
BBECBA54
3DAC0975
BDADB11A
BD8C3B1D
3E07EF80
BDD34194
BE13F512
3D7DA681
3AFA73AF
BDB0C1B2
3DF96A77
BD92DB51
BE650DD4
BAD1BE46
BDC794DF
BE8E3554
3E441037
BDCC1035
3DB0C854
3DD1D730
3DC9C0CA
BDD9A5B5
BEA80D4F
3DC6CA4A
3DEB6F78
BD2FBE02
3E240815
BB1428F8
3CFDD9E8
3DD3CCAC
3D8D7348
BCAC634B
BEDF2A72
3DE2989A
3D8C2321
BCF14150
3E25F608
3DC35191
3D0C7B87
3E170425
3C8962C9
BDA0B61B
BE95C866
3E09A884
BC76AC7C
3BF815F1
3DD25629
3E10BE05
BD9040DF
3DD9911E
BE168D68
BDA3DCD1
BE9970B7
3E249438
BCD83F8C
3C3853AD
3D7DB4A0
3D022E12
3CCA4652
3D4FBC2A
3D048408
3D87616C
BE50C886
3D401135
3C68EBFF
3D774AA6
BE832F74
3D514A2C
3CB3EA49
BD5A9BBF
3C4FCFDC
BB465ACF
BC9BC9B3
3D294510
BDFA8FC3
3CCD82A0
BE51B7F2
3DA148C3
3DB5C43A
BE7B5D19
3D02DC37
BBBEA845
3CC13B9F
3D2DAC16
BE295D1A
BDBEED73
BDF1029D
3C9203D5
3D8EB78E
3DBC6637
BC652E2C
3B9B8530
BDCCD112
3DB92CA5
BDB7619E
BBD9BF0F
3D6CC15D
BD98C229
3E403F37
3DBB1850
BE143BAE
3D6D20B0
BDA0E28B
3DD1DB9E
BDDB3877
3DDCE0BB
3DD01BA6
3A8E2538
3DB799B1
3D84A26E
BAD84CCA
BD1B77EA
BD99421C
BC07DA3C
BE4D28C0
3CAB9D17
3C999D05
BD6F7B1C
3DF650DA
3E2D6923
3DB64D91
BC246D3E
BCB71D01
3D9707D0
BDECC189
BAF91FA0
BE319C66
3DACA661
BD56F5A9
3D54008C
3D738673
BDC14430
BCD8A357
3D8B4C62
BDE32E0E
BCD2E5F9
BDF48B4F
3DEDF5D0
BCAA9793
BD6740A8
3D8FD5A2
3E946F64
BEB4D20D
BDE8E52A
BEB7E247
3D0FCCE3
BE9CA71C
3D9CCD47
BCD2C479
3BF51EDD
3E121F0E
3E264316
BDB8C564
3D9D2279
3CCE3941
BE633416
3D7BD58C
BE018FB4
BD906974
3D81C55C
BD85434B
3D3FBFCE
BE9EE790
3DA20D08
3C496560
3DE6297B
3D392BE1
BCF98843
BDA0D07E
3D188972
3C76BC42
BAEE77A0
BE6F709B
3D4E8446
BDDF0F75
BCAE3D46
3B3885CC
3D6AD2DD
3D8674E9
3E0A3AD0
BD8A36A6
BB968BAD
BEBBFAC7
3E118BC8
BE042532
3C9F4190
3DC02DB3
3E8E4AFE
BDB90C93
3D0E749B
BDE6A0A1
3D2EDF8F
BEAB2F34
3E198C92
BE087FBB
3D12DB46
BD782C21
3E4E0061
3D1F9F73
3D7A316D
BD28FECA
3E595FDC
BE587348
BC85F74A
BD287121
3DEAC9E6
BE68E328
3CA3D3E4
3CFCCEC8
3D05524F
3C989D83
3DF85BC8
BE1EF259
3D45298C
BCA37FA3
3D8B121F
BDEC66F1
3DC530DA
3D908866
BC97B66C
BDB9F5F3
3CABE89B
BDD9261F
3DA298B1
BDDBCE0A
3DEBBC0C
BDCF388C
3C21E9B6
B80C26EC
3DC11B1B
BE297130
3D67306F
3D494396
3D23562F
BDC62D35
3E310C48
3D6C1FC5
BE08F551
3DC931DF
3CCC03BC
BC357637
BBBD8162
3C35F873
3E0C116B
BE1E0358
3DB49B0B
3DD5C22D
BDC69C0F
3D94AAF2
3E0ECCA4
BDC3872A
3D08490B
BD9D9BA3
BCEC80CD
BDC47BFF
3D6124E8
3CFCD342
BC90FD37
3992C631
3D07EEFF
BE579665
BBA302A8
3DB144F3
3D7CD69A
BDB7CC51
3D59360B
3DE123DF
BC8CEA0E
BD292A8E
3CCF3DA9
3E0CB515
BE03D14B
BDB664B2
BD892389
BDF022AB
3DC5E87B
BE2B29EA
3D4235B0
BD83FAA2
BD2D6D44
3DFE8AF6
3E951F15
BE3E5E75
BD7D119F
BE5CA81A
3E459035
BE347C94
BE707879
BE63052F
BC828057
BCE0FACA
3DFC59D0
BD530890
3D81BDC1
BD9A6C0C
BE4CE63B
BE0E7D16
BE182315
BD9037C9
3D9906FC
3D0A5B4E
3DD6DF1A
BE1AB2FF
3D8130DC
BDA3F029
3CF4FA7D
BD8434BF
BCB90A31
BD332E91
BD361BDE
3C806771
3DE35808
BDC65720
3DF97B7A
BD2092A4
3C913AE3
BE090DDB
3DE78BB8
BD0FC9B4
3D2551A3
3E01BE92
3E2A48D5
BE3DE913
3D6567C0
BE4FB4E5
3D3E78D5
BE1315FE
3DA15D62
3D7C4D17
3DB5E67C
3A4DD88B
3E15B289
BE84FCAC
BD303FD5
BE555A74
3DFC5A75
BDF67C40
3CA065F3
BD2454C2
3D3D7C91
3DE33850
3D231D79
BDF3C3FE
3CB84080
BDC0C756
3DB80251
3D035819
BD58E34D
BC835D54
3C2803E6
BD780B38
3CA5282C
BD83D924
3DD6696F
BD8C511A
3E37C933
BD35135B
3D2035A7
3D4585E0
3D280DC9
BE05D984
3D11B9B6
3D8A4363
3BA9D0A6
BD528B1E
3E154D09
3BDD5826
3D35F853
BD4C0A62
BD105522
BD1A7B9B
3C04FF75
BC78DBA9
3E1A27BB
BD8F975E
3DB84724
3D58C14C
3ADC9B97
BDBC2146
3A0CA787
BDE52026
3DCE2C98
BD852A54
3DE3E60E
BDB7B683
3CBCE977
3E24FD07
BCF7973E
3D81FB8D
3DEA1B9D
BE2FA5E3
BE0D9CEB
3D4B5D76
3DC5F54B
BD602E8D
3A2152F6
3E1B32EB
BC85464E
BD899697
3D39730E
BE0D63C7
3D4C3BB0
3D867675
BDC1986C
3D5CAC28
3E283576
BD36E4F5
3D4F3FD1
BE29F660
3D0EC3C4
3D3B11C2
3DE135E6
BDE83CFA
BD98BA2E
BC58920B
3D81CB3E
BDFB734D
BD88E25E
BD707C4D
BC6CF15E
3CC2BDC6
3E24C138
B90C9552
BC51E4BC
3CEA0044
3D400E66
BE621302
BDFD8FD2
BE7D2EE8
3D4D572F
BD5E0147
3E64C84F
3D57CCF0
3D9291F4
BC95A390
BDA948CB
BE9C9E4F
BE066783
BE466553
3DD44D0A
BD3609DC
3E4CF28C
BC1CF915
BD3AF7C2
BC183EC7
3CD1E101
BD78921D
BD06A218
BCA5BCEB
3D2440D0
3D81AAFF
3D40E395
BC1EFEE7
3D6EDD56
BDCC99DA
3CE471F3
BE0B2C14
BCB7939E
BDB77033
3D06AADC
3CEA07B7
3DAFAC6F
BD16B55F
3D37E5F4
BD8DAFB3
BD6FE672
BB271F74
BC2144FB
3D7D8C0A
3E07DE3B
BCC92EDF
3E18B1D7
BD05D02B
BD20BF10
3D421BE7
3DDDD36A
BDCB415B
BDB2C433
BD1662E1
3D4CBAD5
3CB91635
3DC3F57F
BD2E81DD
3D5303AA
BD81658F
3DCF95CB
3CEC8786
BE0C8BD3
BC624D12
3DD0C398
3D25EBEA
BBD44254
BCD48B6B
3C98036F
BCD4ABA5
3DEF93CE
BDC4A0EB
BD369D4D
BD657EC4
3DBE564B
BBE0D522
3D8A2044
3D5852AD
3CBBB05A
BD3AA47D
3E435308
BC369B47
3D1EC2BB
BD6E8FA4
BD7B4BB9
3D5C0263
3CAD7DE9
3D95C847
BD8BF642
3DDC2285
3D5FA0E5
3BE809F1
BD8E6CF5
BE2B1731
BCB3837B
BCDBFB74
BDC47CA2
3D2EF34F
3C53C6CF
3D80FE0B
3DC589E9
BC92AB8A
BC2C486D
BE112C71
3D770070
3D1F2BE3
3D3908D4
3DB536CA
BBA6FB71
3D5852D9
3BEC896B
BD8B0E13
BC65D4A6
BE0577A7
3C97B798
3C6AE81A
BC68FA47
3D6A9885
3E082FD9
BCDE10DD
BD03D98B
BC3BF240
3C40D161
BD04DA99
3D54BDE4
3DA44E4F
3DBF713B
BC2E6EA0
BD499354
BBB4B9EF
BD6F7B7A
BD6DD7CD
3BBAF3F8
3D316C82
3D071031
BD2D4C4F
3C52C6BA
BD58C8E0
BE0F59CB
3DB62C65
BDE3D413
BD49A33C
3DC59835
BE49D2F0
BD8A32C5
3CB73C88
3DE86956
3D61675E
3C22D5CB
3CFC1581
BDEC8B3F
BE624472
BE15D68F
BE1C03D7
BD2EA6E2
3C293AB9
3D3A722E
3C449207
BCB2D2C4
3D949B45
BE2B2367
3D5F8045
3D69891A
BD15108B
3D5B3B71
3C14B70E
3CBE8096
3D7EEC02
3B343C97
BDE2F958
BDA0BC58
3DDEF2CB
BCEE6656
BD31BA60
BBC86831
3A485327
BCD80434
3C87ABAA
BDF6D78B
BDCAC354
3CA5C1A6
3C2E8146
38FFF3B9
BC6D8F84
3DB2B3B7
3D8FFC4E
3D7C0D77
3D039F9B
BDBD81BD
BB83792F
3D54664C
BD77CAE4
BD32B676
BE18FC35
3C05E64A
3E11FD7F
3D64A19A
3D341E05
BD0AB338
3DFC2A93
3D54313F
BD0AED8C
BC888DA8
BD8DB704
3D15EA57
BC6E818D
3CD257D8
3D49C220
BD4F48ED
3D29AC6A
3D77E933
3CB92A65
3CADDC17
BD1F1075
3DEA07C9
BCA8B6A4
3BAC39FD
3BB17D91
BE0EFEAF
3DA5C614
3E31DA0A
BD211CA8
3C88EDDA
BE1CD78B
3D84597A
BBC4BA97
BDA6677C
3C8363D1
3B8EE724
BD365808
3D3755C3
3D53AF57
3D6DC45A
BDA907BF
BE18010F
3C5530CC
BC822654
3E0B2EE7
BCF7F795
3D8A31F8
3C6500B8
BD8B103D
BD452CD9
BE5DB03B
BD7B3454
3DC82ABE
BCD5FF7D
3D278459
BD87DC2B
3E273225
BD3AC45A
BE059E0F
3D4DCF07
BD91CCE0
3D4656C7
3E10AA14
3D3502EC
BCDF69E9
3D35930C
3C797DD1
BE255A95
BE1FD99E
BCAE2D48
BD617146
BE2585CA
3DA46686
3D33F740
3C92FFDA
3CEF05D6
3E5852F0
BD1BE74B
BE275828
BD3010CC
BDC58369
BE44C378
3E05D030
BE140C58
3CC57588
BD719DF1
BC3094FF
3B60439A
BE620460
3C17EB50
3D900392
BDF3F18B
BD6791C5
BCB19CD0
BD691EF7
BE9643E1
3E0205D0
BD71D08E
BD304115
BDA7590F
BE4780E0
3E6C6492
3D5204FF
3D6E2D9D
3A43C721
BE9B55BB
BD94CEDE
BE7A6DA7
3DF8DF24
BE27C3B6
BAAEC020
B9A9B546
3D6704A5
3D80E40B
BCAAF938
BD895302
BE57C32F
BDF4A454
3D2ACB86
3DD311B6
3CC1E5EA
3D878310
BBBD91D2
BD378517
3D70C28B
BDA7B800
BDA57F01
3CCE714E
3D677F21
BC38A8C8
3C6582A2
BD851522
BD4BD7F4
3D8BEF79
3D086AE3
BD564DD9
3D1C3719
BC828806
3D8AD76E
BD6FCF7C
BD05737B
BD8772C3
BD692985
BD801CF2
3D92CC4D
BE153A92
3DBB8C21
BAED8A00
BCA254B8
3D38D72C
BAA2DA75
3CB1420A
BD25FED8
BC5B237C
3DB00B3C
BDBDE610
3CBE0EF8
3D74F51F
3D88849A
3B7FB4E9
BD5273F1
BDB7161A
BCC11C6A
BD963077
3D6754FF
BDF4B993
3DA27535
BCA9F46B
BD1EA52E
3DAA4062
BDF888D9
3BBCFC4C
3D08080E
BE180974
3BECC4FA
BD8BFBE9
3DBDBEB6
3C538871
BD431510
3D98DCBB
BDF16AC1
3D454A3B
3E222432
BE13E5EE
3DE038D3
BE2B75C4
3BF68B34
3CE909E7
3D84AC75
3D348225
BDC43B7A
3CD64590
3D98691A
3DCB3CE3
3CB7DD8B
BE226FBE
3DEF482E
BCB978DB
BD2DC369
BC42F7D4
BD70B14B
BDE19707
BBBD6CE0
BDCB960A
3D4E9351
BD4BBCC2
3DDF77CD
3C26AC95
BDA3A350
BC8A7AA4
3D6552FC
3C5504B3
BDCA2CC6
BE180A5D
BD8EF145
3D95F948
3DE99B09
BDCB2BAA
BE90234D
3C734C7B
3CB4AEB8
BD9785CC
BD04EEA6
BC9C23CD
BDB11E23
BD596092
3DD0C83E
BE90C67D
BE7B9E20
BDAB3B48
3E02264B
BDACC9EB
BE06FF41
BE6BBCA7
3E1C8B3E
BE91DFA6
BDCA7448
3BCE022C
3E08D5C8
BEA2D842
3B99545D
BDD47543
BE6AA162
BE1E6D97
3E527495
BE39FA2A
BDC07653
BDC78250
BB9AAE5C
BD274AEB
3D24FBEA
BE855D09
3D41F57D
BD00310E
3D14B56B
BE101A35
BD725CAD
BEA2FC26
3DC11F95
B9245497
3D47D01F
BDC01B10
BD27FCEB
BD8D76AB
3E51D996
BDDC4CA4
3D0C315C
BE687A4B
3DE33B40
BB3C3088
3DC01377
BDE80B66
BD28E9F5
BD528F99
3DEAE3BD
BDDAEDBA
BC9B173F
BDFE0477
BC3F8AA8
3B89BFC9
BCECF4C6
BD6C1412
BD5F3571
3D59191C
3DE05831
3C9DB77D
BCF6CB7C
BE0BA562
3AEE407A
3E09FA1A
BDDCA6D7
BE6F4075
BD30845F
3D93E508
3D09650C
3C87FA06
3CB5F14B
BE1A9456
3D1F7FEE
3CA94937
BC79EACA
BDD668E8
BD3601A8
BD71701C
3C5AD7BD
BDDDE564
3E3AF653
BE5CA3F2
BDC92B47
3E0737FA
3D134A15
BE10A802
BCDFB5C6
BDBE7C0F
3DAFBC9B
BDACABA8
3D1436A6
3C623ED7
3C95A440
3E0BE1E8
BD54318B
BE3EE61D
BE082FB8
BD9D2D7F
BC973DA7
BD21DF7C
BC49F419
3D1984E7
3D782933
3D62DC29
3CDF0A08
BE502772
BD845287
BD0BD1D6
3DB8B99E
3CD64068
3D1B6FB8
BDE8E499
3D3E3335
BC454646
3DC4F264
BEBD117E
3D34696A
BE8A7D03
BDA3B31E
BDFB0B68
3E124DAF
BDC4AA66
3D87DAA9
BD018210
3E37EB6B
BD4C9C08
BD866C33
BDD1FFBC
BD0F12A0
3C0BF4EC
3E1627AF
BE388EB5
BDA691E2
BD893907
3D471E40
BE64429B
BE538538
3E020C7B
BDE1FE57
BCCD04F6
3DDD859B
BE5E91D1
BE3D1644
BE7E5FB2
3D7100E1
BD56D646
3C1ED8E1
BD49383E
3D253F2C
BE0F4DCF
3D2E4311
BC9FC948
BC05C1E1
3D10AFAB
3CE44FD0
BCF1C350
BD9D365B
BDE1EC4A
3D81D38B
BE2BADEE
BD975670
3DE81FDF
BDE2C416
BAD2434C
BCF38F6F
BDE0BB6A
BE70BFD4
BC7CFB1A
3E15D636
BE68BDCB
BE443E2A
3E797F24
BE835A2E
BC2B9D79
3BE3D7F2
3C64F9E3
BD6592AC
3DE89D72
3E0D2AEE
BE2526CD
BE8822D3
3E1F804D
BE765BE8
BDD1857D
BE474FEA
BC635D58
BC8B2DD4
3E1FE78C
BDC5C042
BEB6D88E
BDE9B5F1
3E0E7C8B
BEBB264A
BE726B84
BF0F6FE0
BD56C6B8
BE09AE5B
3E2C3873
3D860809
BEC7420D
BC4C9075
3E5F4618
BE5DFB3B
BE8D60C3
BE44196C
BCD74E25
BD244F09
BBA1908E
3C9626C9
BDA0004C
3E2222FB
3E0739C1
BDDE066B
BD19E828
BE4D68C8
BC23C8FC
3DC85553
BC653CD8
3DC38890
BE18DD85
3B21DBEE
3E483B82
BEF8E3DC
BE32A014
BEDC0FE6
3D65D790
BDB688A7
BD8BAEE3
BC8226AE
BE4535AE
3E3BF7F3
3DD4352E
BEFE8FEE
3E1ED28F
BED9F3D1
BE5B8D1A
3D887387
BEA75885
BDF13703
BE4E1141
3E62C890
3EA02D6E
BE95F6DC
3D2B2510
BE2D28AE
BE0C3BE2
BE18C1A9
BE53B6AB
BECA6225
3DB02A8C
BD3EAC51
3EAA2183
3CB4A09E
BD35CE64
BE666099
3C3C69F4
3C691F79
BDE0FD26
BEACB9BE
BDCA1B4E
BD8C756E
3C956F45
BE681C5C
BDAE4B0E
BE57AF67
BCC4FBE0
BE064E4F
3D4E189E
BE06CA38
BDA0AA39
3CF142ED
BE22148D
BE03EA73
BD97A05B
BC1B0BF6
BDAFC4D4
3CFDC3FF
BD5E0D61
BDB6B008
BD1E3F0B
BDE7B473
3D18D401
3C548248
3D54B41B
3CD0EE0B
3D046091
3C30760C
BE142697
3D509534
BCD0532D
BD130CC0
BA804D36
3E26F76B
BDA43287
BCDE8D29
BBC77E73
BD8BAA84
BE28550D
3CB9C226
BC2CA7BD
BDF9720B
3DB70FE6
3D9F6210
BE5E8FCC
BDBBD581
BE24AE41
3DB6BEAC
BDDA6B5B
3DCFB451
BE554A90
BCB47E6F
3E7AEC6F
3D93E120
BE6C5A5F
BECC1B23
BE081819
3E137B2F
BC8D18CC
3C8B35E9
3D9FB899
BE0DB2A9
3DAD483A
3C217B3A
BDE5033C
BE664F8E
BD1945AB
3DE3E9EE
3CF7959B
BBDD3A91
3D86799B
BD303E61
3E0770E7
BE47F2E4
BCF16AA6
BE5C9EF2
3D177AF9
3DD78979
BD35B2DC
BDB9ADE7
3E1A81D5
3C3EC52B
3DEC82BE
BD80F476
BE00BD17
BDF89F04
3D238838
3DF6A0B3
BE13DA70
BDEA84BC
3EB18516
3DFA0B5E
3E39391B
BD7DFB2C
BD284F87
BE8C3658
BB85BEF9
3E9437DE
3C99A46D
BDE432BB
3E906AE7
BD8AC3F0
3D2ECFA7
BE9B8421
BE09E86C
BEF09E33
BC4FD320
3E506FB4
3E0109DA
BBDFFCD8
3E0D9474
BE655F4C
BDA16FF4
BE759F84
3DACA069
BE8530F4
BCF0D263
3E5DE2D3
BCCF65C2
BDD5FC3F
3E03DD22
BD65674A
BDB93EEA
BEBBB532
BD3BD2A8
BED93047
3C0F42D3
3E8C7A6F
BE1F5B9C
3D2A24C0
3E62618A
BDD4F5CB
BDDD1E4C
BE2B110F
3D327ED4
BEC8EAD6
BD940C23
3E72EBFA
BE5F76CD
BEC57627
3DC7A730
BD316AD9
3C32A9A4
BE5CBFDA
3CBC0BF1
BF245E3B
BEB53BAC
BEC69432
3CECEE01
BE741138
BD5211CB
3B6B2B65
3DD7A751
BEFE6594
3E6ABBA8
BE3627E1
BD9A0A7E
BCD5B554
3DC21A04
BE08E786
BE0F162E
BDA23843
BD8D5331
BD4A6E5D
3E025425
BD8653F5
BDFD403B
BE2E05B0
BCAF0CFD
BDAD5920
BD2BC42C
3D477F5D
3D73DC57
3DC4957E
BE14E096
BDFB195C
3BA83E61
3E0DD1B0
BBD1EB4D
BA62C579
3D45D795
BE961A17
3D03EE79
3CDFD2A9
3CE85F6E
BEAB9601
BE2A8A1B
3DDC47C3
BE230932
3D5A1E13
3CBDF73E
BD482FBF
3DF96E32
3E169796
BE01B79F
BEB88EDB
BE3D4082
3E22F1CB
BCA68A77
3D5A01ED
3DA615FA
BE415936
3C4817CF
3E59D478
BE3473FE
BE99E1C7
BE11EB28
3E63E65B
BE02DA3B
3D7F7217
3E78D83B
BD0D2057
3E167026
3E0C4618
BE7EAE5E
BEB52A0C
BD969239
3D825829
BD2573A8
3DB77A32
3EC05E5D
BD81BD6E
3D25E2BA
3E6D40E6
BE6B68BD
BEC3FC1C
BCA2EFD4
3DB51C5E
BD6E5970
3DAC9635
3EC72A9F
BE17A936
BE2F4569
3E50FA7A
BD54F5F2
BEBDA225
BD733D45
3DE57DAC
3CDDB3DA
3C9CC7CA
3EC59A5B
BE8D0231
BD24FB31
3DC77518
BDE81A65
BE3A4952
BCCB91F5
3C950744
3E4DC91A
3D925239
3E6C7664
BE932278
BE3A69E8
3D2B953D
3D3A1B53
BE02EC68
3DF5D988
3C4E381F
3E04169D
3CC67D8B
3E6E3AAF
BE7FA9A9
BE1C5613
BE2570E6
BCEC2EF5
BDA8871D
3D8A0DF8
BD9623AA
3E4A5787
BC335105
3E14EC51
BED41DCF
BDB98AED
BE506BE9
3D953C2E
BC30493F
3D4ACE54
BDAAC05A
3DCE89E3
3E0B1D25
3E296CB4
BEC18C92
3BFFC6EA
BD026808
3DB7E163
BDE7F4B7
BD78F8C1
BECE8D3C
3D9DFE4E
BCF83DB2
3D6997A2
BE105E79
3E171010
BF119D48
3E354316
BEDEE03E
BDED2115
BE27477E
BD52F895
BE8DCE61
BDC2A310
3D99CD26
BA76E5E5
BE7BE049
3D1C3062
BE27AFB0
3C5FD653
BE214FFF
3E56D0CB
3C9A45A7
BDB20130
BD0614FE
BD65BB6A
3DF0B894
BDDBD37E
BE83C634
BDA02EA1
3DB5223D
BD9FA97E
BE1FDB49
3D176FC1
BE64DE8F
3D30DCC9
3D9081BA
BE295626
BE729744
BE58E92B
3DD35510
BC6D5063
BCED13F6
3E1D3710
BE856054
3D8E49A0
3E7E82A0
BE158EFA
BEE0757C
BDC8948E
3E284E25
BE5B8AE1
3D033C1E
3E9940FF
BD8ACFD4
3C6E12D4
3E8D7AC8
BDA317F4
BF131104
BD888FC8
3E863E76
BE1B820E
BDFEC1BE
3ECC2B75
BBDDF557
3D2FFAB5
3EA5FBEC
BE08AA74
BF3C0366
BE42F523
3E1F15D7
BCD3B983
3D7BFACF
3EDC734A
3CD0C423
3CAD2146
3E202E92
BE160E21
BF229A54
BDA93EA5
3DF2BB37
3DA5BCCE
3D616BCD
3EAF434D
BE5578C4
BEA11818
3DCA12DE
BE3352C7
BEB4EED9
BB843A10
3E017C3D
3E19DB7B
3D8FE54B
3DC317CC
BEAAC444
BEA216A2
3D3DE03C
BD9F646C
3C8D14E7
3DD848AD
BE054F26
3E4205FB
3CD275BD
3B89D8D9
BEA73EE1
BE7D8EF8
3D6371B6
3D8B9A75
3D4012B2
3DD92743
BE1933E8
3D60968D
3C8D45AB
3D69E412
BE2405B0
BD92626B
BB867980
3CD4B2E2
3DAB3ADB
3DE9D415
BE8F8827
3D1F3ACB
3CD761EF
BDBF13F3
BE69744F
BD1B1326
BD58D238
3D78F6D7
3DCE4DB6
3E3B36B7
BDD06540
3E3DE1E5
3D563BD0
BDC1E3B3
BE680D93
BCA6F320
BE3EE51B
3DE705A3
3DC55520
3CA7C0E7
BDBA74D6
BE4FBD29
BE0634CC
3C1F80AD
BDF2DB04
3DD72268
BEB8AB34
3E2E0134
3CB5D6BC
BEA1EC32
BE868F40
BDF64E73
BEC6C46F
BD8339AE
3D3BC4B5
3DA9198A
BDB60CDA
BD77AAF4
BDB4681E
3D9841AC
BDA4AA57
3D8A425C
3D9C13EC
BE815A62
BE485C08
BE11E5F5
3E909DB5
BEA5E730
BE74E6E5
3DCC119F
3E0ABB1E
3DC477BD
BDA585E1
BD8B5233
BCE20C0E
BDEE887B
3E573F28
BE63BE99
BDB7085A
BE7E920D
3E0F7561
BD44BD78
BE6988AA
3E1C2050
BE2479CB
BC873CFF
3E8F17BF
BD4DB538
BF0F96F2
BD245673
3E110BE2
BEB54613
BEB9EEB7
3E3BCE0D
3E23C414
BD3A5A99
3EA4E757
BD020ECD
BEC2CC9F
BD9CD670
3CD796DD
BEBF4969
BEB8CA87
3E8338CA
3E14FF21
BDE1116B
3DEE222F
3AB7E5F9
BEBADA3A
BE0BDEA8
3DDB6FB2
BDD2FFCB
BE751D69
3E50FAB5
3DF48302
BDCC0596
3DA6A577
BCADCE9D
BE46E516
3D71020B
3E7A6264
3DC62CC8
BE1DB3E9
BD9B2156
BBBE173D
BE8B3B96
BDAD8D1D
3D7C435F
3B796A3C
3DCB43BB
3DA92252
3E27EB1C
BE08518E
BE0A597A
BE6CB64E
BE9A5C52
BCBB6E98
3D0FC739
3E4C21EF
3E780E02
BDA84832
3E38A3B1
BDDE10CE
3D552DB4
BE733A83
BE97C2C1
3DD8CC96
3CC23E44
3D8B290E
3E6C446D
BDFF1970
3DA0711E
BD51FCEF
BDB27FA5
BDD96D96
BE16699A
BBC9D8FF
3DBC24D3
BBE3F393
3E1CE5B9
BE890491
3E1C30A8
BDC69FE2
BD4BA838
BDDF0C85
BB0D249A
BCECE3D9
BCF224C6
3D04AC18
3E57ABBA
BCB1D1EB
39C90B9E
3D1AD8F5
BE602B0A
BE44CB0B
3D07FC83
BE4A8453
3D9B7C6F
3CAB6FA4
3C97CC0D
3C6FDC95
BDEB13D2
BD70F234
3C4AA069
BCA66273
3D78F57D
BE42884F
3D37A729
3CCFB189
BEA42825
BE7173DE
3CEC0338
BCC8F8A3
BC5C6F7A
3E3BB920
3D3ED047
BE8D0E47
3CA0269D
BE5AD5B4
3D9DA79D
3D85F913
BDC909FF
3CB60927
BE13675F
BDD2DD75
BD915371
3E91C828
BE5B6C45
BE2E3F88
BBB0F3D3
3D23A4A5
BD4CC9B2
BBC0E185
BDF7AFDF
BD2BDE6A
BE4A9F39
3DE5CB22
BDA9BF7C
BE0B9C41
BE7FAED7
3E1B703B
BCC6BD08
BD317382
3C78082C
3E0E84FE
3E2D4625
3C1C6E82
3E1D101D
BDD7D07F
BD043192
BE00CA47
BDFA3BA7
BEC62D6C
3E0AF035
3D7FC900
3D9A1C85
BDED9B94
3DBA8076
3DA13E45
3DA94C87
BED4A9FF
BE74952B
BEDF698F
3E46CCD8
3E39BCC3
BDE3AFB8
BDAF9ECF
3DBEE642
3D4BB02E
3DED1E9E
BAEABA10
BD04E432
BEBCE5F7
3E495F0B
3DDACD9C
3B6C93BC
3D044B33
3E0FB265
3DBBC406
3E0E6AAD
3E06504F
3D31EC7C
BE802A1B
B9EA5272
BC4E985E
BE1D4AE1
BDC26F63
3E24B505
37B589EE
3CFA296F
3D855C51
3BEB8602
BE2BF22B
BDA230E9
BE3AC40B
BE5372AA
3DF41FB0
3D227785
3DBCD8EE
3E85DFCE
3DD0EA42
3DA82291
BDA48780
3DA5AA6F
BE42BA94
BE8F341F
3DBC50F5
BE074525
3D61898C
3E33C42A
BBFC75D4
3DA4696E
BCC02DD8
3B103338
BCD3FE4C
BE45AAAC
BD028E1D
BD8AC7A2
3CDE3B26
3E1D3548
BE4EC3E9
3DB8DC11
BDC96065
BD10AFAE
BE6CAF09
BC454E26
3CB2CD52
BDC53A6F
3CF857A4
3E4C7114
3E1C262B
BDB0AD37
BC31DFCE
BE2081B4
BDC6A8A6
3DD2F3CB
3C0DDDDE
BB753277
BC468FC2
3D8ADDF7
3DD4C2F3
BD867ED1
3DB7DD9D
BE4739B7
BCFBDFCE
3C90272A
BDB5EB80
3E17C3AB
3CC1A86A
BE8BCC77
BDC3D875
BEABCF2C
BDEE2548
3D0A29B3
3E84D38F
BE070460
BE0393C6
3D53FB67
BD8FB4F4
3B3F97F1
BC3B57ED
3CAAE72D
3E55E112
BCFE8693
BE06322F
BDF85EDB
3DBA78D5
BE898DDE
BDD7D1A3
BDADD6E2
3E5AFBAD
3CDFBA30
3E84DAA9
BDEEDED7
3E1A1DDA
BE9F5353
BE16DCF3
BE901122
3D20AC63
BDD12E91
3E209838
BE41C68B
BDCB418F
3C54C75F
3E22E0EB
3E024F06
BE8D6CF9
3DE2E5D5
3E2C69B7
3C039C84
BE2078CF
BE64D8A5
BEB87E22
3DA42E8A
3DA496BF
3DC0804E
BE2ED2C3
3DC99973
3E6DD991
3D78A32A
BEB4179D
BEA12A12
BE935A24
3E122281
3E55D9CB
3D1D89B6
BE37926A
3E162840
3D89FA93
3E301750
BE951A4F
BE9EB5C5
BECD6DE2
BD2F3A9E
3E330695
BD629EC9
3DFBC456
3E192936
3D4DA4A8
3E715D0A
3E060ABB
BD3B9D8A
BE37627B
BD2A5B1C
3E1E4B2E
BCF18616
3CA3DD3A
3DCB7240
BE224096
BDA350A2
3D422BD7
BD801CCC
BDD94A3B
BDAB65E7
3D03987B
BCE7EB07
BCF49228
3DA294AD
3CB70AF7
BC6B701B
3DC0AD98
BD8F77D1
BCD96D24
3E249E93
3D6F29E1
BE1F5100
3DA0AC40
BE542B55
3DE371EF
3CC4CD86
3B6E45EF
BDD1C6BD
BD11DF10
BCAF2B55
3DD8AF17
BD2A228B
BC8A86B2
BCBA0624
3D4C993F
3D5F90FD
3D69E6D2
BDD01443
BC247E0F
3DB192EA
BB70D9D9
3A902866
3C763B0A
BD16F8A7
3DA8D2A3
3E1A9D58
3D780AC0
BE5116EA
BD424F53
BDEFC321
BD307B7D
3D75B86B
BDB1415E
BD20DDE9
3C74E890
3DA54AFB
BC91C49F
BE4011C1
3D2949FB
BE3E704D
3C7688FA
3E217F41
BDE5E0CA
3E6C6A96
BD745F22
BE533AD3
3B23A2AE
3DB43508
BD5AC2EF
BCEF468A
3DA9F6BE
BE9E8088
BE1762E3
3D514447
BC81CB0F
BE196059
BD1ABF0D
BBF2E096
3E53A5AB
BDEE024A
BDB548DF
BDD2FC70
BCB14828
BDCAF4FE
BDD3FB48
BDBBC2D9
3B90A047
BE494149
3E90430B
BE8B17E5
3E1F02CE
BE1D3239
BE9D9D9A
BEB03F93
3D5B8E54
BD08E766
3D0CFDBF
BED92C1E
BDA05592
BD3269F5
3E898608
3E4E4034
BE16BBA6
BE8544BE
3E33A43E
3D711847
BDC9B2A7
BF141BA1
3D93474D
3E010C8E
3E0F5F98
3E11E628
BD6704E1
BD9D54AE
3D7631E3
3DEE9153
BE883766
BF0A9A6E
BD2E55E8
3DE1C941
3BB622B2
3CB9E1C6
BD146F04
3E23B021
3DF1A0C1
3D8D931B
BD5B665F
BE9D2C97
BE4E3EA2
BD97862D
3D829DF6
3E1B9E0B
BD6D3712
3DAF4A19
BC049D59
BC9AF4F9
3D29DD5C
BE28E643
BDEF6C69
3BDDE7C9
3E097B71
BD2C6862
BE521F31
3D1353F0
BDFEED78
BD81C311
3DA9993C
BE6CB794
3DA3D759
BDC0DB12
3DA5D311
BDAB1BC2
BE3EF47E
3D3B30BA
3DA9E149
BCB9121C
BD0F1BD6
BEA857CB
3D6AF2E3
BC15E569
3D9F99E0
BD3B5AB3
BE44670B
3D888228
3DF8EE46
BCF1B5DD
3D20E5DB
BE38F9FF
3CA67E7D
BDB39DA5
3DB5F024
3CF49FAF
BE6032B2
3BC00209
3D3D1349
BDB7D089
BDDE5A64
BDFFBE9A
3DA629BD
3D7486E2
3DE81A54
3D0C48B8
BDB1D4B0
3BC8290E
3D85C1AF
3C20EC73
3D1BE9FD
BEA787AA
3D9BF71D
3A863AF0
BD89AB75
BD37E028
BD85D761
BD1021F5
3B0BFCBB
3C9B2247
3D1BA9B8
BE1BDD5D
3D05696D
BD98E3A4
BE153C82
3DF6960A
BE8FBF4F
3E00AED4
BDC9F5E1
BD2D90EE
3D8FDC61
3E8AD89A
BE91D97A
BD661614
BE9062BE
3DB03CDB
BE63749C
3E0CC5C2
BE0B6496
3DC3F38D
BD8FB0FE
BD6DD2A2
BD93A6DE
BE86F313
3E1A24AE
BD3979CC
3DDCB762
BDD4B990
BE2D4EFE
BE621B1D
BDBF8F10
BE7B15DD
3EA92C90
BED597A4
3DF1D8A2
BD9D2DE6
BE92A4D2
BEEA0C11
BD830B70
3DE3A4E6
BE8A9CFA
BE690F72
3DEE5B08
BE22A6EA
3DEA604A
3E822B3F
BE2AF21A
BF20242D
3E16BA54
3DC21BD6
BE67F379
BE91CF3F
3E0438AE
BD5262A0
BD36F48A
3E33EAED
3A20EFA0
BEF691A8
3DAE4C20
3DA07049
3CA87AE8
BE845C25
3D324ED3
3D9B7BBF
BD695067
3DFCC1E4
3CC3252D
BE05BA10
3C03CBCA
3DADBCC4
BDEFBB20
BE2CC75B
BE48B58B
BDB7034D
BC902D4F
3DDD1B09
3C45442E
BC9216FB
BDE915A5
3DD3F68C
BDF09AF6
BD2CE9CB
3D40A8EB
BE04BC6A
3D627E69
3E1A1C49
BE460DB9
3D48F4C5
BE5C61DD
BEC58DD0
3E226ED0
BE2D79A3
3DFD245A
BE0A8713
3E48F254
BBD01940
BDF3077D
3E361C45
BD64ED28
BE3A8E1D
3CF61794
BE1BA7AC
3D234F24
3CC45A7A
3D810AE1
3DE6546B
BE1574EA
3DCCC03B
3DF542A5
BD598453
BDD56CB5
BDD7BE30
3D485780
3CABB5F2
3DA6EAAA
3D02F6C3
BE2345DA
3DBDF945
3D52A9A6
3C9F1D0A
BE47577A
BDED3F25
BD0459EC
3D807867
3CD28940
3B8E5CF3
3C8CEF36
3D1C0703
3C8AD1D5
3DA89432
BCCF7F54
BE31DA63
BCCA5F37
BD1FB950
BCDB0F74
3DE8D906
BDDA9D1E
3DCD9AC8
BDC88680
BC5F0875
3DF76294
BCCAC392
BCAAD9D0
BD38E107
3D3A2341
3D012B19
BDE4CCF3
3CB0CD4B
BD1B0D78
BD4A5DAA
3DA65549
3E7FE664
BE2C1DFD
BE026F84
BE8FA235
3E45C1EA
BDE1AC9E
3CE3AE1F
BEB8443B
3D8E98A7
3D907EFA
BE61E276
3C9EAB87
BE8AF38C
3D902500
BDF3F110
3CBA1B32
BE4D7B57
BD1504BD
BD92A899
3DE0C58D
BD216F9F
3E6EF0A7
BE890988
3DC04B13
BCEE5D3B
BE269CB2
BEEF969E
BEAE692D
3D5F389C
BE4BCE7B
BDDAA14C
3BA620CE
BE07531C
BDD7F723
3C4261C7
BBE43C98
BDA51120
BD26CB1B
3D968E5D
BE3AB66C
BD60AF05
BCEEBE9D
BE6D3696
BE1BF1C8
3E56F36D
3C8E218F
BE283136
3CD26067
BC39EA29
BDEBA6F5
3ACF9842
BDD4787E
BDDFE7DA
BE21D4AE
3E1F3945
3DF58DCB
3CCB3F93
BD1FA6E7
3E2574EE
BD492EEB
BCD8B2CA
BDF887FD
BE21F6CD
BDB30F44
3DDCE16D
3C49D48C
3D1430AE
BE3687EE
3DE407D0
3CEAA902
BDAF341C
3DD3BAE9
BE118B5E
BDBD0D31
3DA89474
BE0F9B78
3C16EEAC
BE78B1C8
BEB61454
3D82808A
3BA47D0C
3D9DB4DC
3C6F0CB3
BDED6C57
3D3A8046
BD9E08F2
3DFB1C09
BB83E11A
BC12C4D5
BD37F107
BD0F4FB8
BD4AEC47
3CAA7988
3D3B1410
BDAC2033
BD99BFF0
3E221085
BAD5A3A9
3D2BC10F
BDF0E81C
BDA6B275
3DDEB0AE
BD1E7EC6
BC6EE3B0
BC7966D7
BB53747B
3DBBD607
3D26CE92
3CC2E409
3DBDF4A5
BDEEEDD8
3A3E41FD
BD9154CB
3B74959D
3D673375
BCFD0338
3C8D9202
3CAD1D25
BCEC83BE
3DD99DCE
3CB3FAE8
3C3035E3
BCD4BF73
BD2BDBA8
3DADF92A
BD19D6ED
BD0679FD
BBF83DD6
BD8119C9
BDD88256
BC8FB01C
3CB23714
BDEE00EC
3CC62977
3DB3BC2C
BDA77D08
BD3F1430
3CE1A421
BCE87B2A
3C001A44
3E265225
BC38C9A6
BD2B0340
BC839556
BAA72C36
BE547601
BE0350FF
BEAE11C0
3D00F028
3D45141F
BE15D5B7
3DF26EF4
BC837D52
3C299500
BD1B2004
BE1BEEF0
BE4A9314
BE40FECB
3D64D43F
BDB2032C
BDC2A011
3E4FBC55
BE67CF7C
3DC37027
BD8EEE56
BE5E1D15
BE82DD69
BE4767C7
3E750E86
BE86C710
BD0B46D0
3D3A4727
BE47DD54
BCC35460
3C2E1E99
BDFF606B
3D86C1A8
BD3EFB08
3E1985D2
BE86F112
BC6AE42F
BD6A922F
BDCEFA8C
BDEC265D
3E0959E5
BDC388E2
3EB093D8
BDEF1213
3E1E4B70
BDBC68E0
3E0A052C
BDC5C7FD
BE92B9E5
BDDAA4D9
3E01418E
BE85FAA4
3E8322A4
BE2C31C6
3E0C26F3
3D9C9E8A
3D86DEFF
BDCEEFD3
BDE9116C
BE355B08
3D539546
BC9B1573
3D97D6DF
BE22D0D5
3DBDA147
3E375390
3E127B60
BE8142D1
BE23E137
BE1795F2
3E3827AD
3D54F55E
3C681D65
BD874395
BDF34DD2
3E2A42FA
BD525232
BE215D91
3D7B8A3A
BDE9B3A2
3CCBB6FB
BC68A267
3CF2C879
BB7DAEBA
BD98BEAC
BC3363E4
BD06227F
BD39A5DC
3D7E2EFD
BD3E97B2
3D2FEFBD
BCEF662F
BDBD7387
BCDAFF6C
BD90110D
3D993642
3DB74FA3
3DE0C150
3CD65130
BD629E1A
3D385459
BD876222
3B7EBD63
BD3B745F
3C69E5B4
3E19D8FC
3DE4F9B7
3B6F85C8
BC83166D
BCC11B6E
BD81A2FC
BDBF0064
BB976AF5
BD04B076
BD9C4078
3E08D6D2
3CDF8E98
BCF48B51
BCAC842A
3D0604F3
BDBCC5C2
BE7B44FC
BDA5A255
BDEBF163
BE13CF6D
3E327643
3CFD27FC
3C98D8C3
3BDBA9D7
3CEE9AB1
BD956324
BE8BD784
BB88EB09
3DF79BAF
3D309F10
3D929164
BDB1545F
BD8EECAC
BCC43EA9
3B9BE71B
3DA44CA7
BC353433
BD9AA694
BE390567
BCC2DF14
3DDC6960
BDA25EEC
3E33FE4A
BD386694
BC1A7301
BCC1666C
BB8E68BD
BE0F84BD
BE1CFB97
3DD2F37D
BD4BA368
BE0F9D31
3E3150E9
BC93FCDA
BDB75EBA
BDE70112
BE1FCAAE
BE79EA04
BE4F7C2C
3D062910
BE02FDE0
3BF12208
3E816F7A
BE2F9BF9
BDDB7B1C
BDC11D83
BE805BAF
3DA33ED5
BE2CF9CC
3DF6F174
3E2760BB
3E1757D2
BDD09F90
BCE19355
BE76000E
BE8818C3
BD95BF14
3E41C462
BE90321E
3E8583E2
3E85B8C9
3DEF1E28
BE63DBFA
3BCFD1A7
BE1C1FB3
BD530B29
3D9AD3B3
3DC59413
BE8A171E
3D5E8A46
3E9A7913
3DAEAC05
BEBB0FA4
3D58B81D
BE563B6F
3DB2BB3B
3E27BD50
3CEE58DA
BDFB8AA0
3A9806E5
3E45D8C1
3CF02820
BE90898B
3E50BE5E
BE020D93
3CDB9C7C
3E348A64
3AA23BCB
3D81D9CA
BD4F16D5
3D00121F
BD0691A4
BE3A8E7F
3E60F935
BDBBBDD3
3E22E349
3DA12AD1
BE067E4A
BD7C7E3E
BDE594C6
BDC85CB2
3D291848
BE13F199
3DD48784
BB6BB4B8
3DEB99B2
3C911C00
BE1C9403
BD1485BB
BDE0CA5B
3E4EC031
3E080209
3D380C4D
3CB27A57
3C935685
BD918949
BCBB1559
BD7E1AF5
BCDBC700
BD92BD1E
3E81B4CF
3E0051CC
BD72CB92
3CEDE3A0
BE111509
BCBD213C
BE0ADBEC
BD007E9C
3A902390
3CB0E98B
3DCBBF53
BD818CF4
BB6C4B09
390EBE62
3D51A9A0
BE06F1A4
BDAB14E1
BD59814D
3D08CD00
BDB68597
3CC21584
3D46ABC0
BDF19696
BC89FCAA
3D77D88B
BE01C2FD
BE932576
BCE892C3
3C8A40F1
BE4F8281
3E2EAD4A
3D8F30E5
BDE6C875
BE66F96F
3CD1323A
BD134576
BE5B2353
BD7B055A
3E65D17B
3D0369D2
3C86403A
BD27E717
3BEB2BC5
3C52CD39
3BB824CC
3D6B1A9A
BDE22699
BD9B4BB0
BAE6161A
3D6BEAE8
3B830E85
3D677F65
BD8ABA17
3CD84038
3C8E2C4D
3D825748
BC067E7E
BD2ED245
BD770010
BD99F80C
BC8CEAFD
3E369511
BBB0EB00
BEA60C69
BE1DA7F2
BDC1388C
BDF41DE7
3D5941CA
BD6488D0
BDB4EE0B
3E229F04
BD570D00
BE84C199
3E0F2E02
BEB6C9FB
BE0FE4DA
3EA51F08
BE1D722D
3DC58634
3DE03944
3EBAECE7
BE1E3425
BE2CCA1F
3D8D9DC9
BE8515D2
BE9CA08E
3EB96AD3
BE7853B3
3E32FA5B
BC6CE04C
3E5A8761
BE3F3E9A
BE4AA5B3
3E57EB54
BE758CBC
3DC97488
3E5EA818
BD95AD44
3E039DFF
BE7A1581
3CB52089
BEA05549
BE4A13E0
3E858DB9
BE27FA09
BDDB5BAB
3E68929A
BCB9DA00
3D5C96B8
BE7D463C
3C5B4F3C
BE53979A
BD8DFF4C
3E471685
BD779D89
BD364DEB
3E6A16C7
3D087BCC
3D97FE0E
BE4ABA47
3DB2C0DD
BDA2C7AB
BE047566
3D60F670
BD49A07E
3D264FBF
3DBCD996
BD830345
3DF0628D
BE33C362
3D478691
3CCF9891
BC9B1423
BC986301
BD384E3B
3B6BDD18
3D52362E
BDDCF43C
BC6157B3
BE7BF0AD
3E5232D6
3BCA4E4B
BD99C413
BCA79E47
3D5C891F
3D1A7724
BD6E8A64
BD81433C
3E25F258
BDB56080
3DAAA33C
BE0E4BDF
BDD188ED
3E0E680B
3DD0D70E
BCE00DFE
BD8AB47A
BC468DD4
3D633D9C
BDD3748D
BE2ACB5E
BD46463A
BE6E4274
3D0FCA97
3E932724
BE515949
BE74785B
BE01165F
3CCB52C2
BE29FDFE
3DA05F28
BB79666B
BDADA7FD
3D79454D
3D9C2A09
BE4FF8DE
BE3BEF0A
BE4FCA70
3E01D37F
BDA036C8
3C3A1B9D
BD429C56
BBBC323A
BDCBCD4B
BC664CDB
3DB7A334
3DA0D4E5
3D3E0799
3CEB852D
BCD8FB07
BD89E85D
BD2F411E
3B33AEAB
BDCB00A7
3D437BAD
3D0FA54B
3D2DEF61
3D39E271
BC922044
BDBCCD4D
BDAFFD3F
BCED164E
BE343323
BE301632
BD51C54E
3C819361
3E730A5E
BE7ED2DC
BCDB6DB9
BE937E44
3C1FF0F6
BE6844F7
BE171AFA
3C13682C
BE85988F
BE293D69
3E7A855C
BECE989C
3EB057DB
BD06C380
3D6EA19D
BE552EB6
BE061CCC
BD5E9310
BE9C291F
BECCFC5C
3E9D448A
BE7B6174
3E493DB0
BE181111
BCA6D7D4
BEAFC690
BE0AFDAB
3E0D70D6
BE1B621D
BE62329C
3E8EA043
BE368E1C
3E96DBA1
BE4000A9
BDB408DD
BE92956F
3BA739A5
3DA118A8
BDAC6968
BE885720
3E2E53A2
BC7DDE96
3E9FBEB7
BE896DED
BC974A4A
BE62151A
BD2C831A
3C7E6CF9
BD57A8FE
BE43801B
3E451C48
3DB2CA0D
3E4A1DE5
BE32546B
BDAD0800
BD1D40B4
BDAD1A2A
BD0AFDF2
BC706C8C
BDEF89F3
3E0CC38F
3D8039FE
3E02CC51
BE15BB00
BD7C6090
BE086C41
BD36AA46
BCB46BD6
BCC88A93
3C7A9113
3DEA5C05
3ADDDF63
3E3C97EF
BEA805D0
3E0F0D61
BE8E7A7A
BC696BA7
BDF041BE
BDB2EAAF
BD94C659
3D872ABF
BC58F39F
3E38DD04
BE73E3CA
BD86BD88
BE8B26F4
BD6A9E88
BDA5DF4B
BC9C89F9
3D537E7A
3CD92ECF
BC6F5229
3DFD00E7
BDE83089
BE623C3A
BDEE370C
BE227407
3D7FDFCB
3D9AB8CE
BE79FBCC
BD7E8DB9
BDD4E424
3DA8E836
BE83769E
BDFDE55C
3DD1EE74
BB1FD1C5
3B0AA857
3E0F4D47
BEC4373D
BE146F4B
BDC8216D
3E3B8973
3DC36E40
3D8F2A6C
BD9DDD49
3D634859
3CF6025A
BDE71DD7
3D143C43
3D27B676
BD754E88
3D9891F8
BD741519
3DE3C898
BDB6AD79
3D486125
BE7B5002
BDBE187A
3E53D395
BD92BB9A
BDBD4612
3D5AC336
BD7A3ECE
BE193624
BD4F1826
3E33FC2F
BE5DCA5F
BE82C0AA
BB957687
BEA17EB2
BDBCDCD9
BD4E59EC
BC81FA27
BDC8F3F2
3E0FA41F
3D69ABC0
BE545D8C
BE0D7F28
3DC435A1
BED23405
BA8D102B
BEBF0976
BD3F9A32
BCB26442
3DA18ED0
3D84063C
BEC0A8DB
3B319D2E
3DAA2883
BE7EF097
3CB169AF
BDC2D36C
BD92F6DE
BDFF6B76
3C77C66C
3D926380
BDF44F32
3C860113
3D80F4EF
BD3CE5A8
BC562221
BD099DD8
BE034C50
BC27446D
3DB5827E
3C138ED5
BDB18200
3DD83DF8
3D0F0EE0
3D6E3494
3D00DDF8
3C8CDC96
BDB4FE52
BD4195AA
BD8D1B34
BCE63722
BE54442B
3DA99DE9
BD0F1DE3
BE2DBADC
BD535149
3CF64FF3
BBEB9596
BDE3C3FA
BD2CC783
BCD16AB9
BE177727
3DF2D2BC
3E14D383
BEB59B86
BDF3E7ED
BDE06E3B
BDCAE8B3
BD8369C5
BE1B639C
3CA670A7
BD5A7074
BD8555F3
3E7B794C
BD905655
3D161B6F
BE5AA612
BDBB3198
BE425066
BE182E76
BDBA9ECE
3D2EAB96
BE1DEAF4
3E390784
3D838E3F
3B2B589C
BE986E00
BDA0CA19
BB03E253
BE65281D
BDF7562C
3DF561FB
3E33EB61
3D84BFAB
BDC80450
BE0182B5
3C0234AC
BE10442D
BDE0A722
3D3CC5E2
BE4D4329
BD308C2F
3DB9D3DC
BDCD6266
3DAEC8EF
3D2DCCF3
3D6640BC
3C099BD5
BC88AB6C
3AC947C1
BDE722D2
BE0DCD0A
BE0142CC
3E06B98F
3D582E6E
BDA75A19
BD5EA50B
3CA5F0FF
BC1B03F1
3C7B8C29
3D1618FF
BD8C9E73
BE55D494
3E4D8FAD
BABF047A
BE329D09
BD6AAFFB
3D3BD23C
3DC0FBF7
BDAF7DD6
3D9E1C9B
BD6F28BE
BDD4FC5D
BD22B799
3D8EE06E
BDE8C5F8
BDDBBD57
BDF967BA
BDAB8609
3DB9DBCD
3C94A5F9
BD8A549D
BDCE7E57
BC8F49D3
BD2C3121
3D6FEE25
BDA1D61F
BDB29274
BE040472
3D3B3D29
3CA779F9
BDD04A62
BBF7E1C0
BD56C207
BD7691FD
BB01D6EE
3E1D51C8
3BDC1DBF
BDFEFDCF
3D8744FE
3D83AC1D
3D09DC38
BC755CE2
3C0D4006
3CED70C0
3E167D45
3CB0C9DA
3D1B6DAB
BD901E89
BE1BC28C
3D43DD56
BD82AD58
3C604F3F
3DA73B08
3DB2AE14
3CDA97FE
BB96AB4E
BC1BAD42
3CD9679E
BE2AEFDE
BBA7EC09
BD125B82
3E0614D6
3D547193
3C942DF1
3D8F2CF6
BE13A960
BD5F1BE5
3DBC8616
BD8F9920
BD407D5D
3D16F474
3E190315
3DD7AC4C
BCB64B41
3D8149AF
BAFE6CFF
BCAA2CEC
3DEA94D7
BE073FCF
BE0CCDFB
BC0321BE
3D9A1EC2
3DB71E01
BCFE8113
3E103984
3DAB48FA
BD2C256B
3D8ED602
BD051B99
BE7E84FC
3DAFC95D
3DD31044
3DE23726
3998F39F
BCB6435A
BD902BA5
3D25ED69
3D8E5E4E
BE4213C2
BD7984CE
3DB51F6C
3DEB1C20
3D07B2CA
3C5AA3F1
BDCCEC4C
BDA4A65F
BE02072A
BD6BBC92
BD999EC7
BDD519D6
BD002087
3E6242DD
BDB34BD5
BE8B4F01
3B9498A6
BE11BA9F
BDC701F6
BDF74D29
3D81839E
BE3B7828
BE0F2176
3E66458A
3DAA152A
BDFC5136
3D09062F
BE0D7CFD
BE116DCB
3D92E21A
BD0BF549
3C56FC13
3D62CCAE
BD9B7CDD
3DD09A4F
BE052B6A
BE85DB4F
BD96CCB6
BDADE144
3D2DF3C6
3D31D04B
BBB76234
3D045737
BEAFBC5A
3DBEEC1D
BCBF4A36
3D40045D
BD8EF8FE
3DA92CBB
BDC7D257
BD290487
3E19A38F
BD18F5DE
BD94C82B
BCF62F29
3C487609
BBA1536E
BD24C104
3CDF5924
BE3595AD
3D691F99
BC9D338C
BDD75324
3B193AEA
3C90D329
BCD47348
3D799BD4
3BBE9315
3D8E6345
BDB68C54
BD12EB6D
3DB10681
BD212DEF
BDA0D6F6
3D69470F
3DA3002F
3D58CE2D
BD2DEB15
BDBE4A73
BDC82730
3B70F54E
BBC9947B
BCCB05E3
BD67364D
BC27B56D
BBA68263
BD269D78
3D476594
BE1AC1A3
BC94D562
BDC04587
BE039A6B
3DA34C32
3DD6DDFD
3D66F3A0
BDACCF15
3B8550CD
3DC14800
3D0039D3
3CE91C48
BE1E75F8
BDA2BDF8
BCB9D17A
3E28F34D
3E1C9FCC
BDACA33E
3CE364EE
3E1DDB2E
BCF1A520
3E538094
BE7E4E34
BE8B0A91
3DF9D300
3C719514
3C9DCD65
BC1FA3DB
BE0DEA5E
3E1D818E
BDF8D12E
3E8F3A3D
BE9E2BEE
BE3E4A7D
3E350C34
3E135E17
3D0E53AE
3DA9A66B
BDB1E765
3D4FF9A3
BE63DC24
3E891A65
BE773A5C
BE84178A
3E834194
3EA21B07
BDB48217
3C742F09
3BA928C1
BDE85467
BCA3F737
3DF01915
BE915FB3
BE8F451A
3EAB86F1
3E878EF4
BDA12811
3D806832
BD9344E5
3B004800
BD0803D8
BE6CEC99
BEA1D481
BEAA55C0
3CFDD2FE
3DDA471C
BE906BB7
3E03DF0C
3A94B084
BD275632
BE64A14E
BD860F69
3BB89937
BE435BD4
3E2F4514
BAA373D1
BE7E7D00
BCBC4B28
3E20F489
3CC39375
3C2DD4D9
BE08FFFA
BE66CC7F
BD89AA2E
BE3A94E6
BDDF4B1B
BE93A878
3C994FE2
3E77A09B
3D608F28
3D7D4EEA
BD25E928
BCA0529C
3D3D436A
BD36BE5F
BDBC0825
3A4529CE
3D660A6D
BE36A44D
BE0C3404
BDD1B14E
BD15185C
3D064813
3D0BC4F2
BD7CEB39
3C5CB8CC
BD728E61
BD107A63
BD89A188
3DDEBDD3
3D4F726A
BD73805A
BCFD8ECE
3DAF5B7D
BDCBEAA7
3D0DE519
3D078600
BDA85E2E
BD6535B5
3DF64E4F
BC63B114
BD6BFABC
3DDBD8D0
3C98C276
BC68E056
BE3D9313
3DBC3CAF
BE665EB2
3D005CFE
3DFBF92B
3CC3BD5C
BE308C39
BC86101F
BE02F505
BBC31148
BDEC86E4
BD3F9CE8
BE10DE65
3C69B1C0
3E8B32E4
BC9DF685
BE4AE7F2
3D7A9D44
3D0C0CF1
3C971ED1
3D75C4C4
3D1AEAD6
BE2F3202
BD4354E8
3D8CF88D
3D611B78
3DD40958
3DC80BF8
3CD725D1
BD5C5A02
3BB97E6A
3D941C99
BDD18FE1
BE922935
BC655B0B
3CF007D9
3EB4A417
3D6F03B8
3D8CEB98
3E39D94C
BE066B36
3D642BAB
B904963B
BEA7F5AC
BDFB224B
BDC1A5B2
3EAAE0F2
BD9608E2
3DEB9351
3E4B0C73
BBA0817D
BDC70C71
3E12513D
BE602CEC
BE91A5A6
BD8FEBF1
3E364D17
BC94B868
BE20DF68
3E83BDB5
3E5390ED
BDB496D7
3D98A48F
BE0F63A6
BEAD0DF4
BD890286
BBE020A3
3C76AAA5
BF038C96
3EACBA8B
3E7A2433
BE3B86B5
3E8D8B7A
BE0245D7
BECDB564
BE59742C
BEBDB0C2
BE311FB9
BF1DBB9F
3E1EC608
3E62B186
BDB433D8
BDBD4653
3D929787
BEA6EBCF
BE5DD444
BE9A56C9
BE6822CE
BD912305
3DA77D3D
3DB02F3E
BE5176B4
3D775C85
3E7745C4
BE027999
BD5D7671
BE4B6D80
3BBFE51C
BDD32F41
BE15D5AE
3D866A54
BE35927C
3D9DDF9E
3BD41888
BE16F73B
BD58E42E
BC84426E
BE2485BF
BC04B5BD
BDACAF87
3CB96B1B
BE4D786B
3E087A56
BDA0332C
3C0893BD
3C91180F
BD856F4C
BDD1BE8B
BD22056A
BCE101EA
3D2846D9
BD23C1F5
3D6B3C87
BDE92069
3E1CF182
BCA709FC
3D97EFA6
BD38E3CF
3D9E1EED
3D44AC3F
BC04CFFA
3D1B721E
BDEFB2AE
BD731419
3C1CDC6E
3DB71123
3E329F18
3D4A01F7
3D813979
3DAB378F
BE080C5D
3D86CE16
3C1219A1
BCF37C7C
3DF7781C
3DFC8E29
BE20C6BE
BDA85BD9
3E1873CF
3E263BC8
BE19CDD3
3DDD1248
3DC75101
BE45EADE
3E083E9C
3BF0A8D4
BD18C93E
BDB4C3D1
3DFA03B8
3DEE05E9
BDA1219D
3DB4CB82
3DD525DF
BDCC21E6
BE0C3303
BE5B2E4B
3DD6AF71
3D48D3BC
3E377244
BE1B7D0A
BD0EFDA0
3CC0D1AD
3EBD42CB
BDE81AF1
BDB78C08
BDDE6F75
3E6223B4
3E12C1CE
BD53DEDC
BE891883
3CF3C056
BD560805
3EB48788
BE21B5E3
BBE59580
3C179147
3E132F4A
3DCB36FE
BD5B84A8
BDF87A3E
3DA4605C
BDFBC8AF
3E6BC75B
BD91A107
BCA8348B
BD50F36F
BD6F5F37
3D3D8BAB
BE588261
3DE84202
3E3FE5B0
BD9B9CFA
3E4462CA
BB29887E
BD098637
3CC57CA0
BEC90335
BCE70852
BF0F8B8C
BE22E3F3
3E408B61
3E3D1792
3E0C2CB7
BD814BC7
BE83C2F2
BDA5A80D
BF1337F6
BD9FC383
BF393B6E
BE6DE0C4
3EDFFEDB
3E4250F8
BDC4C477
BC3E426D
BD07146B
BE9F1E47
BEDBB7FB
BE08AB74
BEE5949A
BE45D177
3E999408
3DCA3708
3B008102
3D1208EF
BE654AC8
BE3B674D
BE6596C4
BDCFC837
BEA5A108
BE9E808A
3EB9AC7B
3E2A817B
BE60BEC2
BD59044F
3A4C8A08
3D7305B5
3E0803AF
BDF8F34F
BE18CA3F
BD3211F6
BDE3583D
BDF19F46
3E2CD6E7
BC1935CE
3E5E7AC4
3DB25C29
BD649E3E
BDE865AC
BE4E33A7
3D6F339E
BDF744EB
3CB25E49
3DF3427D
BD0A8737
3D662253
3DC5690A
BB690CBC
BD03FCB6
BC110CDD
3D2E7F56
BDA56C2D
3DEEFAE3
3C680BAD
BE1E63CE
BD1BEF01
3D55CF21
3D94430D
3DA153E0
3E1C4802
3DAE50B4
BE5D0BEF
3E027C27
3D66716E
BE553672
BE13D205
3D776471
BCE3A0C4
3DD09784
3D98375B
3D185AC2
BE59C6DF
3D913DDB
3E866972
BDB94324
BE4D3ED2
BBF8480E
3D3B9387
3D372860
3DF6215E
BE299541
BE1150AD
BD7E2F8A
3E88F100
BE09608A
BE86663B
BE382993
3E1C3A63
3E19302B
3DB805C0
BF04F002
BDDDE411
BD062A91
3EB61D3E
BDF12F42
BE3DF0AD
BE8FCB0F
3DB2B1BC
3E3C2771
3D5C497D
BE6305AF
BE01E643
3D1D3CF7
3E7EC37D
BDD5614F
BE28242D
BD238D37
BCC85395
3E06FA17
BE06F430
3AF8F1B4
3DDDA997
BE1817FF
3DBFC549
BCE88D84
3D6F545A
BC3393F7
BE9E354A
3D5F9AE9
BE87CE01
BD6B2D51
3E9C4618
BD86491A
BD929CD0
BC807220
3E1F394E
3D60C85B
BEF51B88
BDB4EDD6
BF2ECE76
BE46A501
3EB30FBE
3E51CD32
BE196375
BC7ECCD7
3C642910
BDB2AC20
BE80468F
BD81A723
BF365593
BE43B2D5
3F194F14
3EB12D67
BE51C49E
BEBDE690
BE186F08
BE9DABDA
BE69880B
BE5F6E52
BED4B4AD
BD9D35B0
3EBCD17B
3E4A4D04
BE1A5C0B
BE2C1515
BE319CDC
BE80E5B6
BEA16514
BD8239B7
BDACE79B
3D774A5D
3E0612B1
3D069A6E
BDEE9C92
3D507810
BE4DA676
3D82F938
3DB32304
3BB4F157
BDDD662A
3D9CA059
BE57302D
BE8AA893
3CA7486A
BEAD8CC9
3CC081DA
3DA087AE
BE52BF87
3D7FB5A4
BE33A51E
BD69558B
BE0E9B18
3D1D368E
3C00A4D3
3D0E0724
BDFC80E4
3E1C6C5F
3D38A031
3DDF19A6
BC86DDEF
3C9FFE50
BD9EF66E
3DD230CF
3DAE3B0A
3D24B958
BE4E419C
3E39F560
3C604419
3E3E861F
3BA6FF4A
BDCC54D4
BE1511BB
BC0FF062
3E8F3C5F
BE0E6DAC
BE530FB3
3DFF216B
3DBC8280
3E5070E2
3D689E0F
BE104333
BE08FF8D
3D8D75BA
3E89886F
BE24AAC7
BE937750
BDD4151D
3DB905D0
3E2FBE76
3D6B4F12
BEBBB633
BDFAA748
BD5B3074
3D60468D
BD264E2E
BE7E196E
BEB34737
3E18ED10
3E10C5A7
3C8EA890
BE9C88DE
BD691A33
BB892C33
3E6701C7
BD5E3B34
BE29BC97
BDFE11C5
BD44795A
3E3A1F03
BB9D5035
BD00AC1D
BBAA1D07
BD844685
3E81F53F
3D7E9C1B
BDA75A1B
3D567D55
BDC67D52
3E69305E
BE4E10C2
3D6C98AC
3E02590A
BE15A1F1
3D7298C5
BD585B84
3DFDEF4F
BDD8DD88
BEA888BA
3E3DBCE6
BDDD826F
BDF7135A
3E6355CD
BADF54D9
BDBF6C97
BEC8FA3D
3E4E21E1
3D21B9FD
BEECC100
3E238CDA
BE0CC46E
BEC5CE6D
3EA1ADE1
3E06D706
BD9D7D76
BE31BAD4
BC54A0D1
3C103D36
BE029962
3CC655E5
BE0A89BA
BE5FDF01
3F17BF6E
3D2C3F5A
BEE0AA47
BDD42365
BEE46265
BEE579B1
BDBA17EF
3CED0F3E
BDFFB70F
BE489B02
3F1F8B46
BE9B1C42
BE82C3A7
BE9CC076
BDF5AFB0
BEB191C1
3DE9BB57
BD25FD77
BE07204E
BCBBC56E
3EDB444E
BF0C688D
3DCDCA5B
BE4C52C6
BE4C9BF3
3D31BA1D
3D8413EA
3CF45A9E
3AAA3D78
BCCBC74D
BD0AAFE3
BE14A544
3D8775C0
BE4E995D
BE1BBE6F
3D15F8E5
BE0F38B8
3E14C0C7
BE4798EC
3C261C46
3D23F983
3CD101AC
BCF0D95A
3DA32F34
BE412267
3D429434
BCD6E261
3E3B48FC
BD69A018
BB1DA59B
BE014250
3D4CD2A5
3E0A998C
3D7941A4
BE0704D9
BCDECF0B
3D80CE9D
3E1EF803
BE1E36E2
BD23BD0F
BDE93CE8
3D18F481
3E6BFA99
3CFCA81D
BE571B59
3D27FD2C
BD66DEEA
3E2810D7
BD7B758A
BD858CAE
BDEB85CE
BD1214B4
3E582117
3E143EFD
BE72DEDC
BE9E0212
3D5493D3
3E5CB19F
BB8AA0D6
BE073108
BDB7D51A
BE326FEE
3E0ED29A
3DE19887
BE63FAB2
BEC9BABF
3D1C8716
3DA49DA9
BD3F2658
3D116E0B
3E390FD9
BEA893E5
3DB61BEE
BE7FD7A8
3CACFA53
BE025D6E
BE16084A
3DD08A92
3D76995B
BCD23FB7
3DBFAE4C
BE800CDE
3E267BA2
BE4DC1F5
3DC0BD4F
BB6C71AD
BE1D418A
BD38A1F1
3DDA8AA6
3D552992
3E3DB8B3
BE51924F
3E75D083
BE84B341
BB8591E8
BC50F76B
BE14EAB1
3C3DFF92
BBC14748
BD00630F
3E6A6E3E
BD19B8A4
3E3B0CF2
BE4DFDB9
3BA2ED27
3D1538B4
BE03E7CE
BDCB55EE
BDDA87C3
BDB65506
3E8EC9AE
BDE0A4C1
BDF59D59
BD296993
BEB9B2B0
BDF7C8A4
3D99C41A
3E180CC9
3D7EBC75
BD0B7F70
3E1A7E5D
BEAB0311
BE21B042
BCA9B2FD
BEC258BB
BEC32734
3D7D46A9
3E52C587
BDA73B8D
3E679851
3E86F8E7
BF323B25
BE99B2A1
BD60BEC3
BE4E2CBB
BE878200
3E6FB09E
3E3BBC02
BE717444
3E1A3E1C
3E4F5C6E
BEF03BBC
BE773550
BDDAC93E
3C6E7EDE
BCEC1DB9
3C1B12F7
3E201F0F
3D181E8D
3D8078BA
BD2726BF
3CFFABFD
BD23D979
BE092829
BE4BF05F
3DA493AA
BE1D1D29
3D12D70E
BE335055
3D7A4953
3B876BD0
3C4600F1
3CD2E888
3D8240CF
BD9F3B6F
BD88419D
3E13060C
3D405B03
BDBBF2CA
3DC1301A
3D999FC0
BB841833
3DCBA375
3DA8E5F9
BD822728
BD872D58
3D3D2085
BDA4D737
BDC9592F
3D1540B2
3DA435B9
BDF2123A
3DDDE89F
3D943822
BE52F2D8
BE1C3080
39661404
3D1B6035
BD2C41C9
3DB7FB7A
3E09E3DB
BE03B7E6
BAE1AA7E
3E1FCFEF
BE27BE88
BE3C25D2
3DB31FF6
3D74CDAA
3C08B752
3D9D41BF
3C58C377
BE927628
3D6A4F90
BDB90A42
BCED0DF2
BE614537
3E1F2098
3B8C39B0
3D9BA3A2
3E3FBE7F
3D9D362D
BE880CA8
3D1093C2
BE72E872
3D9A8CAE
BE8096DE
BC8C3ED7
BDC0E6E4
3E189727
3D96704E
3DAEB383
BE2B1E1B
BC110634
BE3DA304
3DF9783C
BDC4606D
BED41F30
BE35FCCF
3DC59D5E
BDA806F2
3D0FC9CA
BD67C75A
3DD551CE
3D378F4F
3DD019AF
3D847BEC
BEAB4183
BD7338C8
3DF8A8FA
3E164CE4
3DD221C1
BDCC1C99
3E251DDF
BC936189
BE190D00
BD991996
3C9B3513
BE2A6F8D
3D89F0BC
3E94AC68
3DDE6603
BE958B85
3E5DD893
3DE0A60F
BF0335B9
BEA6E9AC
3E76E4C4
3E358D72
BE481C95
3E856AB5
BE01C2BF
BEB36C0B
3DEB58A9
3E12C2D7
BEE95896
BEA23D5C
3DAA3BD7
3EE70F5D
BE912FF7
BCA4CBB6
BEC6C2ED
BEDB59FF
3E31F223
3DB473C5
BE4B4A7A
BE5D3C76
3DF93AA4
3ED9592D
BE840492
3D46CDE6
BE735521
BEBFA4D6
3E3E010D
BE19CB4A
BE249290
3DBD2112
BCF542AF
3D93A61F
BDE99D42
3D0A6FFA
BD2E4735
3C8A7DAA
BD841E58
BE1FA81A
BD37CDCB
3DB428DC
3E4A342B
BD70B583
BE1E5318
3C6675FA
BD5525C8
BE2962E1
3D4B6309
3D7981DD
BCBD42E4
3AEA0FDF
3DE50D2B
3BDE89DF
BDA262D6
BBF0C918
3CBB47F4
BD9CA673
3CEDBFBB
BA9DFC2E
BDCF88A8
BE025BFF
3E3753A1
BDB5355E
BC819D46
3DF758CD
3E11737B
BD614E55
3C1D4D21
BD7C0D83
BD4634B7
BE0BF515
BBEED8FD
BE063FE4
BD77033E
3E061C26
3E1612E9
BE2E73AC
3D1FC2CC
BDD00340
3C3AFD4C
BEB32457
3DDE04CA
BE6CD5AB
3C932246
3DC30811
3E345CA4
BE964E20
3D994804
BE916AA2
3DC47D97
BE8FA5C1
3E8B01ED
BE348F62
3D7AAC95
3DE55780
3E30FC5B
BE80E247
3B9EB0DA
BE667E48
3E31CE31
BDF92D3F
3DDDA008
BE2F82A6
3E478E40
3DB401F6
3E218CE6
BDE75EB3
BD9C4765
BE504B08
3D6FA4E8
BE6E7F1D
BE443D70
BDE7CDDD
3EA17EC4
BE11831B
3D91A57E
BC9D3E8C
3D74E5C1
3C863426
3C2929DE
BD6510C6
BEADE851
BD702DF6
3D9F32DB
3C92E0F7
3D7B365C
BC81EACB
3D9C5056
3E2D0D8F
BE0E0B68
BE03400D
BE9C5BE8
3D1C4518
BDDB4F6A
3D4D5458
3B636218
BE72F547
3E0C1138
3E43C33B
BEAE5204
BDEC3ACB
3DB128B3
3F16D983
BF2F0BE0
3DCACC86
BD41E6EB
BEA95709
BD974920
BE1A7F97
BEE203AB
BDD8F833
3E53FC37
3F115B26
BF2A6EEA
3D1ED5E2
BED94471
BEA48B21
BDD92572
BE9F5419
BEAE0AA8
BCD15AA0
BB0254B5
3EB6FDA5
BDAA7ABD
BCE48E5F
BE2C492E
BE552F97
BE63B10F
BE96DEB2
BE8C67AC
BD62CF71
BDDCE5CB
3D2D764B
3C979D0F
BDE14D17
BD48A629
BC2AC633
3D1B93B8
BE7F7C84
BE3853B9
3E4958C6
3CCF27E8
3D9D6A98
BE18605C
BCD87A40
BD4C7242
BE05130C
3DB6B73C
BC362BD3
BDCFCEFC
3D94CE18
BBA63C1E
BC58E092
BD0ECCD2
BC1EAB7C
B9B5D8C4
3D3EA1E4
3DE28622
BD9DE744
3D8526D7
BC54632D
3D407EB9
3D045A92
BDA7537C
3D74016B
3D317FA4
BDC37BDE
BBCB70CE
BE425706
3D86DCA5
3CFCD70A
3D98260E
BDADD74A
3D4C0AF7
BD3DDD84
3DE95374
BD693963
BC65B879
BE16E84A
3DC348A0
BE13EA35
3DA339A2
BE09C72F
3E0F73CD
BD0E258D
3D946441
BE0EFADF
BD6A5EC4
BE95AC6A
3DF5D404
BE5A48F2
BCBA8DCB
BDFE37C1
3E259410
3D3C3D66
3DB9C0BF
BEADC19C
BBDFE928
BE8515CA
3E023A36
BD6B8BAE
3DE9CBDF
BC40B28F
3E6DEF21
BD234EED
3BE4B46D
3BAEF6BE
BC8E293B
BE3CF65B
3DD77828
3DEEF722
BD50DADC
BB399759
3DAE9CEA
BD82D7C1
BD2ADED5
3E36B437
BDFCAFFB
BE70FB87
3CB41A31
3E35CC80
BDEE9760
3E5A4D49
BC867F73
BD8F462D
3B8FCF32
3C5BD9AD
BC3685FD
BDDA66D7
BDE0178B
3E578CE0
BCC85CD3
3EDC6680
BEE1B96E
3CBC7C2A
BE63D876
3B1E374E
BD892E79
BE428EEF
BE3EB4A6
BD3236C4
3E1B0922
3EEDA3FC
BEE3E914
3E2859F8
BEEB00DF
BDE942C3
3AA5781F
BF063851
BEA7635B
BC78D964
BD544889
3EAF229D
BEBC7157
3D9BB0B1
BF1ADB24
BE571C3D
BDAECB24
BE88A344
BE80853C
BE0A17A2
3D15BC09
3EA33188
BE0DF784
BD41E71E
BE4C2238
BDA1D28A
3DC6339F
BE4C2622
BE45E870
BC98A91B
BE007641
3C5977F4
3DD53640
BD3E17CF
BD8B6864
3DE9F02D
3D9168EC
BED8AC3B
BE0F54A0
BDA3DE55
BDF08F49
BDCDA1B1
3D66EAFC
3D8A059C
BE2092ED
3DDE2553
3E1A3684
BDB64895
BD780EC9
BE430188
3D8CEE91
BCDE0D77
3E2D14E6
3D0D1A59
BDA813D1
BD28EDA6
3DDBEC5F
BE4B4522
3DC8529C
BE1A22A1
3CB4CF1E
BE122E38
3E4114DA
3D3704DC
3E08AE44
BE06FC9B
3DC0755A
BDC232B5
3D71551D
BD00FC4B
BCE290CA
BD526689
3D940C5D
BD962F2B
3D57E439
3DB97F39
BC90923B
BE352D2E
3E051092
BDECADE7
BC4DDAF0
BCD01FDB
3DDE4DC6
BE17A9F1
3E44E622
3D7F4C6C
BDA50F19
BE260AE5
3E18334B
3DD07C18
BCFD6EB5
BC2572F0
3E262F91
BDF6A13B
3E121B9D
3D4F7226
BDE358F4
BE3806BB
3E48BC1B
3DD930AF
3D0D74CB
BC398BF7
3E01007C
BE075A52
BBDE33F7
3E601845
BDF5D3C1
BE0508D9
3C36B403
3DEC5670
3E284D88
3E2BF198
3D8ACBE0
BD908FCC
BDFC2D9A
3E6FA782
BDBEEF0D
BDD9DA12
BDF715EF
BD7880FD
3E5DD5C0
3E936360
BDBE135E
BDA9BD43
BE861F42
3D78FE04
BDECAD88
BE51E4E7
BE8ADD9B
BD2EFCC8
3E8A0FA0
3EFE07AE
BEC19411
3E1A3EAF
BE7C7ACB
BDFD564A
BE7256A6
BDC8BC54
BE7AC7E1
BD6B9C9B
3E94F60F
3EA645D0
BEDC68A6
3B4C9D98
BE7B697B
BE4CE918
BD601188
BE241A71
BE01394B
BEAA4373
3DF43BED
3EA04CBA
BEC02974
BE3A16F7
BDE5E4FF
BD921DCF
BE02C655
BD0748F5
3D7E4C45
BE5BDB96
3E1F1B8E
3E1C1370
BE9529F5
BE7C0F4B
BDD29AAC
3E18DB36
3DFCAC7D
BE5C01A3
3DC25B47
3A8B2E3D
3D6E3CF2
3DCE5164
BDDC30CD
BE294E11
BD1E55BF
BDCE82B9
BD88E032
BDC49E68
3D1C0FEC
3E30DE88
3D64367D
3D30CF4F
BD8CB2F4
BDE0B25E
BE205A18
BE27F5A2
BD8F2F5E
3D56B3DB
3E00AE6C
3DCCB28E
3E3F999D
3C11044D
BCFBFB72
BD78A6EF
BE32238A
BD91F26B
3CA8518E
3D8FBBAE
3DAC1FD6
BCC84602
3D1D2C65
3C9B19C6
3D30CE69
BDA82B6F
BD0E9DF4
3E105204
BDB1204F
BBC20993
3D3C9AE0
3C98FB50
3D710F26
3D143314
3E34D90B
BE031944
BC9A2023
3C469A47
BE79210A
3DD2D0A9
BD8DD456
3D6CB167
BB30968E
BD454F7F
3D757DE9
BE811303
3DCF2093
3E199735
BE223E4A
3D95A07B
BE0ED93A
3E14EBC0
BDA8C499
BDBDB115
3D8E5C52
BEAF51C3
3DB4BF2D
3E5621F7
BE4063AF
3DC879CD
BE3275AD
3DA610C5
3D0BBC3E
BD91C2F7
BD88DB26
BE7D2BDC
BDF534B1
3E5BFE4A
BE016751
3D2CDB35
BDF18015
BD3D707B
3DF44702
BCD8DA5F
BDF0A771
BE1AD67A
BD5188FA
3DFD2013
BE0BFB82
BC6E9F29
3D9BFB68
3B9BE091
3E836413
3E3A6219
BE177FDA
3E291217
BE00381C
3D0F6AE2
BE0A5FEF
BD6FC889
BD41481A
BE6EE2D0
3E3AADFA
3E47C4C1
BDE95DCE
3E6A96CA
BDF0CA66
3D1A18FF
BE117EEE
BD2F3933
BDC305B3
BD475102
3CC0F496
3E000941
BE022543
3E1890CD
BDE25547
BD8806CA
BD627D14
BE0FF5F7
BE32836D
BC851A55
3C87C15F
3D9E8DD9
BEB9ADCC
BCF3A87B
3DC75358
BE0242AD
3D1AD5C7
BE1D74AD
3E36B8EB
3BAB848C
3DA590D5
BCF04ED3
BE4A91B1
BB70751E
BD3E31E9
BE2079DB
3DA35388
BEB24CBC
3D94847E
BD4E6EDD
BDF32FD9
BD8ED166
3E2E6AAB
BDDC63A2
3C68E0CA
BCE823A2
3E4991FA
BE82900E
3D7C30C4
BE26606B
BC65E53D
BD9700B8
3CC5FF20
BE7D9BA2
3DE7A4B3
BD838395
3DF79B63
BD1282CF
BD8B7699
3DF821A3
B9F7FC6A
3D5225B0
BD9E8211
BE31CC27
3BB0C236
BE45BDB3
3E513F1D
3D7DE92A
BDAA0B86
3DFDBBB4
3DE81E95
3E0611F5
3D30BAEB
3D4D50E9
3CD4CA69
BDFD5316
BD3670DC
3C8599C8
BE3E8381
3CF34BE2
3CDBF197
3CC2E7AC
BB6A8118
3D22D7C9
3CA7237D
BD6C3B0B
BDFEC0EE
BC92269B
BE23F599
3D4B8FF8
3E2185BA
3AC0BA83
3D88E159
BD5ED54D
3DCE98B4
BD4252E9
BE399A92
3D95506F
BE4EC6B3
3DEC5DA9
3D335A70
3CEBDA7F
3D92AE6E
BC8DCE3D
BCC066E8
BC592D40
BE5C7C49
3D0808FE
BE511D3A
3E051D9B
3E5199CB
3C41667B
BB3F0946
BD45E8AC
3DB11029
BD88E6BA
BE36BCDB
3C21F90B
BE063E06
3B1D4697
3E409BCA
BD81892D
BD8A603C
BCC6E1AC
BB891CE3
BCD65F92
BDF4EF09
3DEF3280
3BAC887A
BE29931C
3D3F6CEA
BCE6157D
BC7087ED
3D00D884
BD3F64C2
3BFF2D29
BE58DBF4
3A61B7DD
3BBDEA80
BE0EEB69
3D112DB2
BDA7EEBD
BB01CFDD
3E0B2BE6
BDF086F5
BCF8282E
BE7DF76E
3C0A92BA
3DC38B47
BDEE5CCE
BE190A98
BD825E04
BE597E13
3DFD0B55
BC7DE47F
BDB6CD78
BE9913B0
3D9CFCC0
3E1579CC
BD014C77
BCBCFB81
BCF64142
BD8B6B2A
3BB0AB0E
3BF82A01
BE1F4CC9
BDAB5C35
BD7EC3BF
3D8E3EB5
BE3EE846
3D439CC4
3E3006A4
3C961A03
BDB02FB1
3DE20FD6
BE346685
3E038F43
BE896902
BBAFF2A4
BCF7B66A
3D9E19E2
BCCE4B90
3D76B257
BD9FBB20
BB886480
3D82769C
BDCE824E
BCEFB5CA
3C15CD7B
3C8CDD05
BE10CF4B
BE0C87C4
3E258319
BDE6FD34
BDA7AFA5
3DBA9FDA
BDE2F91F
BE10C28B
BC7DDAC1
3A1E8A3C
3C9BBE06
3D45D4D7
3E28E599
BE30E9EF
BE8381CC
3DD5658D
BE89BCEF
BD819078
BE678EB9
3CC36F91
BE0E431F
3DBB38DC
3C90D57A
BEC47496
BDEB0809
3E0720EA
BEC77796
BE15CBE6
BE4602A8
BE2805CD
BE143738
3E9259CF
BCEF6107
BECE7536
BD1B5B61
3E17F8D6
BE93C899
BE0FC38F
BD9696DA
BD189806
BE2EC6F0
3E864BE9
3C56D109
BECE6BE0
BDF5AAD7
3E28EDF0
BE7E4FF2
BE041A24
BE9DB050
BDB7EEFA
BD57BA27
3E262278
3DD84261
BEDD5F39
BCCFA082
3BFF9D3D
BE7DBAC0
BDD32A0F
BEC1D400
BE0FFB76
BDB97F90
3E5BDC9E
3E551E8B
BEB3C5AF
3D91FB92
BBE14B14
BE89B7A5
3BBCF464
BF06C1F2
BDDEDEA4
3DDF35F5
BC5C98AF
3E0BDD43
BEB91D32
3DB9EC2F
BCCA9C41
BE7A1503
BC8E99B3
BECF3A85
BCF9EA8A
BD1A9D9E
BDCC986F
3BC7AA31
BED9D10A
3E0DDCF6
3DC7630D
BD3B9873
3CFE29F6
BE877797
BE2C3AEE
BCDF4535
BDB31519
BE215155
BE9B17E9
3DFC1D64
3E863155
BE8250B7
3E0B844B
BDF922FB
BE251BEA
BD998E6A
BD29076A
3DA1F351
BE92E40A
3D0502D0
3E5008A2
BE5D4583
BCF3EA07
BDAD21B5
3D72C034
BE06E671
3CDA1F64
3CF60E21
BDD70CED
BDD28E57
3E0A226B
3D590A0E
BCB2D63F
BE568416
3D805A55
BE1F52D5
BB75A82A
BD921D05
3DF4A13E
BBCEC735
3C3D0E78
BE221C59
BC1B36D5
BD87163B
BD606778
3D408DBB
3C44EE31
3DAC32E0
BE397BCF
BDC0927D
3E16F6DC
BE2837E7
BE51D3DE
BDD5FE83
3DE99CAD
3D7AD10F
BDB72720
3DB8A7C4
BDC37EEA
BE7534A8
3DD81644
3D9759F8
BE3A107B
BD8C7F53
3D044BE7
3CFAC516
BD26C27A
3D98013D
BE0B947C
BDEFFF70
3DB1021F
3D113523
3DB9B651
BDF99632
BC85AE75
3C15158A
3B3F1B95
3D38791F
BDF3A92D
BDCD6E35
3D982B67
BDBC13D1
BD1D92FF
BE328930
BD678992
BDEEA418
3D73BACE
3DAC0498
BE59F5BD
3D71BC05
BD7151CB
BB11E083
3E070A63
BE3EEEF0
BDAC5D39
BE012A76
BCD2F161
BB2EACA6
BE5E0005
3CB7AC06
3D53695D
BD20C5D9
3D180027
3D390393
3C8BC767
BDF7FF13
3C8D5B6B
3DCA7904
BD9A1244
3D4F4893
BD1CF5BC
BD9FBD71
3D1C12D0
3CF58B38
3A9E1F6E
3CE7B450
3C1F8C31
3DAFFACE
BDDB96BC
3DE90CDD
BDA43B9E
BD0E17E3
3E0AA108
3C9065DF
3D953C02
3BC5853C
BC865EF6
3CFFD524
BD28921D
3DC68895
3D91159A
BE4A2FC3
3D88ECC3
3BA36F9E
BCF8D637
BE19B386
3CC5C067
BCCE3A4F
BDDDB9A0
3D944C8A
3DB286CA
BEC241C2
3A8C96A2
BD22C296
3C3B1F12
BDD84027
3D7B01D7
3E26717C
BCC7AAFA
3C1C7112
3E06219B
BD8AB8E4
3D9DF176
BD0F14A3
3D0AB704
BD238913
3C58A392
BD2BF7D0
3CC28199
BC61AB00
3E23AB11
3C65B0E1
BD6CF5B4
BEA38A59
3D3A546E
BE15EC8A
BD37C387
BDBB1661
BC172EDE
3D2AC3A9
3D7E6169
3CC63B0E
BCD58C49
BD867936
3DE22643
BE39DB34
BBE40C6D
3D2AFCD1
BCCD4994
3C728E1D
BD7B555E
BDDC1AEB
BD301DD8
BE916877
BE23CC79
BD9EAE7A
3DB19CCD
3D8C6A70
BD8F277B
BE73FB09
3DCD8FFD
3CBE3B1F
3B3B45BF
BE689A2B
3A8BA225
3D4FDCB3
BD2EB6AE
3D7AADD7
BDF0D7D9
BDE9A74A
BD50ADB0
3DBE0720
3C9E515E
BD09651A
BD5E15AD
BCC965BE
3D1870AA
3D8E149B
BDDAE02E
BD4DBD0F
BE20421C
3CA535B6
BD3E0B0E
3DAAE365
3C7461FA
BD31C850
3CDBABC8
3D36B2C5
BD4C4997
BB9A4F4F
BE1865A3
3DD2ACA0
BD95B4CF
BCC2B377
BCC3CE2F
BDCC4559
3DC21648
3D2E7B72
BE048FB6
BCA811D5
BE08B63D
3CFE5AD3
3C0C2575
3D8B0330
3D104F9D
BDDE6285
3DAF70EF
3BE2BA4F
BE47F918
3D73AA84
BE48380A
3BD99978
3DC4DE58
3D0979DA
BCAB76BD
BD817CCA
3D1747F5
3DC7B94B
BE23EDED
3DB25926
BD88AECB
3D00328E
3C5B9B03
3D40C824
BAD2CA14
3C3CFFE2
3D99ECFD
3DF885D2
BE65E513
3E0445E9
BDF3AD31
3D191AB6
BC3BE432
3C5F67E0
BD87AE77
B8815058
BCFD1409
3D42C2C4
BE9667F5
3DDD63E1
BDD11E3B
BC08AFD1
3C7533C6
3DECE86D
BCF04D81
BDA33A7F
BCB0D6B5
BD8ABDD4
BE931CB3
3DCFFD73
BD604F46
3CEB7F50
3CB85378
3DFC1FCA
3C82E8A3
BCB62664
BD1F6B2D
BC162CD7
BD7D850A
3CBBAFC7
3C8A0A70
BDBF7F40
3D321E02
3D8184EC
3E0C707A
3D442D89
3AD7C3FD
3A86D97F
BAEB6E41
BD60C679
3BA18391
BE34B774
3CE1DB6D
3DA37F72
BAA6FEBE
BD8296B6
BD90ECC2
38954292
3D85C5ED
3AA9967C
3C7D55C3
BE8838EA
BC38560C
BE569A03
BCA9D0BE
BE975F52
3D5F4CE5
BCCEA6D0
BD6157B7
BD857D54
3E32E5E3
BE4D285C
3D055703
3D77FB9F
BDA4A714
BDBCA8FF
3C10A410
3D4EED0B
BD5ED71C
BDA662DC
BC2474DC
BDAB6B2A
BD09B048
BE0268E7
BE0BB59F
BC52564F
BCABFCA5
3D461885
BD882BD2
BDDFC980
BE377250
BD2F682D
BD832527
3DDA5400
BD8B0F7D
BDD0C01B
BD537975
3D53D6B9
BDF880DA
BD4009B0
BDDA401C
3E029397
3B0F046E
3CF733F4
BC9A95AC
3DC643D5
BC33A925
3DC8D644
BB9739A1
BD8A3C4E
BE8814CC
3D66EE3E
BD94FC8C
3D8AFA1C
BDFF544D
BE510740
BC1B7F27
3D7A8C87
BD96E2FE
BCAEA19F
BE7D455A
3E38F945
3D8E49FC
BD4BF563
BD3BB5EE
BE4F2A4C
3DCCEC66
3E05453B
BE1EF5A8
3CAE5153
BE106DFA
3E13FF35
3CFA4AEF
BD44AC85
BB3A5652
BD6B3773
3CF93FB8
3D9A12C2
BE613435
3BD006A4
BE7E05C7
3DD41993
BD17DFDC
3DEC6BBF
3DC3442F
BDA008EA
BD9EEC12
3D5FC3CB
BEAC1609
3D8C27CA
BE48E7F1
3CB00139
3D68A42F
3D404984
3D9A717B
BDD0E188
BD072FA3
BD9339E4
BE862AEC
3E083F51
BD5DB180
3D6F089D
3D20B886
3C210D29
BC1349A6
BC5BE48F
BE053F50
BD8C379E
BE532052
3D89FE32
BDB85C6F
3DCD921D
3DB59B96
3DE3B4F4
3D25B3D4
BD21220C
BD932E48
3CD0947A
3C86CD23
3D3E6F64
BD9D0746
BD459D72
3C5F3D68
BD4DF2E4
3DD0ECFC
BD076278
BC489F05
3D629602
BD527212
BD9EDA93
BD95EB19
BD9BCACC
3C2EF5EB
3D25F703
3E113B68
BDD2FAD7
BD1BE10C
BD073502
3D6AAEF5
BDC76E29
BC95628E
BC4D1003
BD51FB77
BCD7124C
BE0E8CD3
BE4E11DA
BD0F245C
3D4D08C7
3DBBCDA0
3D89A314
BC54A0EC
BE427A81
3E2D9DE6
BD9CAFF2
BDEDF21D
BC7A91E3
BE19EC7F
BD2735FD
3C9EBC21
BDA36171
BDB45541
3E1C063E
BD188456
3D33411E
BDA88673
BD541FBE
BD8C5FF5
3DF8608A
BC5B976B
BDBEAD18
BE55D38B
3D05B6AA
BAE4FE6A
BD18BFFF
BCE24092
3D34FA7A
3DC92C56
3E2896F7
BD253F70
BE74F604
BE55E7C9
3E048F1F
3D062B05
BD87B934
BD7A9379
3B97050F
BC0A57A3
3DD7D007
BE0CC145
BDEFDD2D
BE25DBB9
3E65FD70
BD5C89F7
BD76241D
3D0E9E89
BDCA2E24
3D65B76B
3E6F28C9
BD8BCEC3
BDCF62A9
BD9DDF4A
3E49A50F
3D6E596D
3DB4FDDE
BDA3A15D
BDFE8049
3D55E49D
3E18B7FF
BE9CDA46
BD983CDA
BE9A7B2C
3E081159
3DC15255
3D1B9571
BCCEB69A
BE7EB39B
BDD9B06F
3D63EEC5
BE7514D4
3DCC4D5C
BEACEC45
3DADBF11
3E218B98
3E1267BC
3D94CEEB
BDBC5904
BE2C78F5
BC0AA621
BE9DDFFC
3E4C476A
BE04DB1A
3E1FA48D
3D668C37
3D5E7917
BD3CAE1E
BDE44E93
BCBA7C95
BDB83E55
BE8E9EBE
3E0A9D1B
3D2A5A41
3D6DBB63
3CEB85E0
3C97BD16
BC149F94
BD2862D9
BE33F629
BE048B50
3D15883B
3D538657
3D2EB834
BC8CEA67
3DE054BC
3D4F3192
BC67CB3A
BD8BD924
BE5704B3
39B8FAF6
3D5DA340
BD995C60
BBBBE761
3DA8144D
3E46F29E
BCC40E25
3DE17EBD
BB3717AD
BD145531
BBC4C679
3D47BB32
BD9CB139
3C8C3294
3C2404AE
3E203DE3
3D581ADF
BD317C20
BD9E9B9F
BE0C7825
BDF104E7
BD902857
BC85C05D
BDD1D3A3
BD680FE5
3DABB2ED
3D031C5F
3B33951E
BDCC170D
BE33079C
BE7EDAC1
3C9FC00B
3D063773
BE795CA2
BE357D5D
3D6642A7
BBE074C3
BD6474F9
BDB63B8F
BE5F946B
BDF11B96
BE0F49E0
3BC21074
BEDC56D2
3E1C23D4
3C817600
3DEDCAD8
3DA363DA
BE14DB4E
3D64B5AC
3CBA61E5
BCF09268
BE32861A
BDF4B08F
3C95998B
BD3389FE
3CCEE9EB
BDBAB665
BC9E393A
3E240A14
3C638FC7
3D50E4D4
BDB2DB0F
BE15F49F
3CD1E9E6
3D476CD5
BD650592
3C4EAC8B
3C57AFC0
3D75C9FF
3D3EA1FC
BDA660E3
BE2B2951
BCABC3A1
3E3B1C49
BD13EB27
BC823AFB
BDD212FD
BE842152
3CC8FCC6
3D40F0AF
BB970AA0
BC580679
BDD3E70D
3D6BAFF6
BCB3EDC3
3C9EE318
BE2AA7E1
BCEEA464
39F8A0F4
3DC11AC3
BE18A3DD
3D0501F1
BDD813B3
BD99FB74
3DB955D5
3DCB5287
BE16AC65
BE7A8F13
BC6D8C85
3D7F3DB8
BD8A1B66
3D74BC4B
3CCA5107
BD54484B
3E6EC579
3DE95E5D
BE2AA4AD
BE005975
BE71814D
3E04AF46
BE8A8BDD
3DA7EE5A
3AD24D3C
BE15EC3F
3E47D778
3E1B4DFC
BE36BB57
BD4BA1D5
BDF1017F
3CE782DF
BD9EED12
3DDD715C
3E368992
BCC73786
3D60AD7F
3D0BA84E
BDFB3827
BDB48AE0
BE00C9EE
BDA4870F
BBB4E2A8
3D16F262
3D897361
BD122C65
3DBF88B5
BD616B0F
3D88AF51
BD5FE6A9
BDB42001
BD72EBFD
3C9F75DA
3CC67A69
3DE7C1FE
3BECD8E5
3DAB8E2B
3DC26753
BA94B45F
BD9A65BC
BDE09449
BE4A13C0
3D04F95C
BE606266
3DFA82D3
BB2D6AAE
3DDFADD4
3CEC595F
3E1A5942
BD12EB29
3CABDAD0
BDC4EE91
BE138253
BE14F0DD
3E0987AE
BE35AD87
3E29CAA2
BB84534C
BDE9E754
BD7EE420
3A73CB2C
BEA9BAFC
BE83C219
3DDD34EC
BE1693DE
BE2386A4
3D98D098
BDA8DA76
BD8AF7E8
3D338C49
3DD39D52
BE113192
3CC7069A
BE3EFAF1
BEE3A393
3DD62601
BE2BA394
3DFA37E7
BBA97C05
3D14BCAF
3E3DCACA
3D708F50
3D567C54
BE7A90DE
3D04D87C
3B0A081D
39F0D7B9
BD400FFB
3D408E4E
3E1E5746
3E5DAEEB
3C3E37BF
BDE302FA
BE6F348C
BE420500
3C4AF236
3D1076C1
BD9F3400
BD137FCD
BD26FFAA
3E10F1CC
BC76FB22
BD193B74
BDA28753
BE58486B
3D2FE41B
BD8F4860
BD96B22D
BD677A70
BE3B5AE5
3DFF7AAA
3D5CF042
3C1CB0F4
3D3C66EF
BE42CE82
BDE5B438
3AA8A5C9
3D68E9F9
BE82D941
BEA9967B
3DB2B010
3D61638D
3D30AA9D
3B3A7EB6
BDBD31A6
BE93DD87
BC9090DB
3E38DE8A
BED17FF0
BEBEAFE9
BC722770
3DCEE683
3E036307
3DF0551C
3E03FDCE
BED47BA0
BBCE27A3
3E1E10B5
BF0B0CF5
BE006A21
BD9BDB76
3E692272
BDE9E6F8
3D56AB64
3E13396B
BE72862C
3E01BA20
3DF9379F
BE9A1521
BDA00266
BE53C677
3DE41B2E
BD8EC8EE
3DB143AA
3E64517D
BCB818AB
3DB35123
BC07B66C
BE1F8E13
BEA873BF
BDDF0ED4
BC7C10A2
3D1CA08C
3D690345
3E35E8E9
BD1C24E0
3BF23C99
BD21C67A
BCC196FB
BE7AF20F
BD46F9C3
BD9FEC64
BC2FBB10
3E052101
3E2C890A
BCBAC4D7
3DB3E65F
BD17CBB0
3DEA7102
3D9EF0E3
BDD2C472
BD27E914
3D173A3C
BC2E23BF
3E3291CE
BD7973E1
BD9326D4
3DE32333
3D0F2196
3DB9C365
3D999D73
BE388FF9
3CD352A6
BDE26FF1
3DE17B18
BB42C6F9
BDE387C1
BE164E87
3E0A5A57
3D89878B
3E4A50E8
BC83203B
BCE75CCC
BE47C4EE
B980D270
BCCD4D4C
3D0CC9C4
BE4A4EA8
BDBE3A88
3D0441D3
3E40ABDB
3C94E985
3E2587CD
BD8E88C0
BD19393A
3D5EDABA
BE1B5C2A
BE1891BE
3D9847A2
BE85D965
3E3BE68A
3CF514C4
BDAADBBE
3D15C952
3D5305C7
BDBBAD3E
BDBABE89
BE5E6467
BCDB42D8
3C87FE15
3E309F53
3CC71074
BD98AC1E
3D6070C4
BE7B3686
BE052534
3D6869F2
BDC4D300
3D157356
BD033D46
3E0BD679
BE04BC0C
3D015C32
BDAE29D9
BE317D7D
BCF04AFE
3E429E37
BD34E996
BE47EE83
BDF7F86E
3D9C2EB0
3D6F43FA
3D2A0A4B
BDABF9D1
BDC4B38E
BC8E8483
3D846486
3D6F87D8
BE56F015
BE82186E
3D1D1B9E
3D28B284
3D87D6D8
BBF7B7C4
BD35211F
BE93736B
BD54813B
3E4A76E3
BE1E181A
BEB9E5E7
3D520CA6
3E3F3CF7
3D38A243
BD4994F9
3E35D8E1
BEC9C1FC
3D8510DA
3E24319B
BE98B8BB
BE147B64
BCE965E2
3DE2894E
BD8FFB7B
BD0A7216
3E1A810C
BE5CE925
3D455E45
BDD635CB
BE697E10
BE51177F
BC623778
3D855E73
3D527AEC
3D24C5E1
3E4D43B2
3E1320A0
3D7B6735
BDF0F054
BDE9656A
BE7B8969
BDB8D98A
3D80A4E5
3DBC3595
3DCD5ADC
3DA0B315
3D632B20
BD08EFB4
BE2B6795
BCB8D9A1
BDAA0272
BD535A75
3C1FCDF8
3A4A497E
BCD7226F
BCA7021B
3DEC0097
BCF910CC
BE5DAFCC
BD93E5BC
3E011D30
BD94F99E
3E19775C
3CE68C48
3DA58713
3D3554C0
BC334147
BD983726
BD3366DE
3DD493AE
3C05ACF8
3CE874BB
3E1D91FE
3CFD8A2E
BD495CEC
BD9BB41E
BD62215C
3D665AF9
BDC7EB3F
3D9E8B44
3D3C1390
3EACA9B9
BDA070C0
BE0E9F9E
3CFE0E1B
3E064227
BE899948
BE904876
BEC7E708
3C8A6829
BD413A77
3DEB13F9
3DB1C38F
3C1DC2AA
BDBEBE2A
BCA6935B
BA5374B5
BC08FC46
BEC56F7B
BE3F75BF
BD9945EF
BD12BCA9
3DF09957
3D96B326
3E280B3E
BE9444C2
BE0E66B9
BC02A2B1
BE8DE6F8
BE6E72BA
3D7F9AE5
BD12CCA6
3D406D28
3D764DDE
3EAF4E33
BE8A1C99
BE2A8829
BD4E489C
BE180C90
BDA0CD04
3DE6B299
3D76E152
3D7A04F0
3C845449
3E8A7690
BE429FB8
3C908552
3B49DE0C
3D6244E5
BDAA0870
BE85C2F8
3C25B01A
3E2760F3
3BAA0491
3D997849
BE8357FD
BE190451
BD58A913
3E69DBD0
BCF4EC2B
BE9F805D
BDBAE1B6
BB43BBD0
3D9C58E7
BD2904AE
BCDF9C7D
BE751B78
BDA5BD85
3E9E9E4C
BDB74209
BEB7B33B
BC575B43
3D952C60
3DA6891E
BDB2835F
3CE82796
BE8124CB
3CC079F1
3BBF4003
BD1E4891
BD945E9E
39A27E81
3DDE5E77
BDBE6E35
3D4D1035
3E3BD1BE
B99E7CA4
3DDB0CE6
BE8238A2
BD396EEF
BE45AAD2
3BD1343F
3D5D6DDE
3D1E2A2C
3CB4DB45
3E4557BD
3CB11A1B
3D31CDB2
BEA67F9A
BE30217D
BE4E09F5
BC91744F
3B6BDA2B
3DC8EA74
3D566598
3C19D123
3E11B77C
3D815C3E
BE81AE70
BD56652F
3CFBFA97
3CDC029C
3D4E5BCC
3D1D9581
3D54A744
BB15BDCF
BD85FE01
3DF1DEDE
BE59FA5F
3CE00CD6
3E12AD19
3D920B44
BBBC77DC
3CDC66FC
3D6FAA7B
3D2C1750
BCA5C9ED
3DE74980
BE579EE8
BC3348BD
3C65FB49
BDA6BBA6
BD8ACD2C
BD49BBF7
3D42878C
3DCAE1FB
BDA84B59
3DC7A8C6
BD3BACFA
BDC87990
3D93191B
3DD4B457
BDB2531C
BDCDCB0A
3D7F5BCD
3CB23717
3BB028C4
BD65FB1D
BEA6878B
3E44AA0F
BD5FD9E7
3DFC4A1D
BD9CAF9D
3E2E0022
3D167176
3DA9C19A
BE3B3268
BD8567C3
BEBDF152
BE123465
BD2003C7
3DAA13CE
3CC31664
3E381330
3DDE088E
BE7B377B
BD4FA1D7
3D632B1F
BE9ED177
BE71639B
3D94B0EF
BD6CC041
3E704C3A
3CF30820
3E597911
BEE08E8A
BDD03866
BDA48736
BDCACF34
3C1FA28D
3E17D351
BE1930EC
3DF47325
BD19AA84
3E65E457
BE429A0D
BDBF534F
BE79C9A9
3D86AD4A
BDC19FB0
3D4A7441
BDA48BCA
3D8EBB2D
BCB32075
3DDCDDF9
BDAE2992
BE28A9C7
BE208CE7
3E58F9A3
3E0436ED
BE4A1782
BC4CBD4A
3E06A508
BCD2985D
3DC4525F
BD88A669
BE9DB835
BE3DC5B3
3D1F7D14
3BACCD8A
BDEC1593
3DF56006
3DF81D23
BD7D0454
3D77039C
3D8CC45E
BE8F649D
BBC9BCD7
BE5B1823
BD285F59
3D968A1F
3CA42219
3D94DDC7
BD66B534
3C875656
3D33E572
BE22C7C7
3DB7BAE2
BE860B8F
BDD3776F
BA26C2A4
3D3D8858
BC7F71DA
3CDBB4E7
3CFDADBC
BD1AB252
BD5EA3F9
3DB9D69B
BE708B52
BD5640B2
3E033D65
3DB6DBEB
BD8828B1
BD96655D
BD886363
BCD75F1E
3D0895A1
3D235885
BE557930
BE21897F
3E03379E
3E1599A1
BD3991E5
BC1F9E89
3B4DFDBB
BC80DC65
3CAFD044
BCEC3F3F
BE45914F
BE4FD737
3E5A240C
3D93E080
BC81E4BE
3A72D9B8
3DE80D10
3D11572C
BE113216
BCC872FD
3C6D4603
BDFC74CA
3D3FA763
BD69AB1B
3C528B8A
BE2B4A6B
3CA424BA
3C76F331
BE37EB9B
3B6D8564
3CB6313D
BE0DD254
3DA394C2
3D4503C8
BE89E71B
BE13E8CB
3D3D74D3
BD8C0AD9
BDFE9BBB
BD83BD5C
3C95F74F
BE1A2556
3C85C9A5
3DC7EFA7
3C64E88D
BE66247C
BD1AECD4
BE7F0ADE
BDB2D707
BDD027F3
BE81AD19
BE68ECF5
3E27A50E
3DB56C82
3CF79E09
BD4A3BAA
3E2A055C
BEED122D
3D90276F
BDA89EC1
BE023F59
BE22DC84
3D970EE0
BDAFF637
3E52C623
3D3A9227
3E0191C5
BECA451D
3D253935
BDB5EEBC
3D3217F6
3C83BFB7
3DCDD335
BDD6CE43
3E2C1AAC
BD8BA290
3E1D964E
BE4854CB
BDCC9687
BE036D62
3DEA5C9A
BCD7D3E4
BD77666D
BD4C3922
3DA15F31
BE4A4200
3D1B0259
BD620CDE
BE38F4A9
BDDC345A
3DEEB141
3DB05B40
BE707394
3D9C89FD
3E0F8DC0
BECD776C
3DD068E7
3C6B6949
BEC4CDEB
BD482D6D
3D4CD4FB
3E1BEDEB
BE1E9DC1
3D8418D4
3DE084EB
BECAC6E2
3D464764
BCDE8BFE
BE9C65DC
BBB7ADDF
BD6DD1AD
3D367717
BA0CD2B1
3DA55993
BD5EDC17
BED2DE29
BD6567C3
3D4B61F2
BDFCC271
3D7830C6
BD23E3AF
3E01D8D6
3B919CC1
3E74AC72
BCE16955
BE4F7D2E
3D23559C
BC170291
BDB4BA80
BCA23E1D
BDD86DAB
BD72F0AD
3D8D0711
3EA657F4
BD8DB3B2
BD8BEC2D
BD63B70E
3BF364CC
BE46FCBD
BCEAD747
BD617EBB
BE0CE3BB
3DBE0E1F
3E85B5BA
BDD9A708
3DB99ACC
BC000519
BA3B4B35
BDDA396F
BD822751
BE26B04B
BDEF93BC
3DF1DFF1
3DF1E821
3B12BF07
3C41D5A8
BD835A14
3CBF9862
BE35383A
BC64F1F1
3D3F2159
BE01D56F
3B5300FD
BC8442E8
3A4FD984
B9674070
3DF8A05E
BE0B1ADC
BEA2623B
BDCA442E
3D81DEDC
BD91BEB1
3E596310
3C23BAFC
BDFF8FB5
BE00AE3F
BCCE737C
BC9A9703
BE41ED6B
BE42C42B
3DF37620
BE4E9CBD
BDBDCDD6
BDA9FEC5
3E7EA942
BEA5CCA6
BD263EEC
BDEDD8C1
3E60C52B
BE71FF86
BD70CCE2
BE7AEE12
BE33BE02
BE4301D4
3EB2CD51
BDF88D7F
3D3349E8
BE12B6CF
3D1B5FE3
BEB3AFC0
3D89FCC3
BE930353
BDAF9912
BE856B46
3E76FCF4
BD2BCD3A
3D3EE543
BEE00C03
3E0B6EA9
BE9CA5FD
3DE5EB89
BDB9DE1E
BDD6B16F
BE471EB3
3E7A1184
BE101E43
3E2A4063
BEE973D1
BCAD0146
BDE48CC1
3E4BE588
3D071E00
BE8E017F
3C277DF0
3E200A77
BE957FF3
3DFD7EAA
BD368483
BE7D228D
3C858BEE
3D33ED91
3C32918D
BE9071CB
3D2900FC
3E3BB8EF
BE8C726F
3E23145B
BD89A5FB
BE97828D
3DA470D5
BCA64779
BABDD552
BE1A606A
3C9548D3
3DB5C891
BE372F2A
3DA89828
BC021E5F
BE8FFA59
3C8F9DB7
BD1BBA5E
BD6B4251
BD351848
BA972ACE
3D17244A
BE068BB8
3D83920F
3DEEF810
BE411A9D
BC8F5793
BD3DB401
BDDABBA7
BD1096EB
3E1B3A72
3CB8DFD2
BD8F8CB2
BCAF7F7D
3D33454C
BE7B1468
3DA82C87
BDBA1E79
BDEBCCFD
3D639995
3E873E1F
BE2C7BFC
3D949099
BD5788A5
3C12DCFF
BDB79ECB
3D98993D
BACFE4E7
BEA39E54
3E31456D
3E912FF8
BE74A875
3C96A3D1
BE34172B
3BF30B7C
BDB36D5F
BD4EDB51
3D15B7C6
BE806E57
BDB95D17
3E1A763A
BE4B0719
3E0D889A
BC11B964
BD8A705C
BD3391D1
BD982A60
3D57189C
BE50B890
BE3650A0
3E142713
BE46929D
3C83C4B7
39CB1332
BE4AC8DE
BE7442D2
BCCAD6F9
3D365D2D
BD6C81DC
BD788968
3E2F6361
BEA81936
BD1A5E4D
BD8322B9
BEA65CCD
BE177668
BE5B135A
3E3CD3BE
BDE5AC5A
BE4D1CF9
BED074AD
3D0DA9F3
BE908811
BE1B8DDA
3D52EFFA
3E0FEE24
BEFE3650
3C78B77D
BE64CC4A
BE83E639
BD8FED29
3E855021
BE8D5958
BDB2201C
BE21B9E3
3C34921E
BEF9A9B8
3E579565
BEBE5EA4
BE43C554
BE533DBD
3EEC6556
BECE7910
BE10D546
BE491123
BDC7229B
BEBD86C6
3D834461
BED35D32
BE83222A
BEAC1B74
3ECD3E9C
BEA4897F
3D8BD5C8
3C160151
BC6208C7
BE221FC4
3D57B473
BEA2905A
BE0546DB
BD7650F5
3EE3B49D
BF04D36A
3E5965A8
3C840F92
BD9E2137
BDACCD35
BDBDBA27
BE4C1FA6
BE16A362
BD01D348
3EA8D745
BE64C516
3E23D29D
3D664036
BE6DD685
BCF33B90
BE4CBA0A
BE55F692
BE82F0EB
BD3FD5D1
3E2AB905
BD987488
3DFE1AD9
BD16CA95
BD0D5890
BD1771C0
BBB11A37
BEACDC8A
BE10FA7E
3E5A8FD9
BDF1F14E
BE079D0B
3C331CD8
3B92FA16
BDB24B64
3C084D2E
3E1DE877
BEF63E2E
BDDB9028
3E8C5AFB
BDB3E404
BC9E4B65
3DAE7829
BE33D1C9
BE2CD49A
3D2E7348
3E03D92E
BEAE1A44
BE2D1E67
3EA5B847
BD50B5D0
BE03A81C
BE28DAB7
BE45533A
BD3FF8C6
BDF21CA0
3E1DAD01
BE72E313
BD28AFB7
3EAEE3BF
BDE0364C
BDED683F
BE0C3EA0
BE913052
3D29D8E3
BE9FA0EA
3E3A7638
BED77491
3C62A600
3B9F356F
BE2513B7
BE0B8246
BCED3C0B
BDD4C879
3E022D23
BE802358
3E6E51D0
BE46F2E2
BE14B6D0
3E1DFFEB
BEC3E2E6
3C7EFF17
3E0810F3
BEA26E13
BC8FEA41
BE660B9D
3E20E00E
BC572902
BDBFE94E
3E439A4D
BDA1B95E
BD92755C
3A450522
BE7B0300
BD634C90
BEA1AA45
BA586574
BD1BF32C
3D29834A
BD6D5D93
BDAFC422
BBB10605
BE06B711
BC0A53C8
BE06A427
BBF1E17E
3E05D983
3BCCF541
BC8DC59F
3C8A37F3
BD84E74D
BDB083BC
BE05EAEE
3CADE358
BE735519
BD274730
3E8102B0
BD2120DE
3C6BBB9F
BD87BCB0
3C432E0F
BCBBCF31
3BFC0785
BC5CD948
3E45FE78
BD50CD2E
BE136EF7
3CC2B3A5
3E46D6A0
3C40E577
BDBEDB24
BCF2BC47
BC282B47
BDE9C866
BBD9AD75
BD8C8F70
BD2F434B
3D018EB3
3E23CFA9
3D0999E3
BD75B09C
BD0AA6E5
BB922313
BD2C44A0
BDAFBA34
3C680C4F
3C890A63
3C887CFC
3D03E84F
BE5B41C8
3BF8E2E2
3D88D36E
3D869C5D
BDFE5DF8
3D95D03F
BE0C4965
3D4F7ACF
3E05F1EA
3DAEF029
BE98EE46
3D49FC5C
BAD31CE1
3DA5867D
BDEF406F
BE053D95
BD0ECC25
3E131169
BDD2E82C
3C9E4A39
BE546726
3D80A0C0
3D137A0D
3D8FB26B
BE1EC2BA
BB72FBBC
BE246AD3
3E0B4494
BE43CB24
3DF22222
BDF405BE
3D136B88
3D7C393F
BD8CE50C
BE3C0B31
3C48FDE8
BE627435
3D9AEB17
BE7E3180
BD3C9D92
3DD3EB98
BC99F274
BAC9ACC1
BE3C8FD4
3CADCF45
3C03B978
BE113F4C
3E012B1F
BE92B60A
BD80CD7B
3E2D51C8
BE0D9AE0
3CB93338
BE3071D7
BE969829
3D4D3494
BE748491
3E1A7969
BE821E6E
BD4907C5
3BB468D5
BE43CB28
BEA6FB9B
BE5BB677
BE20B630
3E41E800
BE89A7A7
3E57C429
BE0A73AF
BDA5AF47
BDB889EC
BE9A268E
3C823890
3D61CA25
BE164ADB
3D07376E
BEB4221C
3E134181
3B41C95C
3DB894DF
3D5B12C0
BDB6A1B8
3E17B0F9
3D439A36
3DD02748
BD0E73BF
BEA78E62
BE15E6F3
