3B56A074
3D76BB5E
BBD172FF
3DFBE1FC
BDBF5856
BDD324CF
3C42211B
BE384BE0
BE584128
BE9D091A
BD5C92BD
BE500CF6
BE977F4B
BDD4DC61
3E0265F4
BCA15FDE
3E4D4D81
3DEA4758
3C9C319D
BDE230FD
BDCAA6F9
BE984B5A
BE9CCDEE
BEE126BD
BEA3A9D3
BE87EA3E
BE316854
BE890EFE
3D80A181
3EBE3F5B
3DED6AF6
3D969031
BD106695
BE3CD00A
BE53937E
BE11C1B8
BE2DE9A8
3D3F8F7D
3DE06A9E
BD994F16
BE00C551
BE978FAC
3E62A5D9
3E47AAB0
3DC01668
3D840264
3C359554
BD2D7264
BD0A6F70
BCE57CE8
3DB1C30B
3DB9A374
BC6B7DAF
3D89697F
BDA49761
BE83A6E7
3DE43909
3DF1FE0E
3E1EA76A
3D5EB34D
3D469ED1
3DA02146
BBFDD2BB
3DB3F437
3CBFCF25
3DBC5FFC
BD28276E
3CD4DD8B
BD607E01
BDC06FB8
3DB3C8FE
3E3040C2
3DA309EE
BCFCC67C
3CE6371B
BCD9F23D
3C8D3A25
3E270C77
3BCA8458
3D302F1D
BD73F528
BE220287
BDC884A1
BD836C35
BD944321
BD929146
BE0C960B
BE525B2C
BE15EF34
BD263E0F
3CCEB4F1
3C9A64F9
BD058442
BD1CAB30
BCAB1716
BDEDEEC1
3D92C433
BDADB11A
BE650DD4
BEA80D4F
BEDF2A72
BE95C866
BE9970B7
BE50C886
BC9BC9B3
3CC13B9F
BDCCD112
BDA0E28B
BD99421C
BCB71D01
BCD8A357
BEB4D20D
BDB8C564
BE9EE790
BE6F709B
BEBBFAC7
BEAB2F34
BE587348
BE1EF259
BDD9261F
3D494396
3C35F873
BD9D9BA3
3DB144F3
BDB664B2
BE3E5E75
BD530890
BE1AB2FF
BDC65720
BE3DE913
BE84FCAC
BDF3C3FE
BD83D924
3D8A4363
BC78DBA9
BD852A54
3D4B5D76
3D867675
BDE83CFA
B90C9552
3D57CCF0
BC1CF915
BC1EFEE7
BD16B55F
BD05D02B
BD2E81DD
BCD48B6B
3D5852AD
3D95C847
3D2EF34F
3DB536CA
3D6A9885
BC2E6EA0
BD58C8E0
3D61675E
3C449207
3D7EEC02
3C87ABAA
3D039F9B
3D341E05
3D49C220
3BB17D91
3C8363D1
3E0B2EE7
3D278459
BCDF69E9
3C92FFDA
3CC57588
BD691EF7
3A43C721
BCAAF938
3D70C28B
3D086AE3
3D92CC4D
3DB00B3C
3D6754FF
3BECC4FA
3DE038D3
3CB7DD8B
3D4E9351
BD8EF145
BDB11E23
3E1C8B3E
3E527495
3D14B56B
3E51D996
3DEAE3BD
3DE05831
3D09650C
3C5AD7BD
3DAFBC9B
BC973DA7
3DB8B99E
BDA3B31E
BD0F12A0
BDE1FE57
3D253F2C
3D81D38B
3E15D636
3E0D2AEE
BDC5C042
3D860809
3C9626C9
3DC38890
BC8226AE
BDF13703
BECA6225
BEACB9BE
BE06CA38
BDB6B008
3D509534
3CB9C226
3DCFB451
3C8B35E9
BBDD3A91
BDB9ADE7
BDEA84BC
BDE432BB
BBDFFCD8
BDD5FC3F
3D2A24C0
BEC57627
BE741138
BE08E786
BDAD5920
BA62C579
3D5A1E13
3D5A01ED
3D7F7217
3DB77A32
3DAC9635
3C9CC7CA
3D925239
3CC67D8B
BC335105
3E0B1D25
BCF83DB2
BE8DCE61
3C9A45A7
BE1FDB49
BCED13F6
3D033C1E
BDFEC1BE
3D7BFACF
3D616BCD
3D8FE54B
3CD275BD
3C8D45AB
3CD761EF
3D563BD0
BE0634CC
BEC6C46F
3D9C13EC
BDA585E1
BE6988AA
BEB9EEB7
BEB8CA87
BE751D69
BE1DB3E9
BE08518E
BDDE10CE
BD51FCEF
BDC69FE2
3D1AD8F5
BD70F234
BCC8F8A3
3CB60927
BBC0E185
BD317382
BEC62D6C
BEDF698F
BEBCE5F7
BE802A1B
BE2BF22B
BDA48780
BCC02DD8
BDC96065
BC31DFCE
3DB7DD9D
BDEE2548
3E55E112
3E84DAA9
BDCB418F
BEB87E22
BE935A24
BECD6DE2
BE37627B
BDD94A3B
BCD96D24
BD11DF10
BC247E0F
BD424F53
3D2949FB
BD5AC2EF
3E53A5AB
3E90430B
BDA05592
3D93474D
BD2E55E8
BE4E3EA2
BDEF6C69
3DA3D759
3D6AF2E3
3CA67E7D
3DA629BD
3D9BF71D
3D05696D
BE91D97A
BD93A6DE
3EA92C90
3DEE5B08
3E0438AE
3D324ED3
BE48B58B
3D40A8EB
3DFD245A
3D234F24
3D485780
BD0459EC
BCCA5F37
BCAAD9D0
BE2C1DFD
3C9EAB87
3E6EF0A7
3BA620CE
BCEEBE9D
BDD4787E
BDF887FD
3DD3BAE9
3D9DB4DC
BD4AEC47
3DDEB0AE
3A3E41FD
3C3035E3
3CB23714
BC38C9A6
3DF26EF4
3E4FBC55
3D3A4727
BD6A922F
BDC5C7FD
BDCEEFD3
BE8142D1
BE215D91
BD39A5DC
3DE0C150
3B6F85C8
BCF48B51
3C98D8C3
BD8EECAC
3E33FE4A
3E3150E9
3E816F7A
BDD09F90
BE63DBFA
BEBB0FA4
BE90898B
BE3A8E7F
BE13F199
3D380C4D
BD72CB92
BB6C4B09
BDF19696
BDE6C875
3BEB2BC5
BD8ABA17
BBB0EB00
BE84C199
BE2CCA1F
BE4AA5B3
BE4A13E0
BD8DFF4C
BE047566
BC9B1423
BD99C413
BDD188ED
BE6E4274
BDADA7FD
BBBC323A
3B33AEAB
BE343323
BE171AFA
BE061CCC
BE0AFDAB
3BA739A5
BD2C831A
BDAD1A2A
BD36AA46
BC696BA7
BD6A9E88
BE227407
BB1FD1C5
3D634859
3D486125
3E33FC2F
3D69ABC0
3D84063C
3D926380
3C138ED5
BCE63722
BCD16AB9
3CA670A7
BDBA9ECE
BDF7562C
BE4D4329
BDE722D2
3D1618FF
3D9E1C9B
3C94A5F9
3CA779F9
3D83AC1D
3D43DD56
BBA7EC09
BD407D5D
BE0CCDFB
BE7E84FC
BD7984CE
BDD519D6
BE3B7828
3C56FC13
BBB76234
3E19A38F
BC9D338C
3DB10681
BBC9947B
BE039A6B
BDA2BDF8
BE8B0A91
BE3E4A7D
BE84178A
BE8F451A
BEAA55C0
BE435BD4
BD89AA2E
3D3D436A
3D0BC4F2
3DAF5B7D
3C98C276
BE02F505
3D0C0CF1
3CD725D1
3D8CEB98
3DEB9351
BE20DF68
BF038C96
BF1DBB9F
BD912305
BDD32F41
BC04B5BD
BD22056A
3D9E1EED
3D813979
3E1873CF
3DFA03B8
3E377244
BD53DEDC
BD5B84A8
BE588261
BF0F8B8C
BF393B6E
BEE5949A
BEA5A108
BE18CA3F
BE4E33A7
BC110CDD
3E1C4802
3D98375B
3DF6215E
3DB805C0
3D5C497D
BE06F430
BE87CE01
BF2ECE76
BF365593
BED4B4AD
BDACE79B
BDDD662A
BE33A51E
BC86DDEF
3BA6FF4A
3D689E0F
3D6B4F12
3C8EA890
BB9D5035
BE4E10C2
BDDD826F
BE0CC46E
BE0A89BA
BDFFB70F
BE07204E
3AAA3D78
BE4798EC
BD69A018
BE1E36E2
BD7B758A
BB8AA0D6
BD3F2658
3D76995B
3DDA8AA6
BBC14748
BDDA87C3
3D7EBC75
BDA73B8D
BE717444
3D181E8D
BE335055
BDBBF2CA
BDC9592F
BD2C41C9
3C08B752
3D9BA3A2
3E189727
3DC59D5E
3DF8A8FA
3D89F0BC
BE481C95
BE912FF7
BE840492
BDE99D42
BE1E5318
BDA262D6
BC819D46
BD77033E
3C932246
3D7AAC95
3E478E40
3EA17EC4
3D9F32DB
BDDB4F6A
BF2F0BE0
BF2A6EEA
BDAA7ABD
3C979D0F
BE18605C
BD0ECCD2
BDA7537C
3D4C0AF7
3E0F73CD
3E259410
3E6DEF21
3DAE9CEA
BC867F73
BEE1B96E
BEE3E914
BEBC7157
BE0DF784
3DD53640
3D66EAFC
3E2D14E6
3E4114DA
3D940C5D
3DDE4DC6
3E262F91
3E01007C
3D8ACBE0
BDBE135E
BEC19411
BEDC68A6
BEC02974
BE9529F5
BDDC30CD
BD8CB2F4
BCFBFB72
3D30CE69
3E34D90B
3D757DE9
3D8E5C52
BD88DB26
BDF0A771
BE177FDA
BDE95DCE
BE022543
BEB9ADCC
BE4A91B1
3E2E6AAB
3CC5FF20
BD9E8211
3D30BAEB
BB6A8118
3D88E159
3D92AE6E
BB3F0946
BD8A603C
BC7087ED
BB01CFDD
BE597E13
BD8B6B2A
3C961A03
3D76B257
3E258319
3E28E599
3C90D57A
BCEF6107
3C56D109
3DD84261
3E551E8B
3E0BDD43
3BC7AA31
BE215155
3DA1F351
3CF60E21
BD921D05
3DAC32E0
3DB8A7C4
3D98013D
3D38791F
3DAC0498
BB2EACA6
3DCA7904
3DAFFACE
3CFFD524
BCCE3A4F
3E26717C
BD2BF7D0
BDBB1661
3D2AFCD1
3D8C6A70
3D7AADD7
3D8E149B
3D36B2C5
3D2E7B72
3BE2BA4F
3DC7B94B
3DF885D2
3D42C2C4
BD8ABDD4
BC162CD7
3A86D97F
38954292
BCCEA6D0
3D4EED0B
3D461885
3D53D6B9
3DC8D644
3D7A8C87
3E05453B
3D9A12C2
3D5FC3CB
BD9339E4
BD8C379E
3CD0947A
3D629602
BD073502
3D4D08C7
BD2735FD
3DF8608A
3E2896F7
3DD7D007
3E6F28C9
3E18B7FF
3D63EEC5
BC0AA621
BDB83E55
BE048B50
39B8FAF6
BBC4C679
BDF104E7
BE7EDAC1
BDF11B96
3CBA61E5
3C638FC7
3D3EA1FC
3D40F0AF
3DC11AC3
3D7F3DB8
3E04AF46
3CE782DF
BDA4870F
BD72EBFD
BE4A13C0
BDC4EE91
BEA9BAFC
BE113192
3D708F50
3C3E37BF
BC76FB22
3D5CF042
3D61638D
3DCEE683
3E692272
3DE41B2E
BC7C10A2
BD9FEC64
BD27E914
BE388FF9
BC83203B
3C94E985
3CF514C4
3CC71074
BE04BC0C
3D6F43FA
3D28B284
3E3F3CF7
3DE2894E
3D855E73
3D80A4E5
3C1FCDF8
3E19775C
3E1D91FE
BDA070C0
3DB1C38F
3DF09957
3D406D28
3D7A04F0
3E2760F3
BB43BBD0
3D952C60
3DDE5E77
3D5D6DDE
3B6BDA2B
3D4E5BCC
BBBC77DC
BD8ACD2C
BDB2531C
BD9CAF9D
3CC31664
3E704C3A
3DF47325
3D8EBB2D
3E06A508
3DF81D23
3D94DDC7
BC7F71DA
BD8828B1
BD3991E5
BC81E4BE
3C528B8A
BE89E71B
3C64E88D
3CF79E09
3E52C623
3E2C1AAC
3DA15F31
3E0F8DC0
3DE084EB
BD5EDC17
BCE16955
BD8DB3B2
BDD9A708
3B12BF07
3A4FD984
BDFF8FB5
3E7EA942
3EB2CD51
3E76FCF4
3E7A1184
3E200A77
3E3BB8EF
3DB5C891
3D17244A
3CB8DFD2
BE2C7BFC
BE74A875
BE4B0719
BE46929D
BEA81936
3D0DA9F3
3E855021
3EEC6556
3ECD3E9C
3EE3B49D
3EA8D745
3E2AB905
BDF1F14E
BDB3E404
BD50B5D0
BDE0364C
BE2513B7
BEC3E2E6
BDA1B95E
BDAFC422
BD84E74D
3C432E0F
BDBEDB24
BD75B09C
3BF8E2E2
3D49FC5C
3D80A0C0
3D136B88
BC99F274
BE0D9AE0
BE43CB28
BE9A268E
BDB6A1B8
