3C09BD14
3EA760E8
3ED3AC98
3E48632F
3DF2F1D4
3E0CA40D
BE5606A6
3D09C300
3C6D9601
3E529B7D
3D88B1D0
3C6AFEE2
BBF71244
BD80DD86
BD13A8A8
3DD797DE
3DFC52FC
3E202C60
BD206764
BCA29C88
3C06676D
3DC3A41F
3CC73D90
3E132131
3DABB0FC
BE1A00D6
BE186871
3C1EF6AD
BD10DA51
3CF313E8
3DB5C3EC
3BF5B3BB
BE33D8F8
BE41D537
3DF492AD
BE828631
3D8365E4
3D74DE33
BDAF8552
BE642FB2
BD812C7B
BEA9D84E
BE50E279
BD491557
3DDCF6D1
BD485555
BE30068B
3C8422A6
BDD34194
BD2FBE02
3BF815F1
3D774AA6
BDBEED73
3DDCE0BB
BAF91FA0
3D0FCCE3
3DE6297B
3C9F4190
3DEAC9E6
3DEBBC0C
3DB49B0B
3D59360B
3E459035
3CF4FA7D
3D3E78D5
3DB80251
3E154D09
3CBCE977
3E283576
3D400E66
3CD1E101
BD6FE672
3DCF95CB
3E435308
3DC589E9
BD03D98B
BDE3D413
BE2B2367
3CA5C1A6
3D54313F
3E31DA0A
3C6500B8
BE255A95
3B60439A
BE7A6DA7
3CCE714E
BAED8A00
BCA9F46B
3CE909E7
3C26AC95
BE90C67D
BDC78250
BE687A4B
BE0BA562
BE5CA3F2
3D1984E7
BDC4AA66
BE5E91D1
3DE81FDF
3E1F804D
3E5F4618
3E483B82
3EA02D6E
3C956F45
3D18D401
3DB70FE6
3DAD483A
3DEC82BE
3D2ECFA7
BDB93EEA
3C32A9A4
BD8D5331
3D03EE79
3C4817CF
3D25E2BA
BD24FB31
BE1C5613
3BFFC6EA
BA76E5E5
3D30DCC9
3C6E12D4
3CAD2146
BEA216A2
BD92626B
BCA6F320
3DA9198A
BDEE887B
BD3A5A99
BDCC0596
BE9A5C52
BE16699A
3D07FC83
3D3ED047
BE4A9F39
3D9A1C85
3B6C93BC
BE5372AA
BE45AAAC
3DD2F3CB
BE070460
BE9F5353
3DC0804E
BD629EC9
BCE7EB07
BD2A228B
3D75B86B
BE9E8088
BE1D3239
3E11E628
3E1B9E0B
BDAB1BC2
3CF49FAF
BD37E028
3DB03CDB
BD9D2DE6
3E33EAED
3DDD1B09
BBD01940
3D02F6C3
3DE8D906
3E45C1EA
BCEE5D3B
3E56F36D
3DDCE16D
3D3A8046
BC7966D7
3DADF92A
BAA72C36
BD8EEE56
3E0959E5
3D539546
3CCBB6FB
3D385459
BDBCC5C2
3DA44CA7
BDE70112
BE8818C3
3DB2BB3B
3E22E349
BD918949
BE06F1A4
BD134576
3D825748
BE0FE4DA
3DC97488
BD364DEB
3B6BDD18
BCE00DFE
BE4FF8DE
3D0FA54B
BE293D69
BE62329C
BE43801B
3C7A9113
3D537E7A
BEC4373D
3E53D395
3DC435A1
3D80F4EF
BD0F1DE3
3E7B794C
3D84BFAB
3E06B98F
BD22B799
BD56C207
3DA73B08
3DD7AC4C
3DE23726
BDB34BD5
3DD09A4F
BCF62F29
3D69470F
3D66F3A0
3C9DCD65
BDB48217
BE906BB7
BE93A878
BD728E61
3DBC3CAF
3D1AEAD6
3D642BAB
BDB496D7
BDB433D8
BE35927C
BD23C1F5
3D86CE16
3DB4CB82
BD560805
BD9B9CFA
3E4250F8
3E2A817B
3CB25E49
3E027C27
BD7E2F8A
3D1D3CF7
BD86491A
3EB12D67
3D069A6E
3D1D368E
BC0FF062
BD5B3074
BD844685
BADF54D9
3D2C3F5A
BF0C688D
3CD101AC
3D18F481
BE326FEE
BE800CDE
BD19B8A4
BEAB0311
BEF03BBC
3C4600F1
BDF2123A
BE927628
BE2B1E1B
BDCC1C99
BEB36C0B
BEBFA4D6
BE2962E1
BD614E55
BE964E20
BDE75EB3
BC81EACB
BEA95709
BE552F97
BE05130C
BDC37BDE
BE0EFADF
3BAEF6BE
3C5BD9AD
BDE942C3
BDA1D28A
3DDE2553
BE06FC9B
3D7F4C6C
3E601845
3D78FE04
BE4CE918
3E18DB36
BE27F5A2
3E105204
3E199735
3E5BFE4A
3D0F6AE2
BD8806CA
BE2079DB
BD838395
BDFD5316
BD4252E9
BD88E6BA
3BFF2D29
BDB6CD78
BE346685
3DBA9FDA
3E0720EA
3E28EDF0
BBE14B14
3DC7630D
3E5008A2
3C3D0E78
3DD81644
3D982B67
3D53695D
BDA43B9E
3DB286CA
3E23AB11
BD7B555E
BD50ADB0
BE1865A3
BE48380A
BDF3AD31
BD604F46
3BA18391
3E32E5E3
BE377250
BE8814CC
BE106DFA
BE48E7F1
BDB85C6F
BD95EB19
BC54A0EC
BE55D38B
BE25DBB9
BE9A7B2C
BE04DB1A
3D2EB834
3C8C3294
BE795CA2
BDF4B08F
BCABC3A1
BDD813B3
3AD24D3C
3D897361
3DFA82D3
BE1693DE
3D04D87C
BE58486B
BDBD31A6
3E13396B
3E35E8E9
3E3291CE
B980D270
3D5305C7
BE317D7D
BD35211F
3E1A810C
3DA0B315
3D3554C0
3E064227
BE9444C2
BE429FB8
BCDF9C7D
3E3BD1BE
3C19D123
3D2C1750
3CB23717
BE7B377B
BE429A0D
BD88A669
3D33E572
BCD75F1E
3D11572C
BD8C0AD9
BEED122D
BE4854CB
3C6B6949
3D4B61F2
3BF364CC
3CBF9862
BC9A9703
BE12B6CF
BEE973D1
BD89A5FB
3DEEF810
3C12DCFF
BD8A705C
BEA65CCD
BE21B9E3
3C160151
3D664036
3B92FA16
BE45533A
BDD4C879
BE7B0300
3CADE358
BDE9C866
BDFE5DF8
BE1EC2BA
3CADCF45
BE20B630
3DD02748
