007
1E5
1EA
1C7
1DC
1D3
1E3
014
1D9
1EA
1EF
1EB
1E8
1A9
025
016
1E0
1EF
001
1C0
19D
1E0
1F1
1F7
1EF
1F0
1F8
173
1F4
008
004
035
1F2
010
1FE
006
024
014
019
01D
02B
017
1F0
030
005
1F5
019
02A
037
1F6
1FA
017
1C2
00E
020
1F7
1EE
1EF
00C
010
01A
02C
1DF
1D0
1F5
1E8
1F5
1EB
00D
1DB
1D6
1F1
004
1E9
1D0
1DB
1CD
1B3
00C
1E5
01D
193
1BA
1C4
1CB
006
01C
02A
1D9
1C1
1CE
1F7
1D2
027
1FB
1E1
1D4
1D3
029
01C
00E
033
026
00D
1F9
00E
008
1DF
005
013
014
1F4
1FD
1DD
19B
1C8
1F8
1EB
1D1
003
1EC
1D3
1F3
1F2
1FE
1C9
1ED
1E0
1DC
1F4
1F6
1EF
1DB
016
1E1
1D0
1E5
008
1F5
1D6
008
1F1
1CB
1AA
1F8
1F0
1E0
026
1F4
1BC
19C
1B7
1FB
1F5
01C
012
000
1BD
1F0
1FA
005
00C
1EA
004
01B
1F9
00F
002
003
020
001
002
1F0
005
1E4
1F9
004
00D
1FB
014
00C
1FD
00C
017
1F7
1EF
1EE
1E8
1F1
002
01D
010
1FC
1FD
1ED
00E
00F
1E2
00A
1EB
1DC
1DB
1DA
02B
00B
1E4
006
002
012
1DB
014
004
1CB
00E
015
1F3
005
008
194
1C8
015
014
00B
1FB
1F4
1B1
1C2
1F6
018
001
00D
1F1
1A6
1EE
025
1FC
010
017
1D5
16F
1FF
015
1E0
000
013
1DD
193
037
032
1D1
006
027
019
1DC
004
01B
1EC
019
012
014
1E4
01C
039
1FA
1FA
003
007
1F6
052
012
1EF
1ED
00E
011
003
03A
1E6
1D6
1D5
1E9
1EC
1F1
1F3
1EB
1D0
00C
1EA
00D
1DC
1AF
196
18C
1CD
1CD
001
001
1E6
1DA
1C9
1D3
1F8
012
004
005
1E7
00E
1EC
004
1E3
1FD
1DF
1ED
007
000
012
1AD
1F8
1DC
1E7
1F0
01F
009
1EF
009
1FA
1F7
1F1
007
015
1E7
00B
1FA
1FC
1A0
002
020
1EF
1F6
1FD
1D1
193
1EC
025
1E1
1F7
1E3
1F0
1B3
00A
1FC
1F2
1B6
1F0
012
1ED
1FF
1F5
1EE
1A2
015
003
000
1E4
1ED
01A
1AB
005
01D
01C
1FF
000
1E1
1AD
1E2
002
005
1EE
1DF
012
167
19A
1C1
1C9
1E9
1EF
010
1D4
1D0
1BB
18E
1BE
1D5
