3D9D0CD4
3AD64381
3CC021B3
3CD3F8B2
BDBE4DBC
BC9835F6
3D1EBF55
3D5E9F45
3D9FCCF4
3E385053
BD2AEA89
BD4F9B67
3C54DB54
3D47EE4B
3D706F5F
BDAE44EC
3C93E856
BA2E9C31
3AFF4D82
3D23CE0E
3D65885A
3DCA14F4
3DA21516
3E1BB2D2
3C1CE2E0
3DB6AF15
BBF01CA1
3DBD63CD
BD204035
BD9BF6E6
3DB97D71
BD0A1E23
3E2A4FA0
3E062683
3986C115
BD1475EC
BDA77992
BD6197FF
3DA573EF
BBF22435
BDF18E63
3D2279BB
3D45E9D7
3E1D614D
3DB0FCAB
BB9580E4
3D961F6F
BD0EBBFD
3D20FC59
BE6C75E4
BE90BB2C
BE1C14DF
3CA27DE9
3BDC13FA
BCE0751C
BD59ECD6
3D940EC2
BD5BA46E
3DE6A1D5
3D48886A
3D779D39
3D365DC5
BC057E55
BCE5000A
BEB388FF
BE5E59B4
BDD7C28E
BE8DDC38
BCD57633
BDC1FFBD
3DF88BA2
BDB90BB4
3D8236ED
BDE63B4B
3D862CEB
BD8C4F99
BCFBC446
BDDAEA22
BE8DDF5A
BDB77FA0
3CAD9987
BD55C835
BD8FF908
BE842685
BE7429A0
BDDFD250
3D8774B7
3D750F7A
BCF3C533
BCA04DFE
BE1C121B
BB7278ED
BE3195CB
BCCD10F9
BE6EA2E0
BE20AAEB
BEC3A4BF
BD102FCA
BDAE4DB7
3CF884E7
3D6D42D4
3DC66C23
3D4BD1D2
BE12CF6B
BD8F5F71
3D6CD365
BC938123
BEC20D3F
BF201539
BEA1FF0B
BE564110
BD349C12
3D171DBC
3D8E81A2
BDCEAD87
3CBA0478
3D90C5FF
3D14F19E
3B354698
BD252C68
BEA1CE56
BE91AF7D
BEBA4675
BEA93636
BE1F816B
BE9D7FE1
BDCF1169
3CA650F5
3B1BDFDB
BD6EF986
3D08FC0F
BC589E6E
3C1C0F8B
BDDED9FB
BDFA1B7A
BE2F3C14
BE3BB8A8
BE41C495
BDF3E168
BE9DB2C2
BE234CD8
BDE544BE
BD97B00F
BADF5170
BD79897F
3CF08072
BDDE95D6
BCFD6ABD
BE4851BC
3CB830E9
BE21F33C
BD8AB3A5
BD6D01E5
BE29A7F6
BE4F6A02
BEC455B7
BE1414EA
BE1FD263
3E041556
3DD70286
BDCF9644
BE76F25C
BE92B389
3D314DC4
BE731E97
3C9DB62B
BE193F22
BDCF3602
BDDE0181
BEBBB2C6
BD87233D
BE4235A0
BE6976C6
BED1A07F
BEF3EE67
BF38F957
BF0358F0
BEF5C6BB
BE857245
BCD5E6F2
BE84D85A
BC62D040
3CB6293A
3CDFADED
BE047DC0
BD2613A0
BE10FF99
BE40D669
3DA71154
BC7CF4B2
3E1245AB
3D2FAEBF
BC3F65F1
BD261518
BE21B9BC
3D1626C2
3D3E8458
BD77AE9C
3D28014D
BDA854D7
BD93E9D3
BE79FE12
BE023112
BE9623C7
BE72E4CA
BD10B80A
BE189560
BE20DDEF
3C2C3519
BE2ADCD4
BD80CA52
BCCCF8E8
BD8CDBDD
BE50220B
3E4D9D4E
3BBC190F
BE3BB1F1
BD4896DF
BDB2E2AF
3BF46752
BDEB79DB
BD23BC52
BDC099B6
3DF5B34F
BD5C16F8
BE4F7DD2
BEB5AD86
3D570B59
3E4C11CA
3E30307B
3DE1641E
BAE9FAEA
3D9EFE81
BD144663
BDD61480
BE2BB227
BC928929
BD3FBB33
BE007404
BEAFECF8
BDAECB0E
3DBB0F93
3D06E4D9
3D800018
3DF437CF
3C7A251D
3DBD137F
BBEDA1DD
BDFA23BB
BD24360A
BDBD4883
3BC70B3A
BD0A4594
BD97FC80
BD2F6147
3CE00B91
BCF942E2
BDDA0E3C
BE059A09
BD9E14ED
3CB54B8F
3E00D88D
3E218C10
3DEF58A6
3E0C834F
BBF282CB
3D0F3356
BBFA1389
BD9AB77C
BD96ECC8
BE15D41E
BE656D56
BDA29CB7
BD675A6F
3DD4F5E4
3E602185
3E647C93
3E961600
3E6BE648
BDF264BE
3D1B9659
BCE2CA5C
BE271EC5
BE904A90
BE03EA20
BE015261
BD83F16E
3D28B9D4
3DF70736
3E6F1AE0
3DBDC619
3DB1DF5B
3E16A399
BD200DBA
BDDEFD56
3DB4DACD
BE0619D9
3DDD9C04
3DD0B63F
3DE4C305
3D9DF447
3D3610A8
BDCC157D
3BB182B8
BDE7FD8D
BE6391F0
BC843A9F
3DD24943
BE05D7F1
BC8FF3FB
3E128DB7
3E4CCC00
3E7EBD0A
3E60ACE9
3E111FBC
3CFA0C4A
BE3F573D
BE16C2FE
BDB50127
BD3864E0
3D4993AB
BDF1008E
BE2099C2
BE2E25F5
BD65CD4D
3DB49228
3E236C06
3DD53A89
3D7D211A
3DDE1389
3C971FC4
3D58F08B
3CDF0AB0
3E278BAA
3E003094
BE8831F6
BCF07826
BDB00A5B
BE16CE3F
BD102254
BDD9B7A7
BE291559
BD991001
3E1A24CC
3E4474AA
3E3A8DD6
3E39A798
3E012E8A
3DDCA691
BDF4A776
BC42E674
BBCFBAC4
3BCDEBB9
BD7F9616
BE6AF9E5
BDE3E558
BC21CF07
BC561536
3D8EB21B
3D7FB816
3DDFA072
3BE928A7
BE8547FC
3C00691F
BDEA5447
BD9F98B4
3D58618A
BD7D5993
BD96E518
BE0E5094
BC802D51
3D802D58
3E48F3D6
3D3DB20F
3C0C981B
BD82D36A
BE501668
BE80BE19
BDF50A7D
BD0800FA
BDAFF392
BDBD4750
BDA2F744
3D0AE339
BDFC2B38
BE144118
BD7AD86D
3D6ED300
3D379702
3DC87AB8
3DCC9F71
BC0C00D8
BD8A62CB
BDF28C8B
3D51B205
BCD9D15D
3CF7EA74
3D8989C9
3D47091D
3DB13DF7
3D28270E
BD0E4006
3D4C1394
BC23DEE3
3D9DC2F8
BD376474
BEACEA76
BDBC9357
BCE73694
BC50A5F8
3D85371C
3D42869C
3DA23479
3D9D94D7
3D91FB38
BC90B863
3D8F95A8
3BB8232C
BD793642
3DAFEA84
3DDCDB35
3C8BD034
BD91EBA6
BDAA3F8A
BB2BA331
3D3FBFE3
3D144C08
3E201AFA
3E299D4C
3D8E8612
3D9AA51D
BD45D823
3C1C6FEE
3CDC13E8
3E7C55FE
3CECCED9
BD7F78BE
3CA020CF
3E0D2486
3E8ED1F2
3E174E40
3D4B3CA4
3B86E71F
3D171949
3DD8F3D6
3DD5C9BF
BD340F2B
BCEDEA89
3E0F064A
3DA3A1F2
BE0E49EB
3DEA6A2E
3E4BF095
3E7D9B06
3E145220
3E03EB69
BDA86C13
BD4972A6
BD7493A7
3CEB04B8
3BDB13DE
3DA93529
BE12BBD9
3D878ED4
BE87EA24
BCD9A4FF
3E3556FF
3DD21F59
3D981DF2
BD591E6D
3C9C6AC7
BC40710F
BC98824C
BD35F858
3D594A55
3E2458DF
BE8B13F0
3CCF6B02
3C939283
3DBD8390
3E3A8F99
3D072143
BBED2792
3DF77140
3DCE55F5
3DAAADCE
BC393C77
3CF2AC48
3C866BC0
3DC38D92
BD7AC278
3E1AF46C
3E171911
BD08E3BA
BCAB25C8
3D9DA264
3E3C4914
3E2C9976
3E1C6DB9
3CE20370
BC112414
BD680EAB
BCBBDDA5
3D74CE98
BD812182
BD069FE8
BA29EAC9
BE6D973D
BDE73B2F
BD7DCA03
3D831D2C
3E238FA4
3DE8CDF8
3CBA4823
BBE5367A
BDF3993E
3D3094C5
3D1676A7
BD1358C8
BE2872BE
BE071981
BD3B27ED
BD12957E
BD7B26F2
BD424BD9
3DB1BFE4
BD8EDC86
BB9B599E
BE1CD3F8
3CEC55A2
3B9BA302
3DDF989F
BD05D114
BEAEB43B
BED62EF5
3D6F756A
3D81A554
BD00BC3C
BB4C57DF
BBD7494C
BCD8C59E
3DDB9422
BDC21603
BCA75DA4
3DEFCF46
BE1B5BF7
BED9F125
BEEBF51B
BED1E724
BAD61555
BDDF0407
BDED8CAA
BD6A6B7A
3D999A78
3E18088D
3D90986C
3D1B9505
3D9A6F14
3E3B4882
BD28ACA4
BDA2149B
BEB87F70
BE846EC3
BE958B1A
BECDEADE
BEB3C52C
BD95835D
BD608E18
3DF4CE34
3E4CF7C3
BCFECB76
3D717AC0
BE244A73
BEDB173A
3CFD68A4
3DD78920
BE123625
BDB85667
BD52323E
BE59A918
BDA7E22D
BB7F329D
BC3C3E21
3D40BA8E
3DEA1FFD
BDE89358
BE5C8AA7
BE1BA38F
BD6AFE34
BDFD1099
3DACEA56
BE013D9A
BE0DE6C3
BCAFF13B
3D639571
3E1E81D0
BE4460DA
BDC6E2F9
3E1C3641
BC5E37E1
BDCFEA2E
BCE6EA94
BE139829
BDAD8BE5
BBD24E55
3DC84672
3E0F43BE
3D74E997
BA743408
BBA54078
BD87BC95
BE92F7FD
BC8D27FD
3CA7A58E
3E03F6E7
BCF4DC75
3DAE6256
3DEBE871
3D04A0BC
3E1ECEAD
3DFAAE06
3E5B2DCB
3BA71EAB
BE820A20
BE75E96A
BE464D5E
3DC9C039
3D6FED4A
3CA26CDA
BE06B565
3E001C14
BD949C3D
BC6EF4E1
BCAB036B
BE1C2829
BE293161
BE39828B
BE3B3585
BE090E19
3C92D575
3E64A392
3E4F8127
3E2A709D
3DC79A86
3E313932
3C362C52
3C9744D7
BDD3D2C3
BDEC85ED
BE7DF6BC
BE209860
BD65271C
BE084288
BD819865
3D4622EB
3B328298
BDF3FF9A
BD8C2D01
3E2AF20A
3DA68C06
BDFE0C5E
BE6BE713
BDE80027
BE22E1F4
BE3680FB
BC1474DC
3DD205A5
3D49A832
3CB1911B
BD11411A
BE243B4C
BE53DA53
3E172706
BD36904B
BD0F1882
BE1D7B51
BDBFB643
BDD5A432
BE775019
3D6E6942
BE2EEE77
BDE35281
3DD4B423
3D3CE1D5
3C25D698
3D9E6DA5
3D78EF6D
3DE7A799
3D6F4DCE
3CEAD60A
3B8E1B9E
BE01ACCE
BDFC4D68
BDB4650C
3DC3C2A1
3C92048A
3E31E4C6
3E2ADC44
3E0929B7
3E324366
BE160DB2
3DA2F01A
3D643941
3C659432
BDD22285
BE8E96FE
BE21BAE3
BE0AF537
BD27CD68
3E3D421E
3DC2EB95
3CFDEFE2
BC88C919
BC037EF3
BE0726AB
3E2ECF0B
BBED4538
BDA9023F
BE4184D9
BE8E8B1B
BE6FE21C
BE17039B
BD78E22B
3CF4A161
3D9A64A6
BE6D5BD0
BDF94EF0
BE59171F
BD2D420A
3DB00EE8
BDC8D124
BE4A124C
BE422C8C
BE54DA17
BE6EAA61
BCCF7B59
BE057370
BDC0A020
BE3ECAFF
BCB75747
BDB7F672
3B0B66B4
BD84A618
3D1D4EC6
38A1E8D2
BD8DBE31
BDB9A650
BD88F837
BC961593
BB61F98B
BCBFC158
BDC06904
3D196A60
BDDE560D
BCA0322A
BC22F079
BDB78E1A
3D21D906
3B83B17E
BDF5193C
BC9D62BC
3CB536C8
3C3AC694
BD37770D
3D096D25
3D10F04C
3DD56DD3
BDA00F35
3DD81CC5
3CA563A3
BE99C623
BD45FE22
BD239A71
BD2A0252
BCA16C4F
BE019985
3D8CC72B
3C2A3229
3D9DB2D2
BD6EC1D2
3D0C89CA
3E2416D7
BAABE601
3D817A6A
