3DD0EC76
3D0D341E
BDD590D4
BE107A47
BE01A618
BEAA7242
BEB5F1C3
BE8377D8
BE72C3D0
BE6928D8
BE95C22B
BE21B145
BF08F8A0
BDEF4100
3C829086
BD8A8659
BE563A00
BECD3953
BF022C64
BDF74FFD
3E161415
3E20B7B8
BD15D77E
BE311B2E
BE1DDF11
BE13108B
BE3CEF18
BEB5BF60
BDDAF780
BEB52112
BECB43E7
BD1A630E
3DD1FC5F
3E3431BD
3E71147C
3E48D512
3E3F200E
3DA6F149
BDEE0A87
BD4592C7
BE0F0001
BE12CC3B
BE948EE8
BE8F7D5E
3DA93EA4
3E0FB230
3DE2FEEB
3E476514
3E8C370D
3E5B6AE4
3E07CC1F
3CDCBF19
BDD762F7
BE283AA0
BDDEC3E3
BE839AFC
BE07C00B
BC3AE0C5
3DDDE29E
3B9EA34E
3E1ECC79
3E25B46C
3E4E5274
3E6004EE
3DCDA8BE
3C08BCD7
BC85B7E7
BE2D9056
BE044EF0
3D846DD8
BE45BA8E
BD3DAD59
3DC96E1E
3D941851
3DAA7CCE
3CED9F6A
3CB32E74
3D9A2227
3DD79051
3DEB9F51
3BB1603A
BDE1E22A
BD0080BE
BE2BB68A
BDB2326B
BC79ACBD
BCB9ADB0
BCB6491C
BE1E2265
BE222069
BE27E997
3E82D7FE
3D4B9E0A
3D085956
3B94224B
3BA85109
BE9186CD
BEC7C1FC
3E0F205C
BD5D7DCD
BE0E158C
BE6C02B5
BEA39F95
BEC115E1
BE104B98
BC4CE384
3DD0060B
BD0E5A75
BE220E16
BE2C217E
BEA248B1
BE425B57
BBC795C4
BDC6EC8A
BE5BC04C
BE464F82
BE5D163B
BE90D731
BD9F0DE9
BCA6A187
BC4A4954
BE2DF2B6
BE83EC11
BE2CE241
BE395F0E
BDF13CFD
BE2F1A4B
BD050225
BE55769E
BE1683D0
BE62D561
BDAA3C5B
BE09BA19
3DD62C7A
BD6A86D3
BD8CA5BE
BE08053A
BE2AF5C0
BD16435C
3D76D2F8
BE087AB6
BD480E44
3D556F89
BD08A7D8
3BF71832
3C447478
3C99A4BA
3D8CA244
BD31568D
BD45CE5D
BE3074C0
BD7DCA3A
3D227B29
3E268BF5
BE39A93D
BD90CDEC
BC3623A0
3E167D33
3D04FE85
BCAD9747
3E1E8C45
BDB8793F
BE07475B
BE180339
BE2E07D1
3D477B21
3D6E238B
3E276EAF
BDE3101D
3CFFCDB5
3DD7DD8D
3E07382C
3E1E1641
3E0D5B7C
3D830C81
3D96B9A8
BD4B24D9
BE07904E
BE210C48
BE2DD72C
BE4C67B8
3D455AA4
BCF4DAE1
3E72A5D1
3DB0A2D2
3DA54A31
3D99D935
BD0B0878
3C448070
3BCC2715
BE2EDBDC
BE3C6FFC
BE3B5A5F
BE88A8A9
BD4F60A7
3E5230C0
BD01E4FD
BBFEAFFB
BD63A08B
BDF93EDE
3BB1AD33
BD29B7DE
BED2EC4C
BF0031D3
BEB37081
BF018385
BE8610DF
BD92B479
BE2044FF
3C82695F
3D12D34B
BE232607
BDBC4B01
3DDB223F
3D003979
BD907F5A
BE9E1A96
BE74A58B
BED03D7D
BF04E542
BEC392C9
BEB3F91E
BDC0D0DA
BE94FDE6
BDDC4379
3C3E5E1A
3D30B002
3D1DBA04
BDF0A309
BD9437F1
BE4F2BE5
BEBC6ADF
BF1FC4C6
BF499B23
BF0BE453
BECC7196
BD833CD6
BE81A851
BE23DDDF
3CA489CC
BD0E1DAA
BDC369C2
3D656295
BD96A531
BE0192D2
BE224346
3D269F18
BE057B5F
BE3E6472
BE05C78B
BD705AB1
BD8512AD
BDF4DF27
3D8E2F1D
3B1CFFBB
3BCF660D
3D46F5D9
BDC4B7F8
BE076DAA
3CAA43D0
3D03AAE5
3D2B7006
3DAABE77
3E287944
3BD46C06
BCA46747
BD95A88D
3BFEAD52
3C496EF9
3B4E6711
3D9C9E36
3D535E36
BBCD215E
BCD37688
BC9F8F5B
3D7F88A9
3DE507FC
3EA37148
3DBF81F3
3C9D7723
3D59B6D2
3BB08C7C
3D38726A
3D24DF27
3DC494D8
3DC7CAC2
3CE1569A
3CFD94B2
3CB6B7E6
3E93570A
3E394BAE
3E2668A9
3DBA6241
BCE1C1EE
3DA71DA3
3DE55E37
3E01DCDF
3E3D6E5F
BA5E0108
BDC97D08
3DE6332B
3E5A0955
3DD5B913
3D942442
BD35992F
BC91413C
BDD31F9C
BD763F01
3DAD2632
3DDAC1B5
BC12FA8A
3D3DF07D
3BF948D1
BD33F5E8
BD21B739
3C736B7B
3DE362FF
BA361D02
BCB0344C
BBFD7DC7
BE9A4940
BDDC4EE0
BD2378E4
3DBEA985
3D765CA7
3D17D359
BE331E22
BDA9D9B1
3D8D6FF1
3D907D18
3E025725
BDF44B52
BE0070B9
BC62D697
BEC33515
BD1560F4
BE419625
3C3CDFF3
BD2B91F2
BD3B006E
BD926839
BD98BD30
3D0E8B37
BD0A5518
BC2E21FB
3D1FF090
3D3B13F2
BDC4C0D2
BE114B08
3D1CCBF4
BCC57B64
3D5D3D49
B939AAE0
BCCBD91A
BDB853AC
BD428BD6
BCA5DA9F
3D71DF21
BD16C0E6
BD9469BD
3C812AA8
3D3C0E8C
3E1843E8
3E09E694
BD0CE9C7
BD4A1DD9
3C96C5BF
BDC7CF92
BCB68AE0
3D8920BC
3D2003DD
3C6159AD
3D32A871
3DFF11B8
BC835467
3E13A085
3EB55D6B
BD409362
BD163798
3E0BE540
3D34152B
3D85FA8E
3DB9BE5E
3D98A6DF
3DAF830C
BD92A22E
3DFDF782
3DF49043
3DE82E36
3E3122A3
3E917AFE
BB4A4E8C
3E08F6C6
3E47CB8E
3E1B4170
3E1C7F2E
BE2E6739
BE9D79E8
BDE27E01
BDC49F9F
BDEFF023
BDA9438C
BE16E333
BE5B6ABB
BEB876E6
BC1B80BD
3E46D171
3DEFF7A9
BD4EE73F
BEFA49FA
BEFEFB2F
BE656132
BDEC1BB0
3D46A45F
3C817D57
3ABF639E
3DB15894
BD9D720D
BE15B945
BE2031DA
3DB3E816
BDF97654
BF023C08
BF56B3AB
BF5154E6
BF2359A8
BE84D71F
BCBC1578
3DACF832
3D1AEF9E
BBD0D46A
3CC87C00
BE078F4C
BDD2E08F
BBECDB26
BE20AF11
BEC08661
BF1F7F17
BEB76F3C
BE9F9817
BEAB6155
BE7CB7E5
3D2CA448
3CF12FD8
BB8F7F75
3D852402
BDD0BE1F
BE55A938
BD3AA3CA
BDD39F71
BE188AB0
BDC20815
3E3208DC
3D8D57A0
BE336F09
BE72DD1B
BD06D7F2
3C3CF9F1
BC31734F
BCA9A139
3D100657
BDB0392A
BE9ABC0A
BE1FF1B4
3DD92B0D
3E21EB9D
3E1F615A
3C594AE2
BE267404
BE5429E8
BCA6519C
BCE0BEFB
3D141820
3DC8C5E2
3DE552FB
BD0FD82A
BDC2BB02
BE0571E5
3D2EB27D
3D8C7EAF
BD2828B1
BD39D585
BE2C8857
BE48A798
3D5DF3D8
3DD4B30C
3E0C48EE
3D922B05
3D972DAC
BD8F3613
BCD3DD95
BDA0924A
BDACE1D8
BD940EB8
BE909052
BDE4D2B6
BE4DA2F0
BDC1743E
3DEA3940
3D98E3A4
3D8C7503
3E773EED
3E401256
BD359936
BDD2BE24
BE739011
BE9610C6
BE0610D5
BE48BE84
BE26188C
BDDAAA3A
3E20EE02
3C2E208B
3DC45018
3E0805AE
3E1F6131
3DDA292A
BE0F28FA
BE9AA631
BD012FB4
BE1CA547
BE3D0A37
BE799ACD
BEA11AA0
3D0F1E54
BBC51878
3D8F9E88
BD8BBAD8
BD94C842
BDB4D382
BC45B9BE
3D6E2145
BE100205
BDA8D763
BDBB462D
BDEDBBE3
BDFF5B96
3D41CBA7
3CCCC914
3DAC4AC2
BDAA82FF
BE077E9B
BCBCE71E
B951A28A
BDA049AF
3E24E280
BE41F263
BD8049EF
BD8C9F16
3D271D5D
3E1E9106
3D96CCBB
3DDB5E92
3C72E03C
3D94DB79
BCE71028
BE11D836
BCAEDB67
3BE83D1A
3D778DC6
3E613987
3E70FD2D
3D08E080
3E604910
3DE776E9
BC44D484
3D29B819
BC80220A
BD5DFB47
BCF833FA
BCB96634
BCDCB984
3D41F4ED
3E1F641F
3A6B75DE
3D04679F
3DA089D6
3D236F43
3C8BBC73
3DB1E182
3D3689A7
BD5DD37A
3DBF903F
3DDD2F90
3DF6E2BB
3E16AD33
3E33E9A2
3E1CFDC4
BB104889
3C82E733
3DA235CD
BC4A9E01
BD00E695
BCE4262C
BDA100B6
BD2C7454
BDE09DBA
BE0AE611
BDF67028
3C4496CA
BD119618
3DB7A3F3
BCA19A46
BD338378
BBF48A88
3D1A54AC
3D4E374C
3DE5546C
3D92F477
BD0F0C0F
BDE6E233
BE0D1457
BE0D5D71
BE36A81C
BDB0A4AA
BC77B819
BC977BFD
BD8019BA
BE2DF38A
BE33978A
BDA660F0
3DA9F875
3E8E7EF5
3E5E6B15
3E36C675
3DF2012F
BD648E03
BDAA2621
BDDBBA7A
BDC2A444
BD0793DC
BE327446
BD2C16F9
BE067866
3DB20C46
3E623623
3E18E972
3E4BBCA7
3D9E6213
BDAD84E9
BE5A69DC
BE2C924E
BD20AE25
BE0FE077
39740E94
BE42F3F8
BE1E15D4
BEA594F1
BE61464D
BE253893
BCC12162
3D35A5F0
3DA86ABB
3D9D4FD3
BD259AB7
BE7A19BA
BE4F66AA
BD9CDD72
3AE10E32
BD80BA31
BEBB4CFE
BF075B6B
BE8CB1A9
BE1EBB43
BDD1D614
BDF7DE53
3D81D0BE
3E17B355
BDD5DC54
BE3BF225
BE1BDE09
BE46A540
BE2C8C4F
BDBB5376
BEBFEE8C
BEDA092B
BE81FE8A
BD2A5088
BBF48B95
BD5EF417
3D42CDC4
BDF65B91
BE6CB1C6
BEA97239
BE1BC391
BE60B3A8
BD6A4007
BDF82560
BE3F9AEA
BE12FDDA
BDF72047
3E4C871B
3E7BB859
3E43118C
BE221A2B
BF0FB67D
BED60932
BDBA0191
BCBB4BA5
3D65FB9A
3D2816DF
BD9195E6
BE3561A6
BD104D36
3D2AAE1F
3EAD818D
3E2B00BE
3E2E1D85
BD9BEE45
BE99D000
BE6C28F5
BD5553ED
BD5A093E
BE274E28
3D952FBB
3C9D505F
BD365B07
3DA9B38B
3E447239
3E8F6BED
3DC00E06
3D8BF5D0
BE4B0131
BE499A97
BEAFF688
BE7C8118
BE08BFB8
BE2BD8EA
BD4492FF
BD32DF5D
3E0407D9
3E764F11
3EB8F9CF
3DFCDBD5
3DB81B57
BDFAA8E8
BE17D7E2
BE0FB2CC
BEC0B44E
BE8C0021
BE4D21C8
BDD5B496
BD48E53A
BDD87D6F
3E0C0D91
3D2610A8
BD513500
BE4247FB
BE88F655
BE96ABCD
BE998382
BE9D1DFF
BE8083A3
BD0A968C
BD7E0F66
BC26C35C
BE0658B7
BC4609DF
BDE8FAA6
BD4886BA
BE1A3DEA
BE479845
BE0E06C6
BD0DE591
BE08BFEB
BE080024
BDD18DD6
BE60D1B6
BC93D0E3
3DCD7D45
BD94D4DE
BDA5F86A
3CB00630
BD13F7AB
BDF1B3E1
BCA5AA7F
BDE3D221
BCDA5B87
3CC3EB9C
BD9611B6
BD75EFB8
BD107B84
3CBB3494
3E34A090
