BB3AC3E2
3A92C247
3C6ADC94
3DAEFA7D
BD59EF61
BE125556
BE4E9759
BCD9B5F9
3D823AD2
BDAE5571
BCB379F3
3CBAD1FD
BDD6BBBE
BD81BD86
3D59501A
3DDD1AF9
BD8D8276
BD1081DC
BD9B2A21
BD47D21A
BDC193CD
BD78AD0C
BC6B4CFC
BD8758A2
BD95A51A
3DB1D2CC
3D1F8F03
3CEC15C1
3DB5B615
BDB895AB
3C91C363
BD48E026
BE17D922
BE5CF657
BE0501B1
BDD40F47
BDDA9175
BC92A1CF
3D7CB184
3D372104
3DD9F3A5
BDE09277
3E1871AA
3DB1F4E0
BC16CF41
BDF0C83E
BD2D92BB
BE01BC2A
BD14C91B
BE3636F7
BD51CE06
3C03153D
3DD7CAAE
3E0C9563
BC789147
BE1690B9
BE1DC575
BDB7EDD0
BDD7E62B
BD95B88F
BE1B94C6
BE34710D
BD3191C6
3C7CD342
3D5D2EBA
BDBE9FC4
BD5374A7
3E18DEB1
BD350872
BD683A7B
BE98226A
BD388435
BD02B709
3D829B0C
BD8F588F
BD795D1A
BBF623A2
3DC71B21
BD5406E5
BE76091C
BE66DFC7
3CA34127
3D93C064
BE5EC1CD
3C9C86C0
BD96CD37
BD484383
3D3B6B4B
3C83DEA7
BD11106D
BDE5590A
BDA4B530
BDD5154A
BED90EA7
BE98872B
BE6252CC
BE42F9D8
BE7D7D05
3E7CCB9C
3E0BBDED
BC876B57
BE0DF3BF
BE7C6540
BDCA1C42
BD9838F1
BD79A677
BE8D8377
BF134E88
BEB852A5
BDBFF180
BD68E571
BDA4C8F3
3DC54175
BE798F72
BE03A07A
BDE64002
BE078E94
BD1C99DF
BDEA904F
BEA096F8
BECF1E2C
BE1B81E7
3D699153
3B914008
3D92E307
3DFBBA70
BE4724A1
BC46782E
BD5B324A
BBABBF84
3D894846
3D4999FA
BE1DE70D
BDF2D227
BE33F24B
BC1C0F4F
3E2C2AFD
3DA84280
3E18CE21
BAFAB57C
BDBF1B19
3C887659
3E29C6BC
3E77AB31
3E0C787F
BD2EE3AC
BDE3F07A
BE8FD6B2
BEEDFE0C
BE9291DE
BE3A2C7A
3E0A95BE
BDAE0266
BE7E703A
3E548BBE
3E4F2C9E
3E50A9AA
3E30FD5B
BCB467D5
3D4FC28E
BE9AE371
BEB8063E
BF100AA7
BEC99BE5
BE3BB3B7
BD3C443C
BE1800BB
3DE3C3A0
BCA64AD1
BC46E6A5
3CEEB043
3E0AE747
BD5A12AA
BE5D3CF4
BE97E506
BF0FD290
BEEB1106
BE82A239
BD65074B
3C658935
3C92BF31
3DF4512F
BDE2DA66
BE02F01C
3E057A88
BE103A30
3B9633FF
BDAC5EAC
BD1C6F7B
3DE47025
3DC5EC4C
3D88DF02
3E5DB8B5
3DD9E017
BD2D63E4
BE924C8F
3DBCAAEB
3DA5A76A
BE1535EE
BD3C90CF
BD4222F5
3D140266
3B96E2BA
3C05DA99
3D84BEA9
3DC7B0DB
3E1F3478
BBD26DA5
3CFE0B49
BD77E00E
3D8308CD
3E210C2E
BE02A371
BDB720D2
3CD89EBF
3D0BF2CF
3CC67F2A
3C8A9005
3E8E7F1A
3E996B61
3DA9C2AC
3E96CEF2
BCFF8770
3D580AFB
3E10F322
3CD437D6
BE0233C9
BC9EE98E
BAB3299E
BC3CFB23
3C0FC5DB
3E5A0980
3EB5C6C8
3EBB5BB1
3DECAC00
3E3F2BB7
3D0D2A0E
3D854BF0
3DA52062
3D34C455
BC8EB328
3B8A7FA5
BDE76816
BD2E3AA9
3C495CC8
3E04C7CF
3E3A4F08
BD289813
BE68AAF9
BE07C3E6
BC620808
3D4F2220
BD3C8927
BD227404
3BAA6FB9
BC7B97D5
BE175153
3D4EA74E
BBA5B2E9
3D9023D6
BC90EFBF
BDF1F109
BE5204EA
BE4C8461
BE7F6E26
3B6FE552
3E081C9E
BD31CE2B
BDACB827
BD771358
BD78DD27
3CA4BB03
3E0FF65B
3E1012C4
3DE45AEF
BD1346B6
BC3739AC
BD694B2D
BE62FD76
3A235BA8
3C813386
BCF78399
BE5211F6
BE5C499C
BDB47DF6
3D3C2A37
3DE57365
3C08ED60
3E38BF63
3DB06455
BE62FB5E
BDF0D6C5
3BB27D1F
BE5BCB93
3E209F69
BE3FED3E
BE9B2667
BE6606A2
BDFE9B60
3DEB69CE
3DCD27A5
BD257463
3E64A92F
BE12146B
BE4E633F
BDA8CFEC
3D47C1F7
BE2F39DC
BE08499C
BE70CA3D
BE01B0DE
BDECAFEF
BE2FB2D6
3DFF2789
3E04F579
3D8C2087
BE9F0538
BF05C619
BEA9951E
BBE2A3CF
BD6C7A90
BD00C3D2
BD4AB80F
BD9F4CCC
BE70DE53
BDE4C1D5
BE05E99D
3CD2A17A
3E2404A4
3CD472F5
BE08710C
BE9AF64C
BD8DD145
3E4A5CFF
3D10C4B9
BD042A1E
3DEB3918
BDEC73AC
BE40290C
BC5D3B37
BDE55916
3D75E7EA
BC891E56
3C77DCC7
3D4A23DA
3DA79D01
3E3B66DA
3E851674
3E44D147
BDDA42CF
3D237C58
BDDA8A98
3C4DEDD5
3C137499
3D9F6788
3D45C309
3CA93DA9
3DCE2A07
3D612590
3E59D66A
3DCC4331
3DEBB171
3E3223E5
BE311C35
BD4D23C7
BD5005EF
3D480C65
BC1FDBDD
3D73E278
3D8D6486
BD8D4026
3D043A77
3E3A5398
3E057C62
BDE3E6D1
BE494143
BD35A7AB
3D2D49D0
BE20FE8F
3CBB9D2D
3B84F159
3D6AFE7C
3C9B8372
3DF1B08C
3D94A7DF
BDC619B2
BDDCA0E6
3CAFB5AF
3D86ED3B
BE93D64B
BDFC7F7D
3D6810C8
BD1DD0A7
BC62ABB2
BDEC7A9A
BE09138B
3E43BA93
3C21C652
BD1BE981
BE223042
BD21D7FD
BCA5608A
BC5E1834
3DE5AF7D
BE59D1F6
BE07ADF3
BDCC4F54
BE5BA70A
BC9AF9B8
3E6689E2
3E1A3DDE
3E203D64
BCC48B0F
BD7AF299
BD36EAFA
3D6FD3EB
3D282317
3D022EA8
BDCAFC2F
BD5EFE7B
3DFCFBDC
3D3010B3
3D7E9A9A
3E2592D5
3E5874DA
3E7FEE77
3DF36977
3E32D634
3DCD9107
3D99D4BD
3C8AE8D3
3D6C18A4
BD943D32
BDF350BB
BDB6A3C3
BE0AD3E8
3DE15C11
3D03C5F4
BE4BCB59
BD9D9D9D
3E2B0CB3
3EB4F4E6
3E602728
3DE8B974
3CBBA23A
BD76B900
3D17FF49
BE2A160B
BE4000EC
3C1A0056
3CCA22B9
BC7B8D79
BEB8B757
BEAC2DF9
BDDB39DF
3E1D75CA
3DC9E619
BC0C8EF8
BDA69F14
3D9E1CC6
BD1DD724
BDDA8DBC
BE2922DB
BDD484A1
3DB1983B
BE235F85
BE3358FE
BE1C1335
BCFBE09C
3D9B0EC4
3D8B862D
3D9279C6
3D0B6954
3D056980
3DD7F78F
3D98A70E
BD768CB6
BDE267C6
3DA5AF3F
BD583EF4
3D3BC2C4
3E0E1F71
BD0A6D2A
3DCDC7DB
3DCA1668
3DA1545B
BD6B5632
BBF1D2FD
3D5ADD7A
BD16E670
3B93F655
3C5C9769
3E49DBB6
BDAA1E7A
3D38CA97
3E8C55DC
3DC9969B
3DFF8995
3DF68A3B
BD8954F3
BD1A25C9
3C4D27E1
BE19952D
BD910BF5
BE460567
3E6FACEB
3E078D92
BD93D5EE
3E098EBA
3DA3AB0E
3E33FE5E
3DD53969
3D6EC07B
3D042DE4
BD156315
BC856C5B
BDC381AF
3C4B087F
BD0F519E
3E931450
3CA4855C
BE2090A5
3CA3882B
3EA533E9
3E948B52
3BC8286E
3DC34440
BE05E4F4
3B1B6565
BDE2920B
BDC6F14C
BCD7F19A
3E563740
BD62334F
3D386049
3DC3C0E5
3EB6AF79
3E82D253
3C9759F4
BCE2F171
3D9E69D0
BD74DEE8
3DC5294B
BA999633
BDC92AAB
3D97F2B4
BD6F3D01
3DB8B9E0
3E810314
3E2EFE1A
3DE2F15D
3DDB9494
3D2EF8DF
3B67F5B1
3DE20D5D
BBE8129D
3C36E26E
3DAEC7A4
BD2AEE93
BA8118D5
BDDA2A88
3E1268D5
3E23A965
3DD06DE4
3E065360
3DB07520
BC90B2C5
3DAB9806
3DCD3F31
3DAD784B
3B993936
BCB0168A
BCB66193
BE1C56C5
BDE7BFDF
BE1D1309
3D93AFFF
BDB7AE20
BD77A868
BD49DB20
3C110B51
3DADBC23
BBA1CA76
BC6E451B
3D838B93
BD7A1EC5
BE821223
BE9C8D44
3DCE6F9C
3D4B3860
3DCBEF2E
3C0EB3E0
BD934EC2
BD629435
BDAE6392
BC78971C
BDADCE5E
3BE6C849
3C81B7C5
3B2413B3
BDC415D5
3DDB6637
3E0B8A7D
3D580AAF
3D85F1EE
BC8E7004
BCCA8983
BD0DC5F8
BDC61C93
BE22ED82
BCFDE751
3BA05370
3DE1C58E
3C947B15
3DDE63F0
3D661777
3E2390F9
3E0B2348
3D9AE96B
BC7CACBC
3B575054
BE7EE818
BEE3514A
BEB38A3B
BE6FC133
BADD8140
3DB30E3C
3DD38202
3DB7DC58
3CB4CD23
3D3C070F
3E110AE3
3E038404
3DCB3A56
BE05B24C
BED70D0E
BE250651
BC20E2E1
BE9F807D
BE202CBA
BE6803BB
BD01C60C
BE3E614A
3D866514
3E3779BD
3D12DE1E
3D08EA88
3DF999CA
BBB1EBFD
BE8E3F33
BE00B741
BDD48AE8
BEB22203
BEFDDF3C
BEDA515E
BE47D272
BE2AF2D4
BDD8EA3B
3BCEF7F0
BCADB6E0
BD271873
3DBFBF92
BDECAC0C
BCBF13BA
BCECAADE
BE0436E4
BEBD450C
BF2BF769
BE9A523B
3D29AC15
BD14D788
BD1C8C3E
3CCD48FD
3C77BE92
BCDE2871
3DE9C097
BD147CE8
BDD1D3E3
BC8B6FBE
BE7C11C1
BF5EBE4E
BF0CD828
BE1188B0
3D92E934
3D0CD9F5
3C32662B
3E47A606
3DAA1AB8
BDB8D4ED
BC7F1512
BDCA949E
BEBA970D
BDBDF4B2
BEC7C195
BEBF8D4A
BD9EC8B4
3D12A9E5
3DCFDCB4
3DBB61EE
3E0DA088
3E5888A1
BDC3D60E
3D9EC816
3B64786F
BCA93BDE
BE203107
BE01582B
BE7C56F5
BE2D6DA3
BBB7E1BD
3DD4135C
3D241DFC
3DAA86C0
3DFC118B
3D8D5008
3E1CD709
3DF2E6C0
3E565D48
3D0130D5
3DADF1B8
3CE01947
BD40996B
3D047FE7
BD284E16
3CA9DCD7
3DC39E31
3E1AE918
3C44FD67
3DC0ACED
BDEE3801
BD3B0999
BDC350A0
BEA141D1
BE5F4389
BDB4DA84
BCE59AE9
BC81D8C1
BE83FB25
3A85C22E
3D70BE23
3E2160D6
BDECA363
3DEA37B4
BD3FB60C
3CDA34FD
BD3B4B27
BD522A18
3DA60D5E
3CF5B053
BB64D637
3C919469
3E0B2ADE
3D565F9D
3E22D3CC
3E14E9C8
3DF355FB
3DEEEC78
3DAFE9B2
BD2369C2
3DBD5282
BB4D248A
BDABA0B2
3DB77BB2
3D822B82
3CD61777
3D8EBE1E
3DB97A4B
3DB4C129
BDD3ED36
3E5B2257
3CBF82FE
3BB0E27B
3D3F6FD5
3D947A32
3D3C637A
3DBC06A9
3DECE797
3D14D5F1
BBF18676
3D0389B0
3D17D721
3D57FB0E
BD8A48C5
3B166729
