3C92E875
3D370DAD
3D7FF37C
BDA1E0FE
3CEB9696
3D421930
3D2D98BE
3DA5FC0F
3DE919C8
3E2B13E9
BC5E8DC8
3C10DE3B
3C2B4E5E
3B5EBD58
BC3B6D2E
3CEAC317
BCC27BD6
BE19CAB5
BE274157
BDCFED50
3C9A60AE
3DA144BF
3CA4D709
3DC65222
3D75075F
BDE871BB
BBA0733A
BDBEC56B
3E18FA94
3D660E01
BCD9F8AA
BD892DB0
BD2B2F00
BDA05A17
3D88E9FA
BD3E7356
BCF689AB
BDE9DD6B
BD877C08
BE722B9B
BE6F5F55
BE88157A
3CE8683C
BDC4E60D
3C67625D
BCF478C0
BDE98FC4
BDC4491D
BE4497C9
BDFB15E6
BE180581
BDF9936D
BDDB3FFA
BE95FD0E
BED9D2A5
BED1C603
BD1D9062
3CC34E4D
3E188359
BD6CE2EE
BDFE1745
BEB056D7
BE813DDC
BD9F1C7F
BE3F5FC6
BE091C49
BDA86246
3D1D5A2B
BECD71B3
BE32B9A9
BE754228
3D54F72C
BD1BC6A7
BE5153F8
BE55EEAF
BDA24491
BE220BEB
BD1ED884
BE398E35
BE611055
BD8719DC
3E140B9F
BCFAE963
BE04868B
BDB743AF
3E1ABCF0
BE61D8DA
BDA3B2B1
BDB7958C
BE68EE50
BDFAB23F
3D04A4C5
BE3CCEF1
BE9CCF88
BE8C582C
BC31CDBC
3DBB70CA
3DE2B239
3E23E778
3D332A7D
BB1167EE
3D218F92
BE067E51
BE341C64
BE840196
BDC6C13D
BECCE00C
BF13F018
BEAEAB8F
BEB9ABDB
BE364D9E
BE5E769F
BDEBC17B
3C79A7FF
3D7CA26C
3E0B6FAA
BC902F86
BE046889
BDBEC01A
BE4620DE
BE876AF7
BE542F5F
3CDEB8F6
BEB9FA58
BED19ABD
BE298E65
BDACC67C
BD62C455
BBC1729A
3DC98416
3E014E1A
BCDFFCE7
BCC42DB6
BE3E0CB2
BE838C12
BDDC9D67
BE094FCD
BE17D51B
BD95E548
BE091BB8
3D7D6F9F
3DA02DEA
3D070B38
3CF13A4E
3E239496
3D8D2821
BCAB8228
BE64B575
BDA2A567
BCD48CC7
3DBCC2C3
3D7955FA
BE446B9B
3D2E50CD
3D7F3B0D
3D97933A
3E6A5B74
3EBBFF72
3E570622
BBCC7D00
BE314139
BDE7E66E
BE27CBC0
3DFB0A93
BC99B596
3E02CFA6
3CA7CFF3
BD1D1A6F
BE4E6C69
BE4FF50A
BD1E92D6
3E08543D
BC8B143B
BE3DAF3B
BE495AF7
BE269859
BD7ECC43
3D1CF48A
BD3B900E
BEA130B0
BD2CA8CE
3D3FF9A6
3DF6E6D5
BD6E2B84
BE09278E
BD4CF061
BC9168B5
3D601960
BB9BDD09
BDCC9523
BEE5A5F1
BE831673
BE1C0D4B
BDB2D298
3DFDD887
3CEE06C3
3B0D9D82
3CD70671
3D2CD061
3D3692F6
3DD00BB5
BE51B3C1
BE2C4BBF
BD99F95F
BDA917E2
3C941FD5
3D5D142F
BC82B8C6
BBC8E69E
BE0C3C60
3D707351
3C5D0DDC
3DEBFFA6
3DCB6F97
BDBD26A3
BE8F524C
BD9F8A6D
BE98BB7E
BE6E54F0
BE6E88FB
BDA545F0
BE0D4789
3DE950F2
3D270BF7
3E07866B
3E2E8AA9
3DCE6CD2
BBA3B004
BDF4F9DA
BE5FA59F
BE4AA84D
BE6B96D2
BE41966A
BE924246
BE578A92
BE8C1A45
BD90C335
BEAD7777
3E2ABD2B
3EC30F29
3E21C598
BB8E3F8B
3D437BCE
BDC06415
BD633B28
3CC92AEA
3D2E6AC9
3D1F7D49
BD481C00
BD7EECAF
3CD2ECDA
BF295294
3CF59193
3DF3CEB6
3D5D78AC
3D029B0E
3D0E115B
BD3B1C26
3D716086
3DA256FE
3E86507F
3E67E872
3E5C6B65
3E0ED315
BE78C2E0
BEFCC018
3A2185DD
3DFFD155
3E07B42D
3E279A63
3E271B75
3E270C22
3E5BD7A3
3E64D433
3DE1B7D4
3DC9EBA3
3CB335B3
3CE1FBA3
BEAC2E01
BE947886
BD377C67
3DA0ABEB
3B6526C3
BD726550
BDFBF334
3D9629EC
3DABBECD
3DCDA1BE
3DA7566E
3C51914B
BE6C5C37
BED6B18D
3D48E1DD
BE014D08
BD5280CF
3C307F1E
BED35CB1
BEBB7169
BE992030
BE4D53B4
BDD1F45F
3D4E4573
BDB69B83
3C2E1A31
BDC31ED6
BE73E4F6
3D5FB31A
BEBB67B0
BE5D01B1
BE9CB55E
BEB26D96
BEEE4364
BEB8C665
BE32D1AD
BE1B7B26
BD7AC0DB
BCFA50DE
3D074E67
3D2CAF34
3C84B657
BC87C578
BEC7061E
3D92EF21
BDEB355B
BDD53818
BE803C81
BEBD6629
BE7351B2
BE28760F
3C83EFFB
3D71B11D
3D9E6C16
3C6C347D
3DECE5DA
BD37D219
BEA39A53
BD8CC211
BE08F8B5
BD5DF56A
BE1A3364
BDBB7238
BDFFB9EC
3D3081B7
3E3CC5BF
3DF8FC7A
3E4D2AE3
3E3D6853
BC6A8F62
BE163288
BE0AB59E
BD5D9477
BDE2EBF6
BDBE6A54
BCA6A56D
3ABC0260
3E17EF99
3DE15E91
3E3D9A10
3DB974D0
3E5A654D
3B11F766
BD6ACA2D
BE8EF782
BE665FA6
3BA832D2
3BB105F5
BC37D2C1
BCA4CF90
BD98F9DD
3DB04108
3DF29BF8
3C344265
BD767CFA
BD35EB24
BD38A0BE
BE6C1A1B
BE3085E1
BE165BD6
3DEF63F9
3DC4CD0F
BC507C9D
BDAA08AB
3D9B1D62
3DA2AE1E
3D400FC4
3DB6C6DF
3C38D044
3D51CA41
BE360845
BE8BA4BC
BE7A5CDF
BD8DE2DB
3D89EBE7
3D576C4B
BDFF7424
3D07CFD8
BD74E116
3B12ECB7
3D91FBFB
3D1A163A
3E13FF3A
3DAC9D21
3DA81F41
3CE7B897
BDC4C243
BD768EB6
3E183EAA
3E07BA68
3D092A04
BDED9477
BD372F69
3D163AFE
BB532F9F
3D88FC85
BC312986
3D83817D
3D87A9B1
3DD46FE7
3D54FC9E
BBBD916D
3DBCF947
3DA76B17
BE0C67E5
BD3ACA9E
BC76A0C0
3DBBB603
3BAD6344
3D353157
BC30CDE3
3BEC2D73
3D113906
3B306C68
BCA304F0
3DF423B9
BD76860D
3D305F59
3DCDD62F
3D88C366
3C71ED48
BDB5AEE9
BD777CEF
BCF10BF1
BD57A507
BDDEADC4
3D5B667A
BD043835
BD0E2591
BD2F51B7
BCBA3088
3C392269
3E4C4BE9
3CA0B5BE
BE14468E
BE73B311
BE1D3148
BDE877E0
3D1547FA
BD9E413F
BD09420B
BDE82708
BD409BD3
3CA9DBB6
BD9DF272
3E200A63
3D88EB95
BE05E9B6
BE533C8C
BE4230FA
BE0E5728
3DDA1EE8
3D1EC93E
3D7496D0
BC030210
BDEE2DD2
3DA83C45
BEA02A74
3D7DB8BB
3DA3C9B1
3C38704B
BDFFFD12
BE72D3AA
BE6336B1
3B39CE3D
3E057EBB
3D81C42E
3D827AE8
3D998D7C
3BD32263
BDC95EE2
BDC5FA7A
3D632E00
3E52021E
3E163E6A
3DDC8508
3C2EC139
BD869C12
BDC3BFAA
3CCBB885
3CDB490E
3DBE72F6
3D9779C6
3D0143C9
3D049A7F
3D1ED18F
BE262FCA
BC29628E
3E800830
3E2F83CA
BC2DEF97
3DC92257
3DDC5723
3D5581FD
BD5D73E6
BDB19B98
3C0BB07F
BCCBDA8E
BCBD997D
BCFB4297
3B6E2670
3CA3134C
3E9D5B24
3E6442D2
3E33B57C
BD43CDCF
BE0A2AD4
BD5A0CB2
BE19BF7F
3D629793
3D4F5D8E
BDBCEB31
3CCF986D
BE228940
3E6F922E
3EBF8A8A
3ED475F8
3E1D3BA8
3DF08279
3DB622D8
BDEBADA0
3C0E2E15
3D39092A
3D704E17
BBF1358F
BC348423
BD319349
BD8EB565
3D2111FE
3E7B3112
3E784D86
3EB8AA7E
3E94B902
3D97DC5C
BAFE4984
3BB60BFC
BD813B51
3CA17533
3D156D94
BD087C06
BD431C43
BEC2B500
BD099EFA
BE4A2FD0
BDF9AD43
BE26A155
BE2A3236
BE0ADD07
3DFC2FF4
3E5622A7
3DE2F2A5
3E0C6109
3DC833A4
BDAB6968
BE0D1C15
BD2020D7
3DAC474A
BCD1989C
BCFF2FFE
BC2035FC
BD97C08A
3B9F0E17
3E0F608C
3E118D3C
BD7D1D4C
3DC8466C
BDAEAF47
BE854AE4
BEAD9E34
3D54B42D
BD4A376C
BDB2FB5D
BD15828A
BD9F4455
3DA5B448
BE599C59
3C4591AF
BE377094
BEB8432C
BE253BBA
BE3C388F
BDF88037
3A8962FB
BCBAAAEE
3DC12016
BD55A5C2
BDF8B0D5
BC558A3A
3D13C6BC
BD396B27
BE749E09
BF036E3E
BEF58320
BEC7B58B
BED3CF88
BE1E1A29
3CDC6E7D
BDC4BFFF
BC8D4481
BC58355F
BDB33DAE
3CC68424
3E32827C
3DD07BF6
3E80E62A
3E327A32
3D86E8AD
BE9A73EC
BEE9D90A
BE715411
BD89CB5B
3D410547
3DFBF417
BB60FB0E
3D92CC7B
3E1D83B3
3E7A58CD
3E72A4D9
3E92CABC
BAE15236
BD7777A1
BE3A5031
BECEE5EA
BEB87F5E
BED04237
BE4F2122
BD67741C
BC81469E
3CB81838
3E2DD6BD
3E84F37C
3E0A7C6B
3E282BD2
3E1A92A4
BD6C5AA5
BE19FE0C
BF056AF9
BEC2560C
BEA36470
BE587787
BDD44E87
BCCC35D6
3DECB3F5
3E45E91E
3E74E93D
3E12865D
3E1C2871
3DD2FF65
3B674EDD
BE614692
BE34CB41
BE4F2E3A
BE38219A
3D867A78
BE0AC794
3CE44093
BC396FB4
3DF7BE53
3BCE9EB8
BD26ABEC
3DE20E53
3E502B73
3BDBA0F8
3D8F302F
3DD03728
3DFAB5BC
3E1BBEA5
3DC2DD80
BD9D30D1
BE6B6DBD
BC866AF9
BCA48EF6
3BBE5B52
3E02F7FD
3E3C4BDE
3E0C4A90
3D81F205
3DF2C7BA
3C911B80
3DB14A50
BDDC5067
BE5DFC48
BE86A86F
BE94B948
BE0D3C2E
3D9D0383
3DAA8916
3E2E9194
3E362591
3D813EEC
3B056353
3D04B5AE
BE3D423C
BE1BAFD2
BEF4B922
BE1500D2
BCCF8E2F
3BA1EE93
BCC28BCD
BDEDE48F
3E0FDA06
3E685CB1
3E83E574
3E2AD4B5
3E0B9FFB
BD7F5034
BE4DD631
BE4F99D2
BE8417C3
BDBBCDF2
3DB7F5A0
3DB4F41B
3DE561C1
3E24AFCE
3D258870
3DD724EA
3E262C6F
3DBEA039
3E0A458A
BDE2B6C8
BE5D23BE
BE573906
BE55B39A
3D644713
BCFFBE7A
3D4E47F4
3D6FA67F
3D98CAE8
3D1807CF
3DFA94A3
3D99E024
3CE494A5
3D04DC0B
BD1F7706
BE1105BD
BDD125E1
BDE571DD
3C3AD16F
BDFAF73B
BD8209C6
BD968A14
3D5BE87E
3CB7254E
3B5F9F7E
3D8E947E
BD9E9406
BDCB45AB
BCA50FAD
BD6B3813
BDD13A76
BD20482C
BDBDB210
3E34550F
3DA7AF1E
3DD1E29E
BCBB382D
3D5DC478
3D89032E
BAE05756
3D68EAC5
3BD4BB94
BDCEDB23
BD772F0D
BE7C8C24
BE84C75A
BDDCC2DE
