3DF62834
3C3F6DA1
BDA07DDA
3D9391AF
3D52ED11
BD17E88F
BD0383F9
BD17A52D
BDC123EE
BD2AF29E
BCE1D14D
BCB9DAFF
BDD44FE0
BDF09309
3E26122E
3E440924
3DE2BA81
BCB3C2C4
3D42B500
BBA98760
3E132A8E
3CAC8237
3D8D6627
BD0324C3
BC1BE335
3D839684
3DD884D8
BD89125B
3E1FCD24
BD120F97
BDD4FC74
BE133D41
BDC7C9F4
3C795219
3D8BD426
3D8CC6F3
3E06C17F
3E1AB4E2
3DD99895
3DEAB7C8
BABAF71B
BE98E773
3D898D08
BD90D03A
BD6219EE
BDA9EA09
BE57D0D5
BDB50A51
BD66A7B7
3DEE273F
3E3AA0D3
3E88D9A8
3E9A58C8
3E0FBA4E
BDC411F2
BE4D0F29
BDD4303C
BC17ECFF
BAFD0427
BBFD6C52
BEA34E37
BE59FA67
BC4FC39E
3D76B683
3DF340A9
3E916B32
3DCB4EDB
3DAA3018
BD343A55
3D921243
BD8048CC
3E690694
3CCF6C20
3BC17EE5
BEA7B8CD
BE2B67BF
BDBEDA81
3CCB2672
3E4E49F9
3E2FC561
BD13A8B8
3CCC29CD
BDCC28BE
3E335E1F
3E22B9C4
3CD9F0BC
3E00D5CB
BC11C775
BE3D4E90
BE520B70
3C8532E3
3DD6C901
3E25E35F
BC6354FD
3CCEF07E
BD9EF8CA
3CD5AE31
3E6E1701
3D112B15
BD02BF08
BD3FF0E6
BD583764
BDD8371E
BE1F1E88
3B2EB8B7
3DD75D5B
3E0F446B
3E4B4F3D
3D3BF9E1
3D8691B1
3DE21C1A
3E20AB81
BE28978C
BCFF79FC
3D0F747A
BE0812EE
BE43CB27
BD8A21E0
3DA69EFA
3E889BDE
3E8618C2
BCD8A9C9
3E3E7416
BB70587A
3E121CA6
3E1220FB
3E40B1A4
3EA14D44
3E747953
BD365E20
BD13BB49
BDF5F594
3DC0E267
3EC9DE39
3E76897C
BE3FC1E2
3C91B429
BDA8C838
3D59AE1D
3C7B4A66
3D99F039
3E78E279
3DB7EA3F
BE4EF1FB
BE208C10
BD85616B
3DCC2849
3E86C5A2
BE512424
BF0A6F26
BD018BE0
BE54580D
3E0263F3
3C9D5E47
BD9D28B2
BE197F81
3DB362EE
BD9E2519
BE37B810
3E0AC641
BE0B1142
3E2D790F
BA2AE51D
3D26E749
3E4B92FD
BC0C518A
3D2E3A82
3DFF6CF6
BBC5ECD2
3E881158
3D9CF553
3E002537
3DBA4FBA
BD90FB89
BE27D0FD
3DBFCC2E
BD16B5D9
3E5727E7
3D69C9CE
3D6FBEC4
3E1CFB11
3E2376D2
3DF22983
3D494227
3CCC14C2
3E00D601
3EC866C7
3E1137E2
3E8B06FD
3DC92E4E
3EC0550B
3EBF8A9E
BD770132
3BC54DA8
3DC1F96A
3E2DDE22
BD417AD5
BC0BFF5D
3DA00122
BD0FCCCE
BD3DFA51
3E3AE246
3D5A1E63
3E667FCC
3D52C57E
3E17F43D
BD843333
BE215999
BDC9A60D
BCE70FE0
3D06CC58
BD92C443
BE5DA257
BE03478A
3DEF947E
3E97A9F4
3EC8BF08
3EA2B9F7
3E86BC34
3DEE572F
3DC5438A
3CD69C24
3E08E0BC
BDAAAE3C
BD19A8A4
BD138271
BE856299
BE34E716
BEA9E49D
BDBD3634
3D434110
3D084900
3D04A4B2
3CD908A9
3E758D70
3E009B95
BC456FD7
BF0B5B5E
BC9838FE
3C2F9EBE
3BDCBF68
BE91A42A
BEC49677
BE7165AD
BE7846B0
BC97B5BC
BC8109E5
BB49FCD2
3C9868E5
3DEBFA10
BE32E103
BF2F8D5E
BD820C96
39B01412
BB8B1A28
BDF91B43
3CCF1D2B
BE56CB67
BCF03956
BD23D787
BDF0FCEF
BE26940B
BE28AA39
3CA7543B
BE189C07
BC5CC125
BD2D1010
BE66FA1C
BDC8C54C
3D8E3BC2
3D973B08
3D89929A
BBC1BB9A
3E546F73
BDC9B11A
BE659E0F
BE513D4D
BD38A0A5
BE225D65
BEB0B070
BCF6317F
BD28D0A4
3DF2D4DF
BB9BE39C
3E13C8E9
3C8C4902
3E45C1BA
BB724C42
3D6D5836
BD9FCE0E
BE18EBB3
BE17176F
BE8C3CC7
BE4C4236
BD378614
BDBB7380
BCA81ADC
3D851726
3E10BCFE
3D167A64
3DC49545
3D266029
BDA07B7D
BEA767A9
BD303803
BDC7AD51
BE2CA89C
BD1040BC
3D2DCAC8
BE592AF5
3CF902CE
BD400E78
BD8282DF
3DAC24D8
3D440FAC
BDF3A663
BE9F39D2
BE56BE6E
3CCE2988
BCAE1930
BBB03C9D
3E7CB34A
BDFB3F98
BDF651F7
BD90E6E0
3DB88BA0
3E48CFA6
3D81686B
BDEDE3D0
BE88F212
BEF03037
BF0E20D4
BE8FBE56
BE05D6D3
3DAA07F1
3DED3FEB
BC9E390C
BD33C3B4
3DB2BF08
3DA3CF6D
BA313494
BBD38411
BDF546DE
BDF0658E
BE9DA58A
BEC5AD0E
BE894587
BE64685C
BD904B15
3CF24CF6
3D490347
BD1B500A
BCA5F2F1
3DE8579F
3DDD28A7
B931E77A
3C2F2B55
3D88DAD4
3D369721
B9B9C6B8
3DF7DDD6
BC1D566C
3E0CD16D
3DBBAB54
BD2117A6
3DFC9BEC
BD4C570C
3CFDF1CD
3B06285A
3C5989C4
3D87E640
BD4BDF76
3E1F9955
3E389F73
3C7D9AC1
3CCD2778
BD945543
3D355C7D
BD72CEE7
BE40305D
3BA96C9A
3D20C85F
3DCDB1C2
BD2195CD
3DF5EA9A
3DEB4DF8
3DB895D2
3D80AD31
3DC0C0D1
BCDFBBC2
BE596053
BCD32281
BD937093
BE99A91F
3CA59517
3DE7E6EB
3DDD826C
BD97BF8D
BE1F43E4
BE407E6B
3B9A3782
BCE59E95
BDD1703E
BD0B7698
BE487A4C
BDF99B10
BD3C60FF
3C9B3536
BD701203
BC3C22DC
BC00AE09
BD1BC3F9
BD06D844
3D1EA668
3D8F82E7
BD94565C
3D6ADB8C
3E1185BB
BDAA5EDD
BE16FF76
BD2B52E2
BE580018
BDD9EEF8
BDAF5E6D
BDDDA6D4
BE18CC16
BE34181A
BE106AB5
BAD72F2D
3C5B9A2E
3CD5D6CF
BC9D8646
BD83C239
BE10854E
BE2EC34F
BE20579D
BC59E672
3E3DBCA9
BC940A15
BE789AE5
3E063612
3CF29B63
3D4CF3E9
BBCE8EB5
BD68B0E6
3B82FC99
3D31B058
BE5AD314
BE4BFD09
BE3A06C6
BBF94798
BB1EADCB
BE1F62EC
BD223DE3
3DD50101
3D8E049F
3D9147BA
3C5A77F0
BD6E6865
3D8F91B7
3D828258
BEA53807
3E00B06B
3C28F13D
3CE90327
3E0828C9
BE428118
BE7177C4
BCDADC0B
3C8523EE
3E1B81B8
BDEBAC01
BDFB30ED
BE007AAA
BD607B21
BE015149
3DA09EB1
BE152834
BDAB244C
3DA443D9
BE0DF654
BE949FA2
BE65BA1F
BA8F467E
3E26DAE2
BCBA2AFD
BE02B396
BDEE16E3
BC99A4B3
BE5DFF1B
BE439DA5
BE111243
BD7E7611
BC99E080
BE8CA8A8
BED4151E
BE77EACB
BD934415
3E4B9191
3C82D82B
BE51A494
3CBA75F7
BC8E1736
3C9D8324
BD4DF0D8
BD60943E
3D71C28D
3DBD71D4
BE12B6B7
BD2617EE
BC708D40
3DB9DB45
3E4F511C
3D0B6A98
BCAA66F4
3C913946
3D16F207
BB8DAE55
3D9B5202
3E69F797
3D9FB1D5
BC717D5F
BDDFF423
3A8F4702
BD7537BE
3DA6D984
3D621C24
3CAFA2BE
3DB21BE2
3D4843A2
BD80BF7B
3E33E06A
BE5262A3
3C8995E1
BDC3481E
BE262ECD
BDE44F48
3C9D296B
3DF1FED2
3CCC9AEC
BDB76942
3C8F2399
3E127354
3D14144C
BDD67114
3E028774
BE1B9EF3
BE79E4C8
BE19F825
3DBFB042
3E6BD17D
3E553EEE
3DB589B4
BD7E9670
3B26305F
BE615816
3E0422E6
BD18BE13
BE787E8B
BD157AB3
3D498736
3DBB398F
3D27BFB4
3E8ABABF
BC9FB558
3E0910E0
BD782279
BCB95969
3C806E30
BE44CA3B
BCD5A0E4
BD6D7B08
BE6D76C3
BDED6EF3
BCF933A0
BC622E67
3E05C56D
3CA23D6D
3D1B3F27
3DEF279D
BC9C7C68
BC25DADA
3D611A34
3DDBBDBD
3B27E3AD
BE5A9EF5
BE48B3E8
BD08365B
BAED7CA6
BD249612
3E295287
3E883F6E
3E1CEB9C
BD0259C9
3C93E68A
BB25334A
3D905A16
BCC6C99A
3CEC64AF
3CD63CDB
BC14E7A2
BCD5862D
3DEB6BBA
3DBD31DD
BCD34A18
3C79C00E
BD93A4B4
BAB8B154
3CC32A08
3DB34627
3EAA6F36
3EFA3A75
3E320509
3D3C6967
3DBF6512
3E4376C8
3958ABED
BE182A70
BDBED438
BDEB063F
BE62538F
BE5B3020
BE6B349C
3E43595D
3E21F7DF
BDEF9E8E
BE2631A8
BE462910
BE3FC5B8
3D3DBA5F
BD9F89E6
3E2117AC
3D05B2AF
3DAE242E
3DB83A09
BDC40426
BE8D56E6
BD15A096
BE323999
BEA51C7B
BF1EEC2C
BEECB6E9
BE8ED3D8
BDDF9C1F
39DFC705
BCD505DB
BE403D1A
BB7D5525
BBC127DF
BB0D04CE
BE122332
BE6896CF
BE459B6B
BF0DF116
BEF0F17A
BD4464E4
BDCAE64A
BE4EB224
3CE3EC51
BD965503
3D578DAA
3D902F82
3A51ADE2
3E109030
BE4A3270
BDD453A9
BE6EDE67
BF15BDD4
BEA41681
BCFA890A
BD88E46D
BDF58B5F
3CF93009
BDE21D9A
BD2EAE4B
BB843386
3C0C224C
3D4393EC
BD937F34
BEC679EC
BEFDEE81
BEE552FE
BDFEEE56
BCE10471
BD065814
3D8D5A62
3E20A470
B796F5F6
3BD00FB9
BDA68F17
BDD1C1AF
3D2AD1BE
BE205857
BEC4B04A
BE00751B
BE0847F9
3D3E4F46
3CEF61C8
3D472C97
3C0ED4FE
3E7C72F8
BC5AF44E
3EAFF646
3CD724CA
BE806972
3EA219DD
BD0C2B24
BE616E3F
3CB4A6E2
BDDD4829
BDC22C7D
BE641B27
BA1F8401
3D906955
3E2E6451
3DCDE3D8
3DC7C6AA
BDD410E2
BE899D8B
3E274C03
3CC11F7C
3C59D477
BD93A1B8
BE6EE7ED
BEB26BD1
3C855B96
BCD55FA9
BD6B4615
BE082A79
BD99C9F1
BCF747C6
3B9BEE91
BDE76728
BD11913F
BD43F0C6
BD60694A
3BE8BA8E
BD8E11BA
3CD2CD98
3E38547F
3E3FA99F
3DFD0EBB
3DE1A975
3DAA7405
3DA16A95
3DE5ED98
BC46B9B4
3D2A2C93
3E1AC049
3D2AE307
3DD49630
BCFD568A
3D9D81DC
3E1612B7
3D914F93
3E60743A
3D75B8AE
3A398508
3D92A9EB
3DC3512D
3DF52F9E
BCB12B7A
BCDCACB4
3DA8804D
3D8B4290
3E42D22E
3D4655D9
BDFD54D8
BD059E4D
3CE4CE4F
BDE202CE
BD8C655B
BD336263
3D85EA64
BCD4BE8A
3D89A2DB
3CA191B8
3CD2171C
3E0BD7DC
3CD4FD02
3B95D6D6
3D601B68
BDB062D6
BE20F51B
