BE0C3EA7
BD63D3DC
BD15CE9D
BE08E129
BDE14CE7
BE1BBE58
BDF2F6FE
BDA3994F
BDE17E04
BDB31C1A
BD7CBE69
BDC08E26
BDE974C1
BDC0D71A
BE04AC4F
BDAD6884
BE07A9FA
BE2DF8F8
BCEB8169
BCAB7E6C
BE99C793
BE9F900C
BE24A1DE
3EA74CA7
3E4155D2
BD773D37
BE34850E
BE406A00
BE831B7E
BE7D3281
BDF0129D
BE093059
BD4FD862
3D42E913
BE65C7D8
BE8EA769
3CFFCF29
3E2316C1
3E1895A2
3E930DEB
3E7AB5B7
3E7939FC
BDA8F9B5
BCFF61A1
BE355F0D
BD00B50A
BDAA2283
BE65F1E1
BED819D8
BF14D590
BEE3D99E
BE9695A9
BE092682
3E8E3F0C
3E403F4C
3D316186
3C8B0589
3DF03D55
3E0AD8D1
3BADD51A
BEA77117
BEC9AEF7
BE9F76D0
BE0678B5
BE352AC3
BED23B39
BE5F907F
3E8C59FC
3E2931B5
3E132718
BDEA16A3
3D14AACF
BDD8C0F4
3CAB21AC
BE28E7C4
BE4A5994
BDD79395
BD8A539B
BE4E94E0
BE3F39C0
BDC42384
BD00B111
3D912226
BD8C817B
BE393B94
BC4B2874
3C897888
3DB1AA63
3CD0DF2B
BDE48B3C
3D3607B7
3CBDA70B
BE6DBE32
BDDB45BE
3E16C33A
3DC0D145
3CA04688
BDAF20B2
3D839418
3CC189C2
3E4A07CC
3E05F151
3E1EE1FF
3DAD905E
3CF9EAC7
BCB4E989
3DAE3D81
3D9540BB
3E33CC1E
3DD47841
3D22CD3E
BE342FB4
3CABB6B9
3DA9455B
3DEB7804
3DCA4971
BCB113A3
BC059ED8
BCB982BF
3D0FB97D
3E0A4116
3DA50A9C
3DC9FF93
3CC4EFBD
BD6D56FE
3D1AA111
BCA16F2A
3CEBF760
3D5A10D1
3D3660A3
BBDF92C9
3D87AE5A
BDDB47D4
3D9FF9AD
BA276436
3C0F1299
3DDD9A5D
3E056215
BB2C7C59
BDE567EC
BDBCB3A6
BD4B42A7
3D4BA5B8
BD0CCF21
BDC885DF
BE1D81F0
BE1DCE1F
3C0DF885
BD9F66D6
3A443C79
BDD21CB9
3D4835C8
3D716361
BDD2769B
BE09542E
3D21300E
3CFA0424
3D504390
BD21D1FE
BCAF9166
BC93660F
3D09E136
BE491B73
BDCEA048
3C10F57D
3DDA6D84
3E646659
3D57064B
BE8AB7B8
3C4B309A
3CF5CF0F
3C9C6783
BD7DFCA9
3C849B1D
BD791102
BD66F456
BE190162
BD1E26FD
3D446BD1
BDBF1322
3CDB0488
3E08EF02
BE6DEF05
BDF5EE66
BDA318C7
BDB967C0
3CDDC9DF
BD2F71EE
BE71DAAB
BDB809A8
BDADD845
BE3121EE
BE7DB058
BE79987A
BE2ED52F
3E2ABB4D
BD8C59F7
BE1B281F
BEA4C35B
BEB366F8
BEA790A0
BD862DF6
BDBEC0D2
BEA48B21
BE1F5B6D
3DCA8A32
BE6B40E4
BE7D21A1
BDEE04B5
BE209542
BDF7C023
BCD579C2
3B27D5E2
BE050740
3C984148
3DAE9333
3E0EF463
3DDE815D
3E952B80
3EB5F378
3E210CEA
3E15FF1A
3D0C4335
3C9ABD2A
BE22A560
3D4FD1DC
3B970988
3D9C5429
3E5F87BC
3E524228
3E9E918B
3EE1BF4A
3EF7861B
3ED8A8C0
3ED2CFFE
3E4947EE
BC8620DB
BD7BE997
BDFF58CE
BDA9C665
BD40EC19
3E1D7C73
3E7CF208
3EC818C3
3F03F7F0
3EE7EE67
3EE146BC
3E8D9E44
3E821664
BCCE42CE
BCDC8BAB
BDEA6DF7
BDF73908
3D939180
3E02A2B7
3E5DC4BE
3E7C3253
3E7926B3
3DAEBDB5
3D301273
3E7DE9AB
3E449389
3E37EA8E
BDF1625C
BD73D9BD
BE7CDD44
BD4B9850
BB513AF1
3DF810AB
3E339623
3D6A15F9
BD84F272
BE057AEB
3E20120B
3DDCA41D
3DBC4F8C
BD07939F
BD8026A5
3AD32117
BE8307E0
BD20781E
3D997D81
3DC883FF
3D574A35
3D383790
BE576F62
BE4CE60D
3C8FBB18
3E4A20B2
BD068D76
BCB2F2CD
BDD14160
3E136288
BD113FE0
BBAA9887
BD4DE550
3D8529CB
BD78336C
BC4AB9B9
BDF08B45
BDD73FBA
3D825098
BCFC79A8
BE21EF37
BDC70BDD
3DF1779C
3D87B1E3
3E0B2F4A
3D873F4D
BCC26545
BDA31813
BD8119A0
BD52A30B
3C485188
BA2EC9E5
BD206926
BDEE8013
BE471BD6
BE76CAEF
3C95AAFF
3E855E93
3DE8F421
BCB417E9
BE4C2230
BD1EC5A6
BD848DC5
3D468235
3D1FFAE7
3DF12F24
3C4A5757
3C423DD0
3D64A788
BE205085
BDDB2303
3D0F3E2D
BC94707B
BDA4220A
BE0A1A13
BD043FBD
BCD3B5E5
BD322825
3E1A157C
3E34113A
3E34E971
3E541408
3E7BFE7D
3D03E4C9
BE004C24
BD021D2F
BD032038
BE512CF2
BDC3B67C
BC9F5BFB
BD42D31E
BD4955E3
3CFBADE0
3A55653F
3D8A6879
3E486CC8
3E8DA9E5
3E1289CB
BD74287A
3A0B4EB2
3D2CFA60
BE830FE8
BE0F7EDA
BDD3458A
BD41CEF1
3D25519D
BD6F2170
3D8192CA
3DEEA5F1
3DC35E90
3E258969
3DFDD726
BDE02077
BE3C2BAA
BBA167D6
BE21552E
BE17398F
BE04321A
3D1E5B6A
BC8D8F00
3CB226E0
BC018E4A
3D108B03
BA6DAE06
BE1B917B
3E21C788
BE6EDE48
BE6F9A9C
BD9A23DB
BDE11028
BDE606BB
BE17762B
BE80D0A0
BEA12B48
BE449853
BE50D88A
BDE5353C
BE19E45A
BE45EB8D
BD88E566
BDAB87E8
3DC3CB3E
BCBB934A
BCC373A0
3D2DB495
BC9C621C
BD8E28B4
3C3B9010
BD4C30D0
BE4D51F4
BDB3755C
BE336C73
BE63CD7A
BDDB135D
3D8E3E02
3CC5AB26
BC8945B9
BD85F587
BD04938C
BDAE5278
3C56F9A1
BBD72B17
BC670E87
BE187A1C
BE4004F2
BE46470C
BDF660B2
BD4C877C
BD612E5A
3D975C39
3E0C04D1
BDB6D75C
BE12BDF4
BE1B26BE
BDB5BEFF
BCA8C05F
3D451DEA
BDAFD779
BDC53A15
BDCCEF30
BD9BEE61
BD33D805
3D16DEFA
BC7E00BE
3D69C518
BD5BF0FA
3CCD86F4
3DA563F0
BC794C4E
3E013BF0
BBBFD1CE
BDCC4E88
BE1CD732
BE2AA7ED
BC4524DA
BC95DC5B
3C3EF90C
BDE02999
BE6750DA
3DC430A9
3DA67825
3D12475C
3BEF7065
BD692647
BD2AC96C
3D81CDB7
3D8E0E87
3ADACC36
3D91309C
3D65F873
3E0AC30D
BB202469
BE30A358
BD724629
BD89D34F
BD8E1393
BD9F9F93
BBA421B3
3E36642D
3DD2A9E0
BD06538C
BD12C38A
3DA70034
3CB18CF9
BD2881EC
BDB68BAA
BE284F12
BE905093
3D79100B
3E013527
BCD115C5
3DCDBA96
3E13A1E1
3E3D1265
3D616E5F
3DEE51B6
3E11F9CA
BD02ECCF
BD6B853D
3D1C7F96
BE388EAC
3D2AE3C6
3DB49BF0
3C3E8A76
BD7ED8AB
3E29F796
3CE6322D
3E0FC541
BDB102FD
3D3DE7EC
BE87747A
BD70C52E
BC9EF800
BD95BA2E
BE56D195
BD775CD5
BDCF01A0
3D8CDD50
BDB4A66E
BCB32111
BC1DBF14
3D89A7D8
BE230B62
BE2813A8
BEE9A433
BE9403A0
BE12A45A
BD71163B
BE6E6C17
BCB676A6
BE55F4EE
BDDA4338
BDA7D93A
BE6606FD
BEC227AE
BDDDE40B
BE209D36
BD610DE8
BE5257ED
BE4D5AD4
BDF35EC2
3C49EFF3
BD85A172
BE00D81D
BD347224
BE13CC16
BED6846E
BEA0D5DA
BED70EC7
BE250D13
BD2C0D26
3C8B98AD
BE954AE5
BE4AB10F
BD4F5ADC
3D11881F
3D4A8CB8
BE145B69
3D90407E
BCA76A2D
BE795F6F
BE5D1084
BD02F916
3DAE0704
3E26D213
3DFB6846
3E6C5EDA
3DDE75CE
BE8F0B6B
BDD8206C
BE2511D3
BE9EE477
BE210D64
BCF0FF05
3E050AE1
3C804CD6
3DA49F93
3DE86628
3DFD569C
3DDA8655
3E1075ED
BAEF766A
BE6B0095
BDF1E242
BE0EF54A
BD2ED1C9
BE4F756D
BE95856F
BEAAC59E
BEB9E494
BEB98246
BEA480EF
BEDF0E73
BD0637FF
BDCC2626
BDE1C7E2
BD4DDBA4
3E203B41
3D7AC2AD
BDC2CC62
BE4800CE
BDA2388F
BDAEF3E9
BD8E1972
3E81EAFC
3DCE49F9
3DE89645
3D7F34EE
3D8B156C
BCFA046F
3B61EA5B
BDEED05E
BBD3BBC7
BDCA27AB
3C8ECCE4
3CAC5F44
3DAC58AC
3E22432E
3E454FB8
3E0A6B8A
BCC7BEB9
BDDBD2A3
BD53C5B3
3CBA7831
3DF8E614
BD7E8184
BD10736D
BDDED0A9
3D0A0B6C
3D31BB6C
3E1B41B6
3C9FEB99
3C9049FF
BE0C6198
BD7CD299
BE7E1CA1
BE2B13E7
BBCF5B62
3D6B5499
3CC24855
BD943906
BE46C2AD
3D7BB453
3D887A69
3E2116AE
3DC4D6EF
3D7740D5
BDBE9FD9
BCA50804
BE020403
BE3871B6
BD6539C1
3C41BA2A
3CDC1689
BDF629C5
BE21E47C
3B883B5E
3DA6A5AC
3E3ACBCF
3E37FF22
BC76FF1E
BDF0DEED
BD1265FD
BD8D9586
BE081F3F
BE9AB2F5
BDB1AF6B
3E6BF782
3CBE7DFA
3CA9C0A9
3CFA3052
3E30C645
3E275E7A
BBC25799
BE1B9779
BE5126D8
BCD5D1E4
BD325838
BE4C7941
BE2F48A2
BDB04F95
BC8558A2
3CDA146D
3D17B9C5
3D335742
3E25A69A
3D07D230
BCDB83C3
BE3AD738
BC82F75C
3CB4D381
3D438757
BECBF8E2
BE65321E
3D06B969
3DEFECB3
BD115C9A
3D5A0DBA
BC6EFC49
3CC38DF0
3E00847F
3CE65E04
BDC48E02
3E3FAD50
3E21C641
BDA0690E
BDD3BB3B
BB6C33B6
3DA72E6D
3C97EC42
BDD6390E
BDB33592
BD594ECA
BCA2FE5B
BCB8D197
3AE37E0E
3CD91D1E
3E08C356
3D5CCCCA
BE17B01E
BDBB032B
3DEBF16F
3D0AD35D
3CA9B3B2
BD85354C
BE19994A
BD95E37B
3C1611D2
BE4B9037
3D61D739
BC5036F4
3CCDCAFD
BD45E5DB
BD5CAD98
BE134CB2
3DBD9015
BB6AA66B
3E3FAA7C
BC60AAB2
BE3E7F8A
BD573F22
BDAAA082
BD794B7A
3DF6D7EA
3BCD1FEB
3C624B59
BD70BA30
3CF0F11E
3D5A6E0C
3E09FEBD
BC7192AE
3DA13880
BE7D1306
BE16DC4F
BD8B35C9
BDB7EAB0
3DE87EE6
BDAEC853
BE4D868B
BE6AB3CA
BE3AB296
BE187C25
BD763537
3A298C24
3D2C7E2E
3DD262C5
3D651AB7
BE441D94
BBF9AB18
BE3038A9
BD039BCA
BD8809ED
3C19CCFE
BDC97B20
BE04E1FD
BDC08FA7
BDF0E372
3DD44AF4
3DC13A52
3E0422DD
3D3B464D
