BD37C5CF
BDF888CF
BD9ABB80
3BEEC98D
BE7F9DB6
BEF19862
BEAF5E23
BE2E36B4
BE56DE0F
BD5B2A16
BDDFF1EC
BE96CAC2
BDA47970
BD98A809
3AA0DAC8
BDDB222E
BE46E2CF
BEA48061
BF204575
BE6DD46F
BE111C92
BE72E3DD
BE98F94D
BE0B851D
BE7BBC9D
BE24CB10
BE280D66
3CBC2771
BD8665A3
BE620DA5
BE1FF491
3E167EA9
3E4D4CE1
3E1967C0
3DB1AAC7
3CD322F8
BE3ED988
BEC81432
BEE3ABEF
BE283412
BE430685
BEC27DE5
BE88EF58
BD53C9FE
BC92F16A
3E3B1B34
3DE22A33
3D088E61
3D17F643
BC788C4F
BE182BCB
BDDF6A0D
BE4E86CE
BE89DFAB
BE8DD4E5
BE9EA7F9
BE292517
3C0D6BA7
3DE2FDA3
3D19BFE6
3D71925B
3D66ED98
3D0BF06D
3D274164
3DAF4886
BD5DEABB
BDA59E99
BD8761D8
3D67B92E
BE8E99FD
BCE4E9CB
3DECB645
3DAB4F8E
BD77646E
3CA2883D
BDE89A22
3D3315BB
3D627029
3D054F13
BC191C24
3D03F4CD
BD1CDC67
BDBE9413
BE2C45A2
3CE93421
BC0E02CD
3D40C31D
BCDCFE9D
3BA5E137
BBA578D7
3E1D33FB
3E353E85
3E073898
3D3D95A7
3DC442D6
3D71C4D9
BE1FD984
3AFA73AF
3DB0C854
3CFDD9E8
3D0C7B87
BD9040DF
3CCA4652
3CB3EA49
3DB5C43A
3D8EB78E
3E403F37
3DB799B1
3DF650DA
BD56F5A9
BCAA9793
BCD2C479
BD906974
BDA0D07E
3D8674E9
BDB90C93
3D1F9F73
3CFCCEC8
3D908866
B80C26EC
3DC931DF
3D94AAF2
3992C631
BD292A8E
BD83FAA2
BE63052F
BD9037C9
BD332E91
BD0FC9B4
3D7C4D17
BD2454C2
BC835D54
3D4585E0
BD4C0A62
BDBC2146
3D81FB8D
BD899697
BE29F660
BD707C4D
BE7D2EE8
BE466553
BCA5BCEB
BDB77033
3D7D8C0A
BD1662E1
BC624D12
BD657EC4
BD6E8FA4
BE2B1731
BE112C71
BE0577A7
BD04DA99
3D316C82
BE49D2F0
BE1C03D7
BD15108B
BD31BA60
BC6D8F84
BE18FC35
BD8DB704
BD1F1075
BE1CD78B
BDA907BF
BE5DB03B
BD91CCE0
BD617146
BDC58369
3D900392
BE4780E0
BAAEC020
3CC1E5EA
3C6582A2
BD05737B
BAA2DA75
BD5273F1
BDF888D9
BDF16AC1
BDC43B7A
BD70B14B
3D6552FC
3CB4AEB8
3E02264B
3B99545D
3D24FBEA
3D47D01F
3DC01377
BCECF4C6
BDDCA6D7
BC79EACA
3D134A15
BD54318B
3CDF0A08
3DC4F264
3E37EB6B
3D471E40
3D7100E1
3CE44FD0
BCF38F6F
3BE3D7F2
BE474FEA
BF0F6FE0
BE44196C
BE4D68C8
BEDC0FE6
BED9F3D1
BE2D28AE
BE666099
BE57AF67
BC1B0BF6
3CD0EE0B
BCDE8D29
BDBBD581
BECC1B23
BE664F8E
BE5C9EF2
BDF89F04
BE8C3658
BEF09E33
BE8530F4
BED93047
BEC8EAD6
BF245E3B
BE3627E1
BD8653F5
BDFB195C
BEAB9601
BEB88EDB
BE99E1C7
BEB52A0C
BEC3FC1C
BEBDA225
BE3A4952
BE02EC68
BDA8871D
BC30493F
BDE7F4B7
BEDEE03E
BE27AFB0
BE83C634
BE729744
BEE0757C
BF131104
BF3C0366
BF229A54
BEB4EED9
3C8D14E7
3D4012B2
3DAB3ADB
3DCE4DB6
3DC55520
3CB5D6BC
BDB4681E
BE74E6E5
BDB7085A
BF0F96F2
BEC2CC9F
BEBADA3A
BE46E516
3B796A3C
3E4C21EF
3D8B290E
BBE3F393
3D04AC18
3CAB6FA4
3CCFB189
BE5AD5B4
BE2E3F88
BE0B9C41
BDD7D07F
3DA13E45
3D4BB02E
3DBBC406
37B589EE
3DBCD8EE
3D61898C
3CDE3B26
3CF857A4
BC468FC2
3CC1A86A
BD8FB4F4
BDD7D1A3
3D20AC63
3E2C69B7
3E6DD991
3D89FA93
3D4DA4A8
BE224096
3CB70AF7
3DE371EF
3D4C993F
3DA8D2A3
3C74E890
BD745F22
BC81CB0F
BDD3FB48
3D5B8E54
3E33A43E
3D7631E3
3DF1A0C1
BC049D59
BDFEED78
3DA9E149
3DF8EE46
3D3D1349
3D85C1AF
3B0BFCBB
BDC9F5E1
BE0B6496
BE2D4EFE
BD830B70
3E16BA54
3DAE4C20
3C03CBCA
BDE915A5
BE5C61DD
BD64ED28
3DF542A5
3D52A9A6
3C8AD1D5
BDC88680
BD1B0D78
BEB8443B
BD1504BD
BEAE692D
BD26CB1B
3CD26067
BD1FA6E7
BE3687EE
BE78B1C8
BB83E11A
BAD5A3A9
3D26CE92
3CAD1D25
BBF83DD6
3CE1A421
BEAE11C0
BE40FECB
BE4767C7
BD3EFB08
BDEF1213
BE2C31C6
BE22D0D5
BD874395
BB7DAEBA
BCDAFF6C
BD3B745F
BD04B076
BDEBF163
3DF79BAF
BE390567
BE1CFB97
BE4F7C2C
BE2CF9CC
BE90321E
BE8A171E
BDFB8AA0
3D81D9CA
BD7C7E3E
BD1485BB
BCDBC700
3A902390
3D08CD00
3C8A40F1
3E65D17B
BAE6161A
BD770010
BD6488D0
3DC58634
3E32FA5B
3E039DFF
3D5C96B8
3D97FE0E
3DF0628D
BC6157B3
3E25F258
3D633D9C
3CCB52C2
3E01D37F
3CEB852D
BC922044
BCDB6DB9
3EB057DB
3E493DB0
3E96DBA1
3E9FBEB7
3E4A1DE5
3E02CC51
3E3C97EF
3E38DD04
3DFD00E7
3DA8E836
3E3B8973
3D9891F8
3D5AC336
BD4E59EC
BEBF0976
BDC2D36C
BD099DD8
3C8CDC96
3CF64FF3
BDE06E3B
BE5AA612
BE986E00
3C0234AC
3D6640BC
BD5EA50B
BD6AAFFB
BDDBBD57
BDA1D61F
3E1D51C8
3CB0C9DA
BB96AB4E
BE13A960
BAFE6CFF
3DAB48FA
BD902BA5
BDA4A65F
BE11BA9F
BE0D7CFD
BD96CCB6
BD8EF8FE
BD24C104
3BBE9315
BD2DEB15
3D476594
3DC14800
3E1DDB2E
3E1D818E
3D4FF9A3
BDE85467
3B004800
BD275632
3CC39375
3D608F28
BE0C3404
3DDEBDD3
3DF64E4F
3DFBF92B
3E8B32E4
3D8CF88D
BC655B0B
BDFB224B
BE91A5A6
BEAD0DF4
BECDB564
BEA6EBCF
BE027999
BE16F73B
3C0893BD
3E1CF182
3C1CDC6E
3DF7781C
3E083E9C
BE0C3303
BDB78C08
BBE59580
BCA8348B
BD098637
BE83C2F2
BD07146B
BE654AC8
3A4C8A08
3E5E7AC4
3D662253
BD1BEF01
BE13D205
BE4D3ED2
BE86663B
BE3DF0AD
BE28242D
3D6F545A
3E1F394E
3C642910
BE186F08
BE319CDC
BE4DA676
3CC081DA
BDFC80E4
BE4E419C
BE530FB3
BE937750
BE7E196E
BE29BC97
BDA75A1B
3DFDEF4F
3E4E21E1
BC54A0D1
BEE46265
BDF5AFB0
BE4C9BF3
BE1BBE6F
BE412267
BE0704D9
BE571B59
BE72DEDC
BE63FAB2
3CACFA53
3DC0BD4F
BB8591E8
3BA2ED27
BEB9B2B0
BEC258BB
BE4E2CBB
3C6E7EDE
BE4BF05F
BD9F3B6F
BD822728
BE52F2D8
BE27BE88
BCED0DF2
3D9A8CAE
3DF9783C
3DD019AF
BE190D00
BF0335B9
BEE95896
BE4B4A7A
BE249290
BD37CDCB
BCBD42E4
BDCF88A8
BD4634B7
3C3AFD4C
3DC47D97
3E31CE31
3D6FA4E8
3C2929DE
BE0E0B68
BEAE5204
BEE203AB
BEAE0AA8
BE8C67AC
BE3853B9
BDCFCEFC
3D8526D7
3D86DCA5
3DC348A0
3DF5D404
3E023A36
3DD77828
3CB41A31
BDE0178B
BE3EB4A6
BEA7635B
BE80853C
BE45E870
BE0F54A0
BD780EC9
3DC8529C
3D71551D
3E051092
3E18334B
3E48BC1B
3C36B403
BDF715EF
BE8ADD9B
BE7AC7E1
BE01394B
3D7E4C45
3DC25B47
3D1C0FEC
3E00AE6C
3DAC1FD6
3D3C9AE0
BD8DD456
BE0ED93A
BE3275AD
BDF18015
3D9BFB68
BD41481A
BDC305B3
BE32836D
3E36B8EB
3D94847E
3D7C30C4
BD8B7699
BDAA0B86
BE3E8381
BE23F599
BE4EC6B3
BE511D3A
BE063E06
3BAC887A
3BBDEA80
3DC38B47
3E1579CC
3D8E3EB5
BBAFF2A4
3C15CD7B
BC7DDAC1
BE678EB9
BE4602A8
BD9696DA
BE9DB050
BEC1D400
BF06C1F2
BECF3A85
BE877797
BDF922FB
BDAD21B5
BE568416
BD87163B
BDD5FE83
BD8C7F53
BDF99632
BE328930
BE3EEEF0
3D390393
3CF58B38
3C9065DF
3BA36F9E
BD22C296
BD0F14A3
BEA38A59
BD867936
BE916877
BE689A2B
BD09651A
3DAAE365
BCC2B377
3D8B0330
3D0979DA
3D40C824
3C5F67E0
3DECE86D
3DFC1FCA
3D8184EC
3DA37F72
BE569A03
3D77FB9F
BE0268E7
3DDA5400
3CF733F4
3D8AFA1C
BD4BF563
BD44AC85
3DEC6BBF
3D404984
3C210D29
3DE3B4F4
BD4DF2E4
3D25F703
BCD7124C
BD9CAFF2
3D33411E
BD18BFFF
BD87B934
BD76241D
3DB4FDDE
3D1B9571
3E1267BC
3D5E7917
3C97BD16
3D4F3192
BCC40E25
3D581ADF
3D031C5F
BBE074C3
3DEDCAD8
3CCEE9EB
BD650592
BC823AFB
3C9EE318
3DCB5287
3DE95E5D
3E1B4DFC
3D0BA84E
BD616B0F
3DC26753
3CEC595F
BB84534C
BDA8DA76
3DFA37E7
BD400FFB
BD9F3400
BD96B22D
3D68E9F9
3E38DE8A
3E1E10B5
3DF9379F
BC07B66C
BD21C67A
BD17CBB0
3DE32333
BE164E87
BE4A4EA8
BE1891BE
BE5E6467
BDC4D300
BD34E996
3D6F87D8
3E4A76E3
3E24319B
BDD635CB
BDF0F054
BE2B6795
BE5DAFCC
BD3366DE
BDC7EB3F
BEC7E708
BEC56F7B
BE8DE6F8
BE180C90
3D6244E5
3E69DBD0
3E9E9E4C
3BBF4003
BE8238A2
BEA67F9A
BE81AE70
BE59FA5F
BE579EE8
BD3BACFA
BEA6878B
BEBDF152
BE9ED177
BDCACF34
3D86AD4A
3E58F9A3
3D1F7D14
BE5B1823
BE860B8F
BE708B52
BE557930
BE45914F
3C6D4603
3CB6313D
3C95F74F
BE81AD19
BE023F59
3D3217F6
3DEA5C9A
3DEEB141
3D4CD4FB
BD6DD1AD
BD23E3AF
BDD86DAB
BD617EBB
BE26B04B
3D3F2159
3D81DEDC
3DF37620
BD70CCE2
3D89FCC3
3DE5EB89
3E4BE588
3D33ED91
BCA64779
BD1BBA5E
BD3DB401
BDBA1E79
BACFE4E7
3D15B7C6
3D57189C
3D365D2D
3E3CD3BE
3C78B77D
3E579565
3D834461
3D57B473
BDBDBA27
BE4CBA0A
BBB11A37
3E1DE877
3E03D92E
3E1DAD01
3E3A7638
3E6E51D0
3E20E00E
BA586574
3E05D983
3E8102B0
BE136EF7
BD2F434B
3C890A63
3D4F7ACF
3E131169
3E0B4494
3D9AEB17
3E012B1F
3E1A7969
3E57C429
3E134181
BE15E6F3
