BCEF9130
BCEFEE68
BE066AD9
BE41CC92
BD221C16
BED754AA
BE69A958
BC935FCD
BDA26D7A
3BDEBF01
BE2AB65E
3D6E5956
BE00C4F1
BD91BB75
BDE88033
BBA4CC3E
BE8DF025
3CAB9D5B
3E4148F0
3DF6DF1B
398EFD3F
3E1D6E75
BBD0C2E9
3BE9939E
3E0A9E05
BD590439
BD9B94A6
3E162231
BD752BC4
BE2D7272
BC09ADE4
3D51DA17
3E08CFA8
39765476
3D7C4B0F
BC3D9783
BE1A0878
3C8B7810
3DA8FBAA
3DA7DE3C
3DAC96D6
3E151114
BDE9F934
BDB26399
3E464821
3DFBB99D
3CB21552
3CEDDD25
BDBC0884
3D09AC76
3D434885
BB39D87A
BC45EDE3
3DD58501
3DC6277E
3E11B6AF
3CE78E41
3D95D0B1
3D30A8E8
3D344A43
BD878DD2
BE0FC14A
BDAEBAAA
3CAF4154
3D18434A
3E1557E7
3DC5C5F0
3D9D4913
3E09A71B
BC8E5E83
BD32B6C8
3D42D03D
BDA2DF43
BE005D23
BE22D480
BD9B6E46
BD5041A3
3DE92797
3E00730B
3DC89879
3D88763F
3DECB666
3D483D2A
BD1D9C65
3CA8C344
3D8375C6
BE174071
BD8A60A4
3D28E40A
3B44B04F
3E1A7325
3D733D06
3D7D8349
3DC913E4
3D2E2C56
BCA329C4
3DF66774
3D7DA681
BDCC1035
BB1428F8
3DC35191
3E10BE05
3D022E12
3D514A2C
3DA148C3
3C9203D5
BD98C229
3A8E2538
BD6F7B1C
3DACA661
3DEDF5D0
3D9CCD47
BE018FB4
BCF98843
3D6AD2DD
3E8E4AFE
3E4E0061
3CA3D3E4
3DC530DA
3C21E9B6
BE08F551
BDC69C0F
BC90FD37
BC8CEA0E
3D4235B0
BE707879
BE182315
BCB90A31
3DE78BB8
3DA15D62
3CA065F3
BD58E34D
3D2035A7
3D35F853
3ADC9B97
BCF7973E
BC85464E
3D4F3FD1
BD88E25E
BDFD8FD2
BE066783
BD06A218
BCB7939E
BC2144FB
BDB2C433
BE0C8BD3
BD369D4D
3D1EC2BB
BD8E6CF5
BC2C486D
BC65D4A6
3C40D161
3BBAF3F8
3DC59835
BE15D68F
3D69891A
BCEE6656
38FFF3B9
BD32B676
BC888DA8
3CADDC17
3C88EDDA
3D6DC45A
BD452CD9
3D4DCF07
BCAE2D48
BD3010CC
3C17EB50
BDA7590F
BE27C3B6
3DD311B6
BC38A8C8
BD6FCF7C
3D38D72C
3B7FB4E9
3DAA4062
3D98DCBB
3D348225
BC42F7D4
BC8A7AA4
3C734C7B
BDAB3B48
BEA2D842
BD274AEB
B9245497
BB3C3088
3B89BFC9
3E09FA1A
3CA94937
3E0737FA
3E0BE1E8
3D62DC29
BC454646
BD018210
BD893907
BE7E5FB2
3D10AFAB
BAD2434C
BC2B9D79
BDD1857D
BE726B84
BE8D60C3
BD19E828
BE32A014
3E1ED28F
3D2B2510
BD35CE64
BDAE4B0E
BD97A05B
3D54B41B
BDA43287
BE5E8FCC
BE6C5A5F
BDE5033C
BCF16AA6
BE00BD17
BD284F87
BE09E86C
3DACA069
BD3BD2A8
3D327ED4
3CBC0BF1
3E6ABBA8
3E025425
BE14E096
3CE85F6E
BE01B79F
BE3473FE
BE7EAE5E
BE6B68BD
BD54F5F2
BDE81A65
3D3A1B53
BCEC2EF5
3D953C2E
3DB7E163
3E354316
3D1C3062
BDDBD37E
BE295626
BE158EFA
BDA317F4
BE08AA74
BE160E21
BE3352C7
BD9F646C
3D8B9A75
3CD4B2E2
3D78F6D7
3DE705A3
3E2E0134
BD77AAF4
BEA5E730
BE63BE99
BD4DB538
BD020ECD
3AB7E5F9
BCADCE9D
3D7C435F
3D0FC739
3CC23E44
3DBC24D3
BCF224C6
3D9B7C6F
3D37A729
3CA0269D
BE5B6C45
BDA9BF7C
3E1D101D
3DBA8076
3DBEE642
3E0FB265
3E24B505
3D227785
BE074525
BD8AC7A2
BDC53A6F
BB753277
3E17C3AB
3D53FB67
BE898DDE
BE901122
3DE2E5D5
3DC99973
3E162840
3E192936
3DCB7240
3DA294AD
BE542B55
BCBA0624
BD16F8A7
BD20DDE9
3E6C6A96
3D514447
BDCAF4FE
BEB03F93
BE8544BE
BD9D54AE
3E23B021
3DAF4A19
3D1353F0
3D3B30BA
3D888228
3BC00209
3BC8290E
BD1021F5
3E00AED4
3E0CC5C2
BDD4B990
BEEA0C11
BF20242D
BEF691A8
BE05BA10
BC9216FB
3D48F4C5
3E361C45
3DCCC03B
3DBDF945
3D1C0703
3DCD9AC8
3CB0CD4B
3CE3AE1F
BE4D7B57
BEEF969E
BDA51120
BE283136
3CCB3F93
3D1430AE
3C16EEAC
3DFB1C09
3E221085
3DBBD607
3C8D9202
BD0679FD
BD3F1430
BE0350FF
BE4A9314
BE82DD69
3D86C1A8
3EB093D8
3E8322A4
3D97D6DF
3C681D65
3CF2C879
BDBD7387
3B7EBD63
BB976AF5
BDA5A255
BB88EB09
BD9AA694
BE0F84BD
BE79EA04
3DA33ED5
3E41C462
3DC59413
3CEE58DA
3AA23BCB
BE067E4A
BE1C9403
BD7E1AF5
BD007E9C
BD59814D
BCE892C3
BD7B055A
BD9B4BB0
BD2ED245
3D5941CA
BE1D722D
BE7853B3
BD95AD44
BCB9DA00
3D087BCC
BD830345
BDDCF43C
BD81433C
BC468DD4
BE01165F
BE4FCA70
3D3E0799
3D39E271
BE7ED2DC
BECE989C
BE7B6174
BE368E1C
BC7DDE96
3DB2CA0D
3D8039FE
3ADDDF63
BC58F39F
BC6F5229
BDD4E424
BDC8216D
BD754E88
BDBD4612
BDBCDCD9
BA8D102B
3CB169AF
BC562221
3D00DDF8
BD535149
BDF3E7ED
3D161B6F
3B2B589C
BE0182B5
3D2DCCF3
BDA75A19
BE329D09
BDE8C5F8
3D6FEE25
BB01D6EE
3E167D45
3CDA97FE
3D8F2CF6
3D8149AF
3E103984
BCB6435A
BDCCEC4C
3B9498A6
3D09062F
BE85DB4F
3D40045D
BBA1536E
3D799BD4
3D58CE2D
BD269D78
3B8550CD
3CE364EE
BE0DEA5E
BDB1E765
3BA928C1
BD9344E5
3A94B084
3E20F489
3E77A09B
BE36A44D
BD89A188
BD6535B5
3D005CFE
3C69B1C0
BD4354E8
BE922935
BEA7F5AC
BE602CEC
BE0F63A6
BE0245D7
3D929787
3E7745C4
3BD41888
BDA0332C
BDE92069
BD731419
BCF37C7C
BE45EADE
BDCC21E6
BDE81AF1
BE21B5E3
BD91A107
BB29887E
BD814BC7
BC3E426D
3D1208EF
BD59044F
BC1935CE
BD0A8737
BE1E63CE
BE553672
BDB94324
BE09608A
BDF12F42
BDD5614F
BCE88D84
BC807220
BC7ECCD7
BEBDE690
BE2C1515
3D507810
BEAD8CC9
3D0E0724
3D24B958
BE0E6DAC
BE24AAC7
BD264E2E
BD5E3B34
3D7E9C1B
BD585B84
BEC8FA3D
BE31BAD4
BDD42365
BE9CC076
BE4C52C6
BE4E995D
3DA32F34
3D7941A4
3CFCA81D
3E143EFD
3DE19887
BE7FD7A8
BE4DC1F5
BE84B341
BE4DFDB9
BD296993
BCA9B2FD
BD60BEC3
BDDAC93E
BE092829
3D8240CF
3DA8E5F9
3D943822
3E1FCFEF
BDB90A42
BE72E872
BE3DA304
3D378F4F
BC936189
3DE0A60F
3E12C2D7
3DB473C5
BE19CB4A
BE1FA81A
3D7981DD
BA9DFC2E
BD7C0D83
BDD00340
BE916AA2
BE667E48
BE504B08
3C863426
3E2D0D8F
3E43C33B
BE1A7F97
BE9F5419
BE96DEB2
BE7F7C84
BC362BD3
BD9DE744
BE425706
BE16E84A
BE95AC6A
BE8515CA
BE3CF65B
BE70FB87
BDDA66D7
BE428EEF
BF063851
BE88A344
BE4C2622
BED8AC3B
BDB64895
BE4B4522
BDC232B5
BE352D2E
BE260AE5
BE3806BB
BE0508D9
BDD9DA12
BE51E4E7
BDC8BC54
BE241A71
BD0748F5
BE5C01A3
BDC49E68
3D56B3DB
3D8FBBAE
BBC20993
3DD2D0A9
3D95A07B
3DC879CD
3D2CDB35
BC6E9F29
BD6FC889
BD2F3933
BE0FF5F7
BE1D74AD
BEB24CBC
BE82900E
BD1282CF
3D7DE92A
3C8599C8
BC92269B
3D95506F
3D0808FE
3C21F90B
3DEF3280
3A61B7DD
3C0A92BA
3D9CFCC0
BD7EC3BF
BE896902
BCEFB5CA
BE10C28B
BD819078
BE15CBE6
BE0FC38F
BE041A24
BDD32A0F
3BBCF464
BC8E99B3
3CFE29F6
3E0B844B
BCF3EA07
BCB2D63F
BC1B36D5
BE51D3DE
BE3A107B
3DB9B651
BD1D92FF
3E070A63
3D180027
3D1C12D0
3E0AA108
3D88ECC3
3A8C96A2
3D9DF176
BD6CF5B4
BCD58C49
BD301DD8
3B3B45BF
3C9E515E
BD3E0B0E
BD95B4CF
3C0C2575
3DC4DE58
3C5B9B03
BC3BE432
3C7533C6
3CB85378
3D321E02
3CE1DB6D
BC38560C
3D055703
BD09B048
BD832527
3B0F046E
BD94FC8C
3D8E49FC
3CFA4AEF
BD17DFDC
3D68A42F
3D20B886
3DB59B96
3C5F3D68
3C2EF5EB
BD51FB77
3E2D9DE6
BD188456
BAE4FE6A
3D062B05
BD5C89F7
3D6E596D
3DC15255
3E218B98
3D668C37
3CEB85E0
3DE054BC
3E46F29E
3E203DE3
3DABB2ED
3D6642A7
3C817600
BD3389FE
3D476CD5
BD13EB27
BCB3EDC3
3DB955D5
3E6EC579
3E47D778
3D60AD7F
3DBF88B5
3DAB8E2B
3DDFADD4
3E29CAA2
3D98D098
BE2BA394
39F0D7B9
3D1076C1
BD8F4860
3AA8A5C9
BC9090DB
BBCE27A3
3E01BA20
3DB35123
3BF23C99
3DB3E65F
BD9326D4
BDE387C1
3D0CC9C4
BE1B5C2A
BDBABE89
3D6869F2
3E429E37
3D846486
BD54813B
3D8510DA
3D455E45
3D7B6735
BD08EFB4
BCF910CC
BD983726
3D665AF9
BE904876
BC08FC46
BC02A2B1
BD4E489C
3B49DE0C
BD58A913
BDA5BD85
3CC079F1
3DDB0CE6
3D31CDB2
3D815C3E
3DF1DEDE
3DE74980
3DC7A8C6
BD65FB1D
BD8567C3
3D632B1F
BDA48736
BE79C9A9
BE208CE7
BE3DC5B3
BBC9BCD7
3DB7BAE2
3DB9D69B
3D235885
BCEC3F3F
BCC872FD
3B6D8564
BD83BD5C
BDD027F3
BDA89EC1
BDB5EEBC
BE036D62
BDDC345A
BD482D6D
BBB7ADDF
3D7830C6
BCA23E1D
BCEAD747
BD822751
BC64F1F1
BDCA442E
BE42C42B
BE71FF86
BEB3AFC0
BE9CA5FD
BDE48CC1
3C858BEE
3DA470D5
3C8F9DB7
BC8F5793
3DA82C87
3D98993D
BD4EDB51
BD982A60
BCCAD6F9
BE5B135A
BEFE3650
BEF9A9B8
BEBD86C6
BE221FC4
BDACCD35
BCF33B90
BD1771C0
3C084D2E
3D2E7348
BDF21CA0
BE9FA0EA
BE802358
BE660B9D
BEA1AA45
BBF1E17E
BD274730
BD50CD2E
BD8C8F70
3C680C4F
BE0C4965
BD0ECC25
BE246AD3
BE627435
BE113F4C
BE748491
BE89A7A7
BEB4221C
BEA78E62
