3CE4B3DF
3D15F2D1
BD48023B
BE6C3A67
BE89DA40
BE9CE848
BE778625
BDEC07A7
BE1C4589
BEBEB1AA
BEC1889E
3C0CC3C6
BE81FC8E
BE0850E4
BD3C6BA4
BC2376D1
BD9BBC4F
BE090D58
BEA9E9CB
BE90A612
BDE33638
BD899310
BE07E50B
BDDA4591
BDF0D88E
3D04B619
BDDDD573
BE5F8176
BDD30A30
3D60C340
BE3C9F50
BD69AB09
BE21810B
BE0831DE
BE7F4CCB
BE9F898F
BD7D392B
3DAB751E
3D61C70F
3DBF7428
3DF39438
BE994652
3E616961
BDE2B366
BD90F654
BE370852
BD94A528
BD8AA29E
BBFD6DCF
BD7D7CE7
3CFB0306
3DC16A2F
3C3BE3AE
3DA354D7
BDB853F2
3BB00E6D
3E442AD6
BD56B53A
BD6970A3
BDCF5F8C
BD0FA7E1
3DDB3F17
3D758509
3CEC5B7E
3D9FD864
3E018D27
3DA06012
3D7C589A
3CE8ACAF
BE1C2DE9
3D368C30
3D7598AF
BCEE077E
3D901220
3DBD16B2
3E27AA01
BCC88FFC
BC8FAB2A
3D9D8291
3D348CBA
3CA01CB4
BD9A4124
BD7819F9
BD9D7420
3E53A6A4
3D4A0CA8
3C4C6A73
3DF2C926
3E26D613
BD2CFD44
BE2A9AAA
BD0440D8
3CE9DFD5
3D546084
3D19D5FC
3D017D9F
BCC29949
BE13F512
3E441037
3E240815
3E25F608
3DD25629
3D7DB4A0
BE832F74
BE51B7F2
BDF1029D
3D6CC15D
3DD01BA6
3C999D05
BE319C66
BDF48B4F
BE9CA71C
3D7BD58C
3D392BE1
3B3885CC
3DC02DB3
BD782C21
BE68E328
BDEC66F1
BDCF388C
3D6C1FC5
3DD5C22D
3CFCD342
3DE123DF
BE2B29EA
BE347C94
BE0E7D16
BD8434BF
BE090DDB
BE1315FE
BDF67C40
3D035819
BD35135B
3BDD5826
3D58C14C
3E24FD07
3E1B32EB
BD36E4F5
BDFB734D
BE621302
BE9C9E4F
BD78921D
BE0B2C14
BB271F74
BDCB415B
3CEC8786
BDC4A0EB
BC369B47
3BE809F1
BC92AB8A
BD8B0E13
BC3BF240
BD6DD7CD
BD49A33C
BE624472
3D5F8045
3DDEF2CB
3C2E8146
BD77CAE4
BD0AED8C
3CB92A65
BD211CA8
3D53AF57
BD8B103D
BE059E0F
BE1FD99E
BE275828
BE620460
BD304115
3DF8DF24
3D2ACB86
3D677F21
3D8AD76E
BCA254B8
3D88849A
BD1EA52E
BD431510
3D84AC75
BD2DC369
BDA3A350
BE90234D
BE7B9E20
3E08D5C8
BB9AAE5C
3DC11F95
3DE33B40
BC3F8AA8
3AEE407A
3D1F7FEE
BDC92B47
3C95A440
3D782933
3D3E3335
3D87DAA9
BDA691E2
BE3D1644
BC05C1E1
BDE2C416
BE835A2E
BE765BE8
BEBB264A
BE5DFB3B
BDDE066B
BEF8E3DC
BEFE8FEE
BE95F6DC
3CB4A09E
BE681C5C
BE03EA73
3C548248
3E26F76B
3D9F6210
3D93E120
3C217B3A
BE47F2E4
BD80F476
BD7DFB2C
BE9B8421
BE759F84
BEBBB532
BE2B110F
BE5CBFDA
BEFE6594
BD4A6E5D
3DC4957E
3CDFD2A9
3E169796
3E59D478
3E0C4618
3E6D40E6
3E50FA7A
3DC77518
3D2B953D
BE2570E6
BE506BE9
BD026808
BF119D48
BE7BE049
3DF0B894
3D9081BA
3E7E82A0
3E8D7AC8
3EA5FBEC
3E202E92
3DCA12DE
3D3DE03C
3D6371B6
BB867980
BD58D238
BE3EE51B
BEB8AB34
BDB60CDA
3E909DB5
3E573F28
3E8F17BF
3EA4E757
3DEE222F
3DA6A577
BDAD8D1D
BCBB6E98
3DD8CC96
BBC9D8FF
BCECE3D9
BE4A8453
BE42884F
BE8D0E47
3E91C828
3DE5CB22
3C1C6E82
BDED9B94
BDAF9ECF
3D044B33
BDC26F63
3DF41FB0
3DBC50F5
BD028E1D
3CB2CD52
3C0DDDDE
BDB5EB80
BE0393C6
3DBA78D5
BE16DCF3
BE8D6CF9
BE2ED2C3
BE37926A
3DFBC456
3CA3DD3A
BCF49228
3DA0AC40
BC8A86B2
3C763B0A
BDB1415E
BDE5E0CA
BE1762E3
BCB14828
BE9D9D9A
BE16BBA6
BD6704E1
BD146F04
BD6D3712
BE521F31
BE3EF47E
BE44670B
BE6032B2
BDB1D4B0
BD85D761
BE8FBF4F
BE63749C
3DDCB762
BE92A4D2
BE2AF21A
3A20EFA0
3CC3252D
3C45442E
BE460DB9
BDF3077D
BE1574EA
BE2345DA
3C8CEF36
BDDA9D1E
BDE4CCF3
BDE1AC9E
3CBA1B32
BE269CB2
BBE43C98
3C8E218F
3DF58DCB
3C49D48C
BE0F9B78
BD9E08F2
BD99BFF0
BB53747B
BCFD0338
BD19D6ED
BDA77D08
BE547601
BE1BEEF0
BE5E1D15
BDFF606B
BDC388E2
BE85FAA4
BC9B1573
3D54F55E
BC68A267
BCEF662F
BD876222
BDBF0064
BE7B44FC
BE8BD784
BC353433
BB8E68BD
BE1FCAAE
BE805BAF
BD95BF14
3D9AD3B3
3E27BD50
3E348A64
3DA12AD1
3C911C00
BCBB1559
BE0ADBEC
BDAB14E1
BE932576
BE5B2353
BDE22699
BC067E7E
BDF41DE7
3EA51F08
3EB96AD3
3E5EA818
3E68929A
3E6A16C7
3DBCD996
3D52362E
BD6E8A64
BD8AB47A
BE74785B
BE3BEF0A
3DA0D4E5
3D2DEF61
3E730A5E
3E7A855C
3E9D448A
3E8EA043
3E2E53A2
3E451C48
3E0CC38F
3DEA5C05
3D872ABF
3CD92ECF
BD7E8DB9
BE146F4B
3D27B676
BD92BB9A
BEA17EB2
BED23405
BE7EF097
BD3CE5A8
3D6E3494
BE2DBADC
BEB59B86
BD905655
3D838E3F
BDC80450
3DAEC8EF
3D582E6E
BABF047A
3D8EE06E
BD2C3121
BD7691FD
3CED70C0
3DB2AE14
3C942DF1
BCB64B41
BCFE8113
3998F39F
3C5AA3F1
BE8B4F01
BDFC5136
BE052B6A
BCBF4A36
3C487609
BCD47348
3DA3002F
BBA68263
BDACCF15
BDACA33E
BC1FA3DB
3DA9A66B
3C742F09
3D806832
3E03DF0C
BCBC4B28
3C994FE2
3D660A6D
BD107A63
BDA85E2E
BE665EB2
BE10DE65
BE2F3202
BDD18FE1
B904963B
3E12513D
3D98A48F
3E8D8B7A
BDBD4653
3D775C85
3D9DDF9E
3E087A56
3D6B3C87
BDEFB2AE
3C1219A1
3DC75101
3DD525DF
3EBD42CB
3EB48788
3E6BC75B
3E4462CA
3E0C2CB7
BDC4C477
3B008102
BE60BEC2
3E2CD6E7
3DF3427D
3C680BAD
3D66716E
3E866972
3E88F100
3EB61D3E
3E7EC37D
3DBFC549
BD929CD0
BE196375
BE51C49E
BE1A5C0B
BDEE9C92
3CA7486A
3C00A4D3
3DAE3B0A
3E8F3C5F
3E89886F
3D60468D
3E6701C7
3E81F53F
3D7298C5
BDBF6C97
BD9D7D76
BEE0AA47
BE82C3A7
3DCDCA5B
3D8775C0
BCF0D95A
3E0A998C
3E6BFA99
3E582117
3E0ED29A
3DB61BEE
3E267BA2
3E75D083
3E3B0CF2
BDF59D59
BE21B042
BE99B2A1
BE773550
BD23D979
3CD2E888
3DCBA375
3DDDE89F
BAE1AA7E
3D6A4F90
3D1093C2
BC110634
3DD551CE
3E251DDF
3E5DD893
3DEB58A9
3E31F223
3E3E010D
BD841E58
3D4B6309
3CEDBFBB
3C1D4D21
3D1FC2CC
3D994804
3B9EB0DA
BD9C4765
3D74E5C1
3D9C5056
3E0C1138
BD974920
BDD92572
BE63B10F
3D1B93B8
3DB6B73C
3DE28622
BBCB70CE
BC65B879
BD6A5EC4
BBDFE928
BC8E293B
BDFCAFFB
BC3685FD
BD892E79
3AA5781F
BDAECB24
3DC6339F
3D9168EC
3E1A3684
3DDBEC5F
3DC0755A
BC90923B
BDA50F19
BDE358F4
BDF5D3C1
BDBEEF0D
BDECAD88
BE7256A6
BD601188
BE02C655
3DFCAC7D
BD88E032
BD8F2F5E
3CA8518E
BDB1204F
BE79210A
BE223E4A
BE4063AF
BE016751
BE0BFB82
BE0A5FEF
BE117EEE
BD627D14
3D1AD5C7
3DA35388
3E4991FA
3DF79B63
3E513F1D
BD3670DC
BDFEC0EE
BE399A92
BE5C7C49
BE36BCDB
BDF4EF09
BE58DBF4
BE7DF76E
BE9913B0
BDAB5C35
3E038F43
BDCE824E
BDE2F91F
BE89BCEF
BEC77796
BE93C899
BE7E4FF2
BE7DBAC0
BE89B7A5
BE7A1503
BD3B9873
BE8250B7
BE5D4583
3D590A0E
BE221C59
BE2837E7
3D9759F8
3D113523
BDBC13D1
BB11E083
BD20C5D9
BD9FBD71
BD0E17E3
BE4A2FC3
BEC241C2
BD8AB8E4
3C65B0E1
3CC63B0E
BDDC1AEB
3CBE3B1F
3DBE0720
3CA535B6
3DD2ACA0
3CFE5AD3
3BD99978
3D00328E
3D191AB6
BC08AFD1
3CEB7F50
BDBF7F40
BE34B774
BE8838EA
BE4D285C
BDAB6B2A
BD2F682D
3E029397
3D66EE3E
3E38F945
3E13FF35
3DD41993
3CB00139
3D6F089D
3DCD921D
BD459D72
BD9BCACC
BC4D1003
BE427A81
3E1C063E
3D05B6AA
3E048F1F
3E65FD70
3E49A50F
3E081159
3DADBF11
3E1FA48D
3D6DBB63
BC8CEA67
3DA8144D
3C2404AE
BD680FE5
BE357D5D
3E1C23D4
3C95998B
3CD1E9E6
3E3B1C49
3D6BAFF6
BD99FB74
BD54484B
BE15EC3F
BCC73786
BD122C65
3BECD8E5
BB2D6AAE
BE35AD87
BE2386A4
3DD62601
3B0A081D
3C4AF236
3D2FE41B
BDE5B438
BE93DD87
BED47BA0
BE72862C
BCB818AB
BD1C24E0
BCBAC4D7
BD7973E1
BB42C6F9
BCCD4D4C
3D5EDABA
BDBBAD3E
BE052534
BCF04AFE
BC8E8483
BE93736B
BEC9C1FC
BE5CE925
3E1320A0
3D632B20
3DEC0097
BC334147
BD62215C
BE899948
BA5374B5
BE0E66B9
BE2A8829
3C908552
BE190451
BE751B78
BE8124CB
B99E7CA4
3CB11A1B
3E11B77C
BD85FE01
BCA5C9ED
BDA84B59
3BB028C4
BE3B3268
BD4FA1D7
BDD03866
BDBF534F
BE28A9C7
BE9DB835
BE8F649D
BE22C7C7
BD5EA3F9
3D0895A1
3CAFD044
BE113216
BE37EB9B
BDFE9BBB
BDB2D707
3D90276F
3D253935
BDCC9687
BE38F4A9
BEC4CDEB
BE9C65DC
BDFCC271
BDB4BA80
BE46FCBD
BDDA396F
BE35383A
BEA2623B
BE41ED6B
3E60C52B
3D1B5FE3
3E0B6EA9
BCAD0146
BE7D228D
BE97828D
BE8FFA59
BE411A9D
BE7B1468
BDB79ECB
BDB36D5F
BD3391D1
BE7442D2
BE177668
3E0FEE24
3C34921E
BDC7229B
BC6208C7
BD9E2137
BE6DD685
BD0D5890
BDB24B64
BE2CD49A
BD3FF8C6
3D29D8E3
3E022D23
BC8FEA41
BD634C90
BE06A427
BE735519
3E45FE78
BBD9AD75
BDAFBA34
3D95D03F
BE053D95
BB72FBBC
3C48FDE8
3C03B978
3D4D3494
3E41E800
3D07376E
BD0E73BF
