3D868472
3C09BD14
3E19CAA0
3EA760E8
3E8924DE
3ED3AC98
3E849727
3E48632F
3E54236B
3DF2F1D4
3E95F5C3
3E0CA40D
BCC613E4
BE5606A6
BD952071
3D09C300
3E558DD3
3C6D9601
3DCB91CB
3E529B7D
3E1D2913
3D88B1D0
3E16212D
3C6AFEE2
3C1D862D
BBF71244
BDDC70F1
BD80DD86
BD36EEBB
BD13A8A8
3E20A24C
3DD797DE
3DD571E8
3DFC52FC
3E3477C7
3E202C60
3E2E9AC5
BD206764
BE1248CF
BCA29C88
3B2FAA7C
3C06676D
BBFC169F
3DC3A41F
3DB6CB07
3CC73D90
3D55D88D
3E132131
3D3096CA
3DABB0FC
3CDD338A
BE1A00D6
BD8CD99F
BE186871
BDD0BD2D
3C1EF6AD
BDBBE12B
BD10DA51
BC3E5845
3CF313E8
3CF5A2E6
3DB5C3EC
3C1D8632
3BF5B3BB
BDB10327
BE33D8F8
BE8B0C14
BE41D537
BC69F43B
3DF492AD
BDD29CAB
BE828631
BCBAB1B3
3D8365E4
BD4EBD07
3D74DE33
3D9A6F5A
BDAF8552
BE3694BE
BE642FB2
BE44335D
BD812C7B
3D17EB3C
BEA9D84E
BE97FCBB
BE50E279
BC839882
BD491557
3CDBA7F7
3DDCF6D1
3CA412E7
BD485555
BE404354
BE30068B
BE1095E9
3C8422A6
3B0A29F4
BDD34194
BE8E3554
BD2FBE02
BCF14150
3BF815F1
3C3853AD
3D774AA6
3CCD82A0
BDBEED73
BBD9BF0F
3DDCE0BB
3CAB9D17
BAF91FA0
BCD2E5F9
3D0FCCE3
BE633416
3DE6297B
BCAE3D46
3C9F4190
3D12DB46
3DEAC9E6
3D8B121F
3DEBBC0C
3E310C48
3DB49B0B
3D6124E8
3D59360B
3DC5E87B
3E459035
BE4CE63B
3CF4FA7D
3C913AE3
3D3E78D5
3DFC5A75
3DB80251
3E37C933
3E154D09
3DB84724
3CBCE977
3A2152F6
3E283576
3D81CB3E
3D400E66
BDA948CB
3CD1E101
3CE471F3
BD6FE672
3DDDD36A
3DCF95CB
3DEF93CE
3E435308
3D5FA0E5
3DC589E9
3BEC896B
BD03D98B
BD6F7B7A
BDE3D413
BDEC8B3F
BE2B2367
BDA0BC58
3CA5C1A6
3D54664C
3D54313F
3D77E933
3E31DA0A
3D3755C3
3C6500B8
BD3AC45A
BE255A95
BD1BE74B
3B60439A
BD71D08E
BE7A6DA7
BDF4A454
3CCE714E
BC828806
BAED8A00
3D74F51F
BCA9F46B
3C538871
3CE909E7
BCB978DB
3C26AC95
BDCB2BAA
BE90C67D
3BCE022C
BDC78250
BEA2FC26
BE687A4B
BDFE0477
BE0BA562
BE1A9456
BE5CA3F2
3C623ED7
3D1984E7
BDE8E499
BDC4AA66
BE388EB5
BE5E91D1
BC9FC948
3DE81FDF
3E797F24
3E1F804D
3E0E7C8B
3E5F4618
3E0739C1
3E483B82
3DD4352E
3EA02D6E
3EAA2183
3C956F45
BE22148D
3D18D401
BA804D36
3DB70FE6
3E7AEC6F
3DAD483A
3E0770E7
3DEC82BE
3E39391B
3D2ECFA7
BDA16FF4
BDB93EEA
BDDD1E4C
3C32A9A4
3DD7A751
BD8D5331
3D73DC57
3D03EE79
3DF96E32
3C4817CF
3E167026
3D25E2BA
BE2F4569
BD24FB31
BE3A69E8
BE1C5613
BDB98AED
3BFFC6EA
3E171010
BA76E5E5
BD65BB6A
3D30DCC9
3D8E49A0
3C6E12D4
3D2FFAB5
3CAD2146
BEA11818
BEA216A2
BE7D8EF8
BD92626B
BD1B1326
BCA6F320
3DD72268
3DA9198A
BE11E5F5
BDEE887B
BC873CFF
BD3A5A99
BDE1116B
BDCC0596
BE8B3B96
BE9A5C52
BE97C2C1
BE16699A
BB0D249A
3D07FC83
3D78F57D
3D3ED047
BD915371
BE4A9F39
3E2D4625
3D9A1C85
BDE3AFB8
3B6C93BC
BE1D4AE1
BE5372AA
BE8F341F
BE45AAAC
BC454E26
3DD2F3CB
3C90272A
BE070460
BDF85EDB
BE9F5353
3E024F06
3DC0804E
3D1D89B6
BD629EC9
BCF18616
BCE7EB07
BE1F5100
BD2A228B
3A902866
3D75B86B
3E217F41
BE9E8088
BDD2FC70
BE1D3239
3E4E4034
3E11E628
3CB9E1C6
3E1B9E0B
BD2C6862
BDAB1BC2
BD3B5AB3
3CF49FAF
3D0C48B8
BD37E028
3DF6960A
3DB03CDB
BD3979CC
BD9D2DE6
3E822B3F
3E33EAED
3DFCC1E4
3DDD1B09
3E1A1C49
BBD01940
3DE6546B
3D02F6C3
3B8E5CF3
3DE8D906
3D012B19
3E45C1EA
BDF3F110
BCEE5D3B
3C4261C7
3E56F36D
3E1F3945
3DDCE16D
3DA89474
3D3A8046
BDAC2033
BC7966D7
3D673375
3DADF92A
3DB3BC2C
BAA72C36
BD1B2004
BD8EEE56
3C2E1E99
3E0959E5
3E01418E
3D539546
3E3827AD
3CCBB6FB
3D2FEFBD
3D385459
BD81A2FC
BDBCC5C2
BD956324
3DA44CA7
BCC1666C
BDE70112
BDC11D83
BE8818C3
BD530B29
3DB2BB3B
3CDB9C7C
3E22E349
3DEB99B2
BD918949
BCBD213C
BE06F1A4
BE01C2FD
BD134576
3D6B1A9A
3D825748
BDC1388C
BE0FE4DA
BE9CA08E
3DC97488
BDDB5BAB
BD364DEB
3D264FBF
3B6BDD18
3D1A7724
BCE00DFE
BE515949
BE4FF8DE
3DB7A334
3D0FA54B
3C819361
BE293D69
BECCFC5C
BE62329C
BE885720
BE43801B
BDEF89F3
3C7A9113
BD94C659
3D537E7A
BE79FBCC
BEC4373D
3D143C43
3E53D395
BB957687
3DC435A1
3DAA2883
3D80F4EF
3D0F0EE0
BD0F1DE3
3E14D383
3E7B794C
3E390784
3D84BFAB
BDCD6266
3E06B98F
3E4D8FAD
BD22B799
BC8F49D3
BD56C207
3C0D4006
3DA73B08
3D547193
3DD7AC4C
3DB71E01
3DE23726
3D07B2CA
BDB34BD5
3DAA152A
3DD09A4F
3DBEEC1D
BCF62F29
3C90D329
3D69470F
BC27B56D
3D66F3A0
3E1C9FCC
3C9DCD65
3D0E53AE
BDB48217
BDA12811
BE906BB7
BE7E7D00
BE93A878
3A4529CE
BD728E61
3D078600
3DBC3CAF
BD3F9CE8
3D1AEAD6
3D941C99
3D642BAB
BDC70C71
BDB496D7
BE3B86B5
BDB433D8
BE5176B4
BE35927C
BE4D786B
BD23C1F5
3D1B721E
3D86CE16
3DDD1248
3DB4CB82
3CC0D1AD
BD560805
BDFBC8AF
BD9B9CFA
3E3D1792
3E4250F8
3DCA3708
3E2A817B
BDF19F46
3CB25E49
3DEEFAE3
3E027C27
3D913DDB
BD7E2F8A
BD062A91
3D1D3CF7
BE1817FF
BD86491A
3E51CD32
3EB12D67
3E4A4D04
3D069A6E
BE8AA893
3D1D368E
3DD230CF
BC0FF062
3D8D75BA
BD5B3074
BB892C33
BD844685
BE15A1F1
BADF54D9
3E06D706
3D2C3F5A
BE9B1C42
BF0C688D
BE14A544
3CD101AC
3D4CD2A5
3D18F481
BD1214B4
BE326FEE
BEA893E5
BE800CDE
BE51924F
BD19B8A4
BDE0A4C1
BEAB0311
BF323B25
BEF03BBC
3CFFABFD
3C4600F1
BB841833
BDF2123A
BE03B7E6
BE927628
BE880CA8
BE2B1E1B
BD67C75A
BDCC1C99
BE958B85
BEB36C0B
BEDB59FF
BEBFA4D6
3C8A7DAA
BE2962E1
BD9CA673
BD614E55
BE2E73AC
BE964E20
BE80E247
BDE75EB3
BC9D3E8C
BC81EACB
BE72F547
BEA95709
BEA48B21
BE552F97
BC2AC633
BE05130C
3D3EA1E4
BDC37BDE
BD693963
BE0EFADF
BEADC19C
3BAEF6BE
3E36B437
3C5BD9AD
3B1E374E
BDE942C3
BE571C3D
BDA1D28A
3DE9F02D
3DDE2553
BD28EDA6
BE06FC9B
3DB97F39
3D7F4C6C
3D4F7226
3E601845
3E6FA782
3D78FE04
BDFD564A
BE4CE918
BD921DCF
3E18DB36
BDCE82B9
BE27F5A2
BD91F26B
3E105204
3C469A47
3E199735
3E5621F7
3E5BFE4A
3DFD2013
3D0F6AE2
3D1A18FF
BD8806CA
BE0242AD
BE2079DB
BCE823A2
BD838395
BE45BDB3
BDFD5316
BD6C3B0B
BD4252E9
BC592D40
BD88E6BA
BCD65F92
3BFF2D29
BCF8282E
BDB6CD78
BE1F4CC9
BE346685
3D82769C
3DBA9FDA
3DD5658D
3E0720EA
3E17F8D6
3E28EDF0
3BFF9D3D
BBE14B14
BCCA9C41
3DC7630D
3E863155
3E5008A2
3E0A226B
3C3D0E78
3E16F6DC
3DD81644
3DB1021F
3D982B67
BD7151CB
3D53695D
BD1CF5BC
BDA43B9E
3D91159A
3DB286CA
3E06219B
3E23AB11
3D7E6169
BD7B555E
3DCD8FFD
BD50ADB0
BE20421C
BE1865A3
BE08B63D
BE48380A
BD88AECB
BDF3AD31
BDD11E3B
BD604F46
3C8A0A70
3BA18391
3C7D55C3
3E32E5E3
BC2474DC
BE377250
BDDA401C
BE8814CC
BE7D455A
BE106DFA
BE7E05C7
BE48E7F1
BD5DB180
BDB85C6F
BD9D0746
BD95EB19
BC95628E
BC54A0EC
BDB45541
BE55D38B
BE55E7C9
BE25DBB9
BD9DDF4A
BE9A7B2C
BEACEC45
BE04DB1A
3D2A5A41
3D2EB834
BBBBE761
3C8C3294
BDD1D3A3
BE795CA2
BEDC56D2
BDF4B08F
BE15F49F
BCABC3A1
BDD3E70D
BDD813B3
3CCA5107
3AD24D3C
3E368992
3D897361
3DE7C1FE
3DFA82D3
3E0987AE
BE1693DE
BEE3A393
3D04D87C
BE420500
BE58486B
BE42CE82
BDBD31A6
3E03FDCE
3E13396B
3E64517D
3E35E8E9
3E2C890A
3E3291CE
3DE17B18
B980D270
BD19393A
3D5305C7
BE7B3686
BE317D7D
BDC4B38E
BD35211F
3E35D8E1
3E1A810C
3E4D43B2
3DA0B315
BCA7021B
3D3554C0
BD9BB41E
3E064227
BCA6935B
BE9444C2
BE8A1C99
BE429FB8
BE8357FD
BCDF9C7D
3CE82796
3E3BD1BE
3E4557BD
3C19D123
BB15BDCF
3D2C1750
3DCAE1FB
3CB23717
3DA9C19A
BE7B377B
BEE08E8A
BE429A0D
BDAE2992
BD88A669
3D8CC45E
3D33E572
BD1AB252
BCD75F1E
BC80DC65
3D11572C
3C76F331
BD8C0AD9
BE7F0ADE
BEED122D
BECA451D
BE4854CB
BD620CDE
3C6B6949
BCDE8BFE
3D4B61F2
BC170291
3BF364CC
BA3B4B35
3CBF9862
BE0B1ADC
BC9A9703
BDEDD8C1
BE12B6CF
BEE00C03
BEE973D1
BD368483
BD89A5FB
BC021E5F
3DEEF810
3D33454C
3C12DCFF
3BF30B7C
BD8A705C
BE4AC8DE
BEA65CCD
3D52EFFA
BE21B9E3
BE491123
3C160151
3C840F92
3D664036
BD16CA95
3B92FA16
BE33D1C9
BE45533A
BE913052
BDD4C879
BEA26E13
BE7B0300
BC0A53C8
3CADE358
BC5CD948
BDE9C866
BD2C44A0
BDFE5DF8
BDEF406F
BE1EC2BA
BE3C0B31
3CADCF45
BE969829
BE20B630
BE164ADB
3DD02748
