BD97C03C
BCADC969
BD499936
BE0F6C53
BC77558D
BE0E98F9
BE12F87C
BD277DDF
BD1812DD
BE37A209
BCB83DF0
BDDA5032
BD0A0A4B
BCEF31F2
BE2FAA76
BE16BBD6
BDD3A26B
BD32CB5F
BC9B4930
BE3EC5ED
BE440849
BDE6D7C7
BE06C984
3E22001D
3EA87632
3E44603D
BC8B60EB
BD034352
BE80DF47
BE4C0FF4
BE57A934
BDE28551
BEA152A9
BE9CADF1
BD6C1165
3C0AFC23
3D8D5EB0
3E0CEDAC
3E7B0A81
3E3BDAA8
3DB63F03
3D450252
BEE63ACE
BD79EE49
BD6C7244
BE36D618
BE5AC29E
BE77A188
BDC832CC
3E326842
3E8DB803
3E71DB0F
3E9B64BE
3E94AC47
3E14670E
3D210901
BEA4DFF4
BE313DFC
BE241E3F
BDC39BDB
BDFC9602
BE2E8EA8
BD5FBCE8
3DB91155
3DE370D2
3E49216F
3E9E8F1A
3E60A976
3E48897C
3DC5B488
BE763FBC
BE446CD2
3C07FC92
3D3D6D96
BB684894
BD674CBA
3D93E1CA
3C78B1F6
3D4DEFD4
3E1A1751
BCEF5227
3E61FFBE
3E75F6E2
3EA732AB
3CB02470
BDEDB742
3D8E9E72
3DCCC47A
3D8DDCF9
BC0B2405
3CAF4043
3DDC504D
3DB9ACED
3C16C2D9
BD5F7E3A
3D9A2563
3CAA2FB6
BD7B9302
BE0F8D6B
BD85ACF5
3D0E713D
3E3B4922
3E7DE6E0
3D90A61F
3B7C9E8C
3DAAD662
BDD12F09
BE03616E
BE884C48
BE90B220
BE6F793B
BDE12BF5
BD28F893
B967E670
3DAD5EAF
3D36599A
3E0AE487
3DAC2373
BD5A09CF
BE2139AD
BD61FF75
BDFD4F5C
BE5E3DA5
BE86FF78
BE4AF2E6
BD8231FB
BE40F7CF
3D857C8E
BC45C72C
3E077D04
3DE67520
3E0A5435
BB80FB2F
BDE79AD8
BDD9E14C
BE329F0A
BE218103
BDC19D5B
BE3635C3
BD2830AD
BE4DD968
BD467301
BBA44C77
3BB703B8
3D8DEC98
3D4D4EC8
3C26E08D
BC75804D
BD8F26A1
BDB08F23
BD215CF7
BDE8F357
3D710FD7
BDEFD868
BD9FF3DB
BD179855
BCEED2EF
BE06248B
BD838B55
3D3506E5
3DA35B35
3D3B1B18
3D82F5C7
BD961895
3C7D541A
3CF79D06
3D1C57FB
BCE1AFC9
BD7C938F
3D47BEA9
BCABD662
BD96B4F8
3CB8D70F
3DAB7DA4
BB68F064
3CCAC2FF
3E06E6B5
BBDCDF75
3E0DDEEC
3CE5AB11
3DDEF5A9
3D231C9E
BB77DD76
3D9DB67D
BE342D07
BC94258A
3D47D9ED
3B7389B4
3B802D91
3DE586D8
3E41EFFC
3E3A3AC8
3DFE6003
3E48E420
3E0793B8
3D3ABA1C
3E288136
3E0BC9B4
3CA22B7B
BDB250EF
3D3E77B5
BD1B48E8
BCCBC483
3D470358
3CD9B052
BD1B60CB
BD1AE0E6
3EA6D190
3E18762D
3D12280B
3C651E89
3D9182A1
BBEE8FFF
BCED6AA5
BD9DB2AB
BDC328E3
BCBF482D
BD04C72C
BD953D49
3BD68B05
3E86AAA0
3E0C248A
BDAF5446
3E3C641B
BDCBF0CB
BD86FC26
3D99F5CB
3DA1AC40
BBDC68F0
3AA058F3
BE288AD0
BE79EB6D
BEB8B267
BD8DF64C
3DBCAC4B
3D6D3904
BDCBC20A
BD7041FF
BE1178B5
3C94EA2E
3DAA6186
3CBB6A77
3DEC9505
3DBC6BC8
BD2578F6
BEA52CEC
BF2E8CF1
BF436115
BF009ED6
BE03D369
BEA0B231
BE365E37
BDCBEBDB
3D10DF32
3CB4E89C
3DCC9D16
3DD1BCCA
3E13D28C
BCD9CF80
BE831FBC
BF3A9FD1
BF420547
BF62CED2
BEEC871D
BF124CC3
BEBFFB48
BD801926
BD31D793
BDB5B250
3D68D6EF
3E1C246C
3E5C75C5
BD5D8377
BE81B0A5
BEBD5FDE
BEBFB963
BF0213DA
BE2E5784
BEB2C87C
BE90CBA8
BDA824F2
BD2A246E
BCA41B14
BDD330D6
3CC021AC
3DAE076F
3DBB257C
BC33AAC8
BC96B3B6
BDD5D77C
BD662F46
3D921A23
BB693D3C
3D4D47B0
BD0CDC19
BE30441D
BE4D866B
BE5DCB18
BE0C4E5D
BDE654E6
3C89006B
3D9F1D68
BD287B97
BA809FB0
3E3598A0
3D62FF19
3D8EA652
3E2DEA78
BDEB0460
BD7770A0
BDEC2AE9
BE058847
BE35F2E9
BD0E09F4
BCD55256
3D5AB77F
3E010468
3E3100AB
3E043363
3E192AC4
3B87736E
3DD0C63B
BCB537F0
BCFC6E47
BE2AAA99
BE616DDF
BE3577B8
BE373868
BA8CAFE7
BD7F349C
BCCE6D7F
3DA2A152
3E08E441
3DB69E24
3D2D3454
3D7E5065
3B0EB92F
BDB02F74
BDAF136B
BD32AAAF
BE6D8D21
BE8D32CA
BE0CFBD8
3C8F0B55
3D155EAF
3DF6F5F0
BCC6B2DE
3CC4B1BD
3A7A91CE
3DDEF074
BCE38AEF
BDE31B5A
BDF3716D
B9A39BD4
BE1FFA52
BE429147
BE702C03
BE5EB6AD
BDC879FA
BE107568
BD00CA80
3DBD9BE8
BD64F6E8
3E1DEE8A
3D5DD003
BDFBC7C5
BE05B8F0
BD7922EF
BDAFE984
BD89360E
BE1BEEB3
BE2C225F
BE971256
BECA52A0
BD2A03CB
3E620A3E
3E724854
3E738331
3E61BFD8
BD23F8FC
396E6056
3DD8FE1D
3DD9F8B5
3DED42E8
3DB9347C
3D8706AD
3D403B3D
BE4EC556
3DF1ED85
3E7CA20B
3DBED2B5
3E8E9E65
3E0F0F14
3D52DBD6
BC829BDA
BDDD2B24
BD1EF738
3D3D0002
3DA6D16A
BD2202AB
3D9DA9E1
BD2D3750
BD312C99
BE1537FA
BDCBF2A9
3D96BBF9
3DE59731
BB17D80E
BD42F83D
3CDB8643
BD98A95D
3D3D9C16
3CD0D7E0
BDEDE715
BCAEEA6A
BDDD0357
BE083921
BD20C50D
BE4E942F
3CA78B87
BDAB911B
BD3C7116
BC9B50EA
3D745F4E
BBE90D00
3C41188A
BD8BBD1F
3DA490F6
BC811360
3CDA058D
3C3192B4
BD30E3AF
BDDA941D
3DAF7AC3
BD975E9A
BDBBA751
BE0615BE
BD2B7B70
3C8ED419
BD303EAC
BCD7C8FB
BD529BBF
BD4986B5
BCD76C20
BDA822E5
BDC8EDCD
BC81FE83
3E1E077F
BE2866F6
BE2F38A8
BE08156F
BE231FED
3C8952C3
BDF09E86
BC0EC38A
3D7EF356
BB0AA4E4
BD6F28E6
BCA29AFA
BD2B037B
BD5B0D17
3EB279DA
BDE730E3
BE3EEFCB
BDD14B88
3C703FEE
3B53776C
3C8DB82D
3E06D3A0
3E74BD9D
3E3EBF9A
3D8832D9
BD56B4B0
BCF8F38A
BD8EEBDF
3D9060E8
BD8C10C8
BD9EA33C
3DCD2999
3E04BC44
3E2EABE1
BD6512F0
3DADE151
3DC2B17B
3E8AE7F7
3DFDB382
3D18DD64
3A7499FB
BC84B7FA
3E1DD9F2
BC9FA669
3DA19088
3E46C874
3E0E2966
3E162032
3D5FA309
3D9398D7
3DFD9DDE
3DE1B915
3DCD4EF4
3DD89FBB
3E0089BC
BA29C9B0
3E48735D
3B80AE1B
3E291D06
3E785B37
3E7D71BD
3E783EAF
3E21ECF1
3D715076
3CA00F04
3DF958A4
3DE4243E
3E02076E
BD61E92C
3C1FDB55
3D177871
3D902F79
3DEE32FE
3E19FC89
3ED38741
3E59072E
3E36BD91
3D8BF7A2
BDB7CD22
3E04ECAC
3D1FBB10
3E22A0E1
BDA0529E
3BB1AEA7
BD6C4057
3CD37F8F
3E75CABA
3DD5FEF7
3E0F8744
3E3BEEEA
3D9003FC
3DB4E3E7
3D6811D8
BC96AF3D
3DE6C1F8
BBDF4DDB
3D902431
3DCB9779
3DCBDDD0
BDAA249D
BD60D620
3C21A62E
3BA0FDC5
3C2E382A
3D56DDED
3DA3D50F
BDF3A0B8
3DC7F986
BCD266A1
3CAE7F70
3D240DCE
3E16EC6E
3E04C705
BD2142B8
BDDA67FB
BDD6AF45
BD50F0F1
3D81994A
BDAB72BD
BE53D270
BF061935
BE66D066
BDBA538C
3DC58248
3E090ABB
3E0C3444
3E50A175
3E3231DE
3E07F9FC
3CB664B1
3D9CC82B
3DAA1292
BD34B190
BD92A37C
BE2AED92
BE9729DA
BEF3E335
3D1D6485
3E1332F0
3E2E37AF
3E09B381
3CA823E5
BDEC00F4
BE386D70
BDB8978C
BE2DCE2B
BED361D1
BDFD73BE
3CABEED7
3E250495
BC882EE5
3E2A0191
39DBAE47
BE40802D
BDB9346B
BE7E0C57
BE584A18
BE439F5F
3D41F9F9
3CB91CD2
3DD3B508
3DDF7383
BE02F629
BDFAE10A
BE238B94
BD5BDCB9
BE3019FD
BE96EC37
3D87D022
BDD55B60
BDB95A78
3BA970A4
3D8E4E97
3CCCDFD3
BB5CF8D2
BCCF3730
BD643C55
BE54839B
BDD1FEC0
BDB8CBD7
BDA2B3AF
BE35093A
BD593BE2
BE5567E0
BDD797D0
3DB14B11
3DA4DD08
3C4899D8
BD90C595
BE667BD8
BE1617E2
BDF43470
BCE7E70A
3DC244D2
3DC4E755
BCBDF724
3D24AD99
BE49AB88
3C13BF5F
3D9A28BE
3E1D241F
3D2F77DA
BDDA09D4
BE53B93D
BE9B6A4E
BDD92DFF
BDA13529
3DD21FEE
3E61926C
3E50F3E2
3EAC9776
3C1185E5
BD853327
3C0BE53B
3C87D276
BD4A3400
BDD2799A
BE2BDB5E
BE46D700
BD804FF2
BD2C637A
3DD3B4F6
3E75B9B9
3E9F1C5F
3E9FDA16
BE322C75
BE3047C6
BDC059B0
3D95295C
BD0A878E
BDECD704
BE778865
BE2ADF91
3D83923D
BD8C504F
3DCE3C78
3E17491E
3E915CB2
3EFC99F5
BD012507
BDBD8C9F
BDDD06EB
3C62FF8D
3E0D8D2E
BE4B43F4
BE246103
BD1655FF
3DEC7951
3E0B6BD3
3DD17A20
3DA7E83A
3D956343
3E995C2F
BD808979
BDCA8C08
BE083FCB
BACAEDA7
BCE52DE9
BD75809D
3CD8C679
BD1A541E
3DB506E0
3D35E48C
B9968574
BDDBA74E
BDA89E19
BE3B5DFF
BD098EE3
BD8C5194
BD86CFAA
BE1E7A82
BE40A77B
BDBCE4A9
3D8A9917
BD672852
3D2CE6E1
3D555106
BD1452BD
BDDD9743
BDAD6C6B
BDFD827C
BD2402D9
BD76E50A
BE47A36F
BC8D2F36
3D249EA2
BD65E3D6
BD62102B
BCD7D0C1
BC90667E
3C2CE5DB
3C5D76E0
BDD01081
BEA1DE47
BE2D8C68
BD058349
BB1E3238
BE1155A0
BD09A026
BD3CADA7
3D7CFFEB
3DCDBCEE
3C870263
BDD7B65D
BD10AF10
BD405898
BDA92E70
BE42087C
BDF89844
3D357E89
BE25474A
BE56F735
3D564390
BDB957E6
3CAD9CCE
BD62CD46
BB71D5FE
3CDA5CCF
3BE1F8CB
BE2E792C
3C3891AC
BC8D2C3F
BDF6F800
BDD18F7D
BDB24285
3DE88DCC
3D93328E
3CEEB152
BB03DEAD
BBC1D720
3D770F48
3D560AA1
BC81EDBF
BDB92B36
BE1AE0CF
BDF5424D
3E1F1DC6
