3D6D7995
3D25CFE3
BDA150ED
BE3AD98E
BE7C3746
3A5C0007
BD90C6EE
BD40521E
BDE0F42B
3CC818C6
3B5D936F
BDC70954
BE4C0F25
3BC25CC5
3DD00C6C
BE3636FD
BE6D81F4
3C8D16DD
BD8EC875
3D09E6D7
3D1D9679
3D344A60
3D1D72F5
3CBB5F26
3CA99B2B
3C06C007
BDD961C0
BE225F2F
BE7BE443
B9D724B6
BC106708
3C335F56
3D151A34
3DA62EBD
3D980480
3E06EC51
3DEBDFAC
3D22EEB7
3DD8BB61
BB218D72
BD97B1CF
BE303B7D
BD78A98F
3AA7B549
3D7D5481
3E161654
3D7A264D
3DFC2E3A
BCD4CA3A
BDA03D37
BD02C041
BDB04A85
BE1FB268
BDC11BE1
BDE75258
BE693541
BD25C429
3D5E8E4B
3B26ABA8
3D81F996
3DEB6794
3CC813F7
3CCDFC1D
BE627E79
BEC53703
BEA7867E
BEB16061
BEABF4F8
BE73DD6B
BE4EB8D9
3DA63195
3D487143
BD9AA251
3DCDA2F8
3C1968AC
BC8C2AE0
BC9AAD06
BE1C8249
BE6C9132
BDC1AF7E
BE3156DC
BEC2A55C
BE976705
BE99A62D
3DB84CDD
BB38EFA6
BDF0C7CF
BD6A9E8C
3A275E8A
3DC44A11
BE0EDAE3
BE9B8E29
BE8CDFF3
BE07FC1C
3DDB8980
BDDB3102
BCCBEEFC
BD9914D3
BDE4903E
BE018445
BE78535F
BD836E53
3DCA0314
3D8DD486
BE6426AC
BD8BADDF
BE9E173B
BD314981
3DA5B980
3CFABB57
BD2DF37E
3DA1B950
BE50A99C
BE3F1C32
BE10650B
BD6F23BA
BE18E7A9
BDBE1872
BE77BA95
BE814553
BE342F4D
BDAA2746
BE35B73C
3D9DC582
3D89DE63
3E306049
BDE2083B
BE297495
BE2D321B
BD871B34
BD1085D7
BC6A60C7
BE505DF4
BD0D2B7F
3BFBC161
BD717E64
BE1DB504
3D5DA085
3D90EA41
3D98D629
BE2930A1
BD8E9845
3DA0EF12
3D4BA89F
3C416435
3D1A2048
3D3E5E49
3D8CBF87
3E167473
3DEF4E92
BD97DCEF
BDEA52DA
3E296567
3CF0026D
3D9E897A
3D05CBC3
BD054E8D
3DD8C346
3D443130
BD799620
3E034027
3E2D0128
3E01495C
BBD78A71
3CBFE949
BDF4D95B
3E3CB860
BDB81E6D
3D9C6829
3E569530
3DB248BD
3D7F99F6
3DF532A7
3E9900D3
3EA3EC83
3EAFF198
3E8CEC3F
3DA38685
3D5DA2CD
BDC75000
BD8DE2FB
BD0DDF41
3C9EC449
3DB02B34
BDEAEA08
BD049235
3C4C8BFF
3DB771F9
BCCA2533
3E6FAC3B
3CEBAAA1
3D955FB6
3E4A0D4E
3DFB0933
BD019F5B
3DCDE585
3CC87820
3D47044A
3C902DDD
3B6B2648
BE5F2917
BED6BC70
BECBC20A
BEB8981B
BEB57ABA
BEC09787
3CB05943
BE0A379B
BE965D56
BD70D967
BD81B18F
BE00FB97
BE1C65EA
BE8B1660
BEE17CF9
BF3A8481
BF0CA6B7
BE932CE8
BE9D1895
BE84573B
BE5D7026
3D3FE293
BEB80A87
BE7A5112
BDD97814
BE30CCC2
BE8D0BCE
BF29A485
BCB27EEA
3D21B9EE
3E380150
BE0B0C65
BE42B79D
BE16D0F2
BE651332
BE2D9A52
BDA15624
BD8549D9
BE16ED05
BE4928F4
BC699B39
3EABD809
3E760738
3E78D1FE
3DBEF6DE
3D9BD708
BD0F2EBF
BE7759D5
BE2F4426
BE98361D
BE2510A9
BEC6540A
BE584D3A
BD8D7F7C
3E6EC2B2
3E7C2CDF
3E19E129
3D8B39C8
3DABC1AB
3D740D42
3DFF5DEF
3D5B50D3
BD22A770
BE4E083F
BE8A5D2B
BE7D8983
BE7BE587
BDD889D0
3DF68245
3DB62100
3DC94353
3C611AF7
3BA66EE2
3D806D61
3DB13B12
BBDC8305
3CEF745E
3DB099D8
3DA49139
BEB38F5C
3E011F94
BCD0DAE3
BD1A164A
BD20A359
BE09A607
BE90F6E1
BE4241BB
3D22AC67
3DC694FE
3CB23162
3DA3E408
3D8FBEE1
BDA7EAD1
BEB2FCD3
BD7DAF1E
BDAE3235
BCEA7D04
BE2CB611
BE9036F7
BE8BA55C
BDDA1D3D
3E0995EB
3E0DE003
BD0EF56D
3E063554
3DDD3687
BDBA7B2E
BE4EF46F
3DE7DB49
BD9E6AFA
BCBA4B2A
BE79215E
BE998B72
BE83D990
BC146D91
3E3E550F
3E2CC7FD
3D87A33B
3C0001AF
BDA877FB
BE67ED81
BDA9FA73
3D94292D
3D82E125
BC3BDD00
BC9B9816
BDF839CB
BBBB6C55
3C236E63
3D278188
3C6F92F3
BC1242E3
BC33E9AB
BE5626D7
BC52F190
BCDFA92F
BDA8E5DE
BE0574C1
3C0AFF25
BD07646C
3DAB9BE6
3DA8DED5
BCB7AE8F
3CABB916
BCB5702D
BDDEAD37
BDEA2557
BE27939B
3D4C31C3
BDE8EC66
BD201956
BD8F5B56
3C1A7B40
3CC68F41
BD3F2364
3DA0327B
BCB0BC35
BCE58F8C
BE16D8B8
BE846D31
BE237E67
BDA137C8
BB83D873
3DAA65FD
BD811694
BD3B4C66
3D41E1D4
3DE9DA19
3D9FE1FE
3D8C82FE
BD294376
BE04AB7C
3D65F148
BC9B201B
3DD45D5D
3D316A0E
BD844C5F
3C414C82
BD1F07EF
BD8B5112
3DEF8AAB
3CC5D21B
3E047F6E
BBB69EE2
3D5BD5A0
3E05BF19
3DD55BAD
3E2A0529
3DF84FFD
BD81B827
3DADC8B2
3DE5F0AC
BE23FA99
BE32208F
BEAD8864
BEB9D9C2
BDAA7A51
3D3F2D8B
BD97FF46
BD4ADFB5
BCDB821A
BC58E027
BD76B923
BE685501
BE805555
BD97F8B3
BE81DD70
BE49D156
3A1A90EE
3DB7D262
3C84333B
3D152B56
3CFBE82A
BBF05D29
3CDCC82C
3C153E12
3BE998DA
3BF783D2
BE1F769D
BE7B1534
BE7F4016
3D401E8C
3DEC3B3D
BCCC99B2
BDD5D86C
3D877D7C
3E0D4E83
3E28B76B
3E5630C7
3C95D5A0
3E2828D5
3D47E7AC
3DB60E74
BE0630A9
3D02C147
BC4B95C9
3D9E159D
3D192B4C
3DD55EBD
3DB46EAC
3DE42854
3D8543D6
3D6DE49D
3E09513E
3CC2DDAD
3E212FEF
3D578E02
3D4A9667
3DF9978F
3D8096E0
3D84DCB2
BC8DF179
3DB1EFFD
3DD38AFD
BD540661
3D6EFCC5
3DA3C336
3DD1BDFC
3E0380C6
3E652C80
3E027B32
397A89CC
3E5F3AE8
BDB156E6
BC5FFAF5
3C839A17
BCF6A2A8
3C088AED
3BB2DD98
3D7D2D12
3D56E939
3D12B0D3
3DDB0058
3CA94822
3D2F5D66
3DE54596
BE100AEA
BE71D28D
BC3C2BE5
3D8B953F
3E45F486
3D1374A3
BD026300
BE6A544E
BE422047
3C8DB248
BD3141C9
BCE6BCC6
BD471DA5
BDDCF715
BEA46F0F
BF0B4C01
BDA56527
3DD27C52
3E8CB635
3E2693E6
BE063FB3
BF081182
BE5217D3
BD321DAD
BD9FE530
3C339499
BD9E5338
BE9DA39B
BECB32A0
BF060C8A
BDA7FAA9
3DF597C3
3DFC5CBA
BD1D3BCD
BE658C27
BEB78607
BD474A38
3DB1A333
BCC088E5
3C1E80EA
3C432D91
BDB16247
BE572F35
BE391EF6
3E0D12A9
3E129EEA
3E077778
BD6B7349
3C4390E2
BE0E7FB2
BDC82642
BDC2C69F
BE2221D7
3D89E962
3C9746F6
3CE5EC18
3CFD3FA6
BD5423F7
3E152E18
3DA2501B
BD163154
BBA800F8
3C23C43B
BD3F84C0
BDD5EBC8
3C801F7F
BDDDD2AD
BDEA6F9D
BD264C91
3DCE51EC
BD8AED07
3E0E6615
3E1A019C
BDAE8374
BE02082F
BE102547
BD37CC9D
3C1AF220
BCD234C0
BD1A3B7A
3CFDB743
399F98C0
3DD2C215
3E9C9239
BE213D11
3E2276D0
3DD32E73
3E368085
3E7BF30B
3DF130EC
3E2012F0
3E5D1795
BC2077B9
BBCEA784
3D10ABEA
3E5E77C4
3D82DE1E
3D9B5D1F
BD8E35A3
BD91AC9E
BBBA27DB
3D8EEE79
3E5F117F
3DBA191C
3E937736
3E088880
3E4C86F9
3E74025C
3E2BC9EF
3E916A8D
3D3EBC3F
BD9A8002
3DD804F6
3D09BCC5
BE4E8C4D
BD967D0A
3D966863
BD10CB7A
BE366A7C
3BEDBC05
BE1A397F
BE13FED5
3C2E8B93
3D8C9894
3CADE224
BD37001C
BDCCFE61
BDB7AE19
3D235C9F
BE2D22BF
BE29818A
BE48D445
BE37E5DC
3DFDF20C
BE237CF0
BE232E31
BE825174
BE1D8E99
3D479C20
BD7FAA32
BD74AB32
3DBAB2AF
BC9C713C
BC5E9C01
3C9D0288
3EC47583
3ECA025D
BC4A7ED7
BE1548FF
BE9F2DB0
BDEC5653
BE129A3B
BD8F8010
3E01DD65
3C82CA82
3D7B49AD
BCB488C1
3BDC30F1
BD20B50A
BC06774F
BD9F9541
3DADD716
3DD50DCB
3D7F3226
3D3AA054
BD617100
BF070AE0
BD9F9F4B
BD7726AC
3C275D2F
BE32432A
BE9D675E
BEA2F8F4
BD946B6C
BD81B8AB
BC1CDD1A
BD033C2B
3B4A7608
BDA19596
BCC901F5
BD929637
BE833B9B
3D8B6233
BD408B42
BE32D70A
BEA9AB0F
BE71C432
BE03C801
BDC63F57
BE57DFE7
BD5BA589
3A7A35C4
3A88ECDA
BE23647A
3C71659C
BD944BCC
3D14A7A8
3C037C42
BDA90DBD
BE7DA5B5
BE79F329
BD8D3A0F
3E02023A
3D61BAEE
3DBA4BA8
BE2EA2C9
BE90BFB7
BE749481
BDFC3D54
BDC2F5D0
3DABB9CA
BDD8CA3E
39724A7E
BDFC4E03
BDAB332B
3D108DC2
3E469611
3E89EDAA
BB67B6D4
BE5622A2
BE35047E
BD7B751C
3D930423
3E2B08F5
3DF5F13F
BBE2075B
BDE52798
BD9269FC
3D7A5105
3E71EB55
3E5E7AFF
3DD6075B
BCA65C6A
BDBD1996
BE5C1C10
BE8A1559
BE1B1481
BE2B8786
3CD36242
3C28B079
BC8F4371
3CB75D67
3DDB36FD
3E1DB45B
3DC7BBD5
3DD535E3
BD531E0E
BE3DD5BE
BEAB2BD0
BEDD049C
BE73A97A
BE847579
BD1BA49A
BE1ABB7B
BD06CC3D
3DFCDDE0
3E8FE06F
3E8B8629
3E26D745
3D2493A6
BE0FD33E
BE253990
BEB64E4B
BE8D7615
BE4060C6
3D279A4B
BBEC1945
BD608BC1
BC93F743
BD3EDC9B
3CB99990
BD8AC354
BDBA782B
BDF7FB77
BDDE3D20
BC70C9B4
BE3B1576
3D850B38
3BB3A481
3DF3A3FE
BC64EC3A
BDB9AC5D
3D3A6602
3D1F51E3
BD8EE9C1
BAF22597
BD70F9ED
BCF8D564
BDA8FCBC
BE025A73
3C6366B3
BC1FEC66
3DB9BC46
3E45B41C
3D1E21D1
3D5070CF
3D9D9359
3CB4F6FB
3CB98270
BBF3A7C2
BD85AA87
BDFF6BD9
3D23A181
3DFC5BDF
3D292D5C
3E302E97
3E1794AA
3E263892
