BDD1BE35
BE8A35C2
BE543878
BEAF28CB
BECB7762
BE0E3CAF
BE0C9339
BDC20EDE
BE2E10CD
BD99F7D2
BDEF7A72
3C37ED3F
3D671F37
BDDB3E58
BE27C41B
BD61BC2B
3DE4AC11
3DC5DDEC
BCCD3428
3D81B5C7
3DF0B3D6
BC8F2F44
BD08D821
BD85C452
3C8C5BF1
3C194BA9
3CAE29AA
BD1C4ADF
BE05A637
3E143319
3DC2372F
3D8B024A
3E123E08
3D573DD4
3D6E1602
3DA3474C
3DAF56AE
3D642324
3C416482
3D533F1E
3E5FA891
BBEDB49B
BDF088A0
3DC5CEB3
3C715259
3D223F88
BBA6AC2D
3D99737D
BCB6E219
3E0A98AF
3E68E0CB
3E951558
3E556569
3DAF34B1
3E105E37
BD152AEE
BE71D39B
BE223518
BD58A67F
BBE7A102
3D6518CC
3E1199C3
3E202EAA
3E3DA7F4
3E8B405B
3E990E56
3E8EC1A3
3E27AA22
3DC6645D
BE222314
BDE9396C
BE0B94D0
3D9727FD
BC0AB1C0
3D52BD5A
3DD6CB9A
3DF6C63C
3DD41E3D
3E7195D1
3E6EAB1C
3E2E2B09
3E6BFFB6
BD895303
BD8B30DE
BD529F4A
BE8CBA60
3C467C10
BDA65BC6
BD7EA035
3DBE821B
3D817584
BD134989
3D5CF9AD
3E306F79
3E8C1D4C
3E836AD0
3DEA40C0
BD39EFEC
BE0C1D02
BE601FD7
BD1FC4E0
BD499F09
BDA612D2
BD5431A4
3E0C5EE1
BE8B21F2
3E0C6F40
3EDA3C19
3EA90BA8
3E7BC56F
3D98CCED
BD995855
BD27619B
BE56E8AD
BD73E453
BDF22193
BDF8328B
BDC9C9B9
3C8B1C69
3D84D9E3
BD8DD3F7
3E0C1B9B
3E7BB721
3D8380C9
3E3471D1
BE59822C
BDBF4641
BE2D427F
BD3F6327
BCF4A823
BE06E74A
BDFEDDA8
3B0797D2
BD46A7E2
BCBAFA8A
BE0788C3
BDA9C8FF
BE9ED9B4
3D9F8F6D
BE37EDE0
BDDF72BD
BDFB95B5
BD0DBAAB
BE3BE68E
BDD99726
BE0A4A02
BD853F60
BCC6AA4E
3DD86D9E
BD4CBFE4
BD969ADD
BD858EB5
3B65818D
BDC60BEF
BE4487EB
BCF4EFDF
BE119274
BDA9AE3F
BD4C9319
3DD70DC2
3E38455C
3DE420F3
3DC290A8
3E2D6A59
3E362F04
3D318767
3D8E0293
BD6B7E47
BE357723
BE64FE44
BD9247EC
3BBFC978
BD0565CC
3E3968DF
BB323611
3E70098E
3E1BD5CA
3EA811CF
3EAA947D
3E147624
BDED073E
BD37F76C
BDC85F79
BE468FFD
BE0B93EA
3E1EA2BF
BB1B83EA
3CA739C4
3AB346C6
3CC8498C
3E96E402
3E6D5B58
37F3DD6C
BDFC61D5
BE010A94
3C991A44
3DA033C2
3CE28138
BDE2F2CD
BE32714A
BE508654
BEAD0B94
BEA9C99B
BE287063
BE334916
BE2A7528
BE9E4F4C
BC92716D
3DA6B03C
3D3C38B2
BC7FC8F2
BD801C2A
BD8AC988
BE6E98C3
BE0975FF
3B00154D
3E477235
3DC958A1
3E93E79F
3DC4FF23
3E11A246
3E4593AE
3E01B33D
BD166766
BD4E03F0
BD9D6478
BE8777BE
3CD418B3
3DBECB34
3E2D0E63
3D3DC020
3E902765
3EAC617D
3E6D105E
3E66C16E
3E34B982
3E3E2B9B
3DCE7A4B
BDACA200
BE81A6B1
BE7F6E2D
3A8EDD10
3DEBFEA4
3CD83C55
BD608D5B
3CDD3793
3EA9D73C
3E9C41CF
3E78262F
3E1791A7
3E24D2BC
3E1DE850
BE1CC2E9
BE2C19CC
BDE98B3E
BD703306
BD2B56D2
3D9EE7DA
3BFB9BF7
3AE7C074
3D17D19C
3E0813A3
3DED7726
3DFE14B1
3E171524
3CD093D6
BE62A451
BD485D26
BE2DDF83
BC5FB12B
3DAEE28F
BCF695C2
3CB38B14
BE3458F0
BCDC1450
BDB896D6
3D3C9DA7
BE04A882
BCAF2EA1
BDADB7C3
BE066FB0
BEE5C478
BE45C78A
3DB3B2FA
3D6ABBED
3DAD3AA1
BE3CA3CB
BEC9C811
BDD61D61
3CCE2713
3BBE855E
BD9D4109
BE6114B3
BE0489CA
3C7AA3A4
BD4EA547
BD3CA925
BCE391A3
3DE06975
BDDF4215
BE334519
BE2F1A29
BDC4E2B3
BDED553F
BDA5D8E4
BDB9D26B
BDB4EE9A
BE229411
BDCF07D9
3E531CBA
3DA73679
BD2DC092
3D382917
BBC81B55
BDC7462F
BDB05588
39DA19FC
BD988D6E
BD89C8A3
3C04A088
3C35B443
BDD6A6C3
3C34CF69
3E015B16
3E061F2A
3C3942E1
3E6B07D3
3D87A7E5
3D571CCD
BCEF8E6E
3C9DB95C
BE2AD92F
BE178BE7
BE80720B
BDC02112
BD09066A
3D2F60E6
3CA9EDD3
3E2C83CC
3DF7AA47
3D446141
3DD3566F
3D1F7C1C
3C8A5FCD
BC807B12
BE2325C7
BD924503
3D757D6B
BDD43760
BD70D423
3CC0572B
3DE7EAA8
B998E3BE
3D98F824
BCBF65AA
3D8D94AD
BC9EBB80
BD0EC622
3DBED4FE
3D141300
3DDCC456
3DDA9B40
BE103BA6
BE1F5C44
BE206A37
BE5D493A
BE211B59
3DAFF762
BD976150
BDB1A1EF
BDF2752D
BE06A1F0
BDC0CCB1
3DE1772D
BDCEACC1
3E3B444A
3D31D9A0
BDE04E8D
BD8F8344
BE52FECD
BD310C42
BCE478A9
BE6583B4
BE3A5D89
BE6B3DD8
BE3AA104
BE4F0F0E
BE3EE26B
BD7DABB4
3D1085FB
BDCAF4CC
3D5E6433
BDED5A16
BE44D3B7
BD09333B
BE4BF211
BE689641
BCBAD876
3D7BDDBD
BDC5A4A9
BE187333
BE3F2041
BDD1E2D9
BDFB3419
BDD75BF5
BAECB6E0
BCB95AE1
3C94594A
3DA5F5CB
3E29751A
3E063467
3CA66CBB
BD785749
BD8B013E
BE0C2677
BE11679B
BCA78397
BE05D0EF
3D6704A5
3DBA2ACE
3D579575
3E7CE4B2
3E0551CA
3E3CC8F6
3D1BF804
BE2A343F
BE41168E
BE0F9B2A
BDAB21E3
BDFE11BB
BD2F8ED6
BDC98C1B
3D427D51
3D3E3437
BB43468D
3D354A9D
BD9C55A8
B9BF732A
BDEE36ED
BE1ACC5E
BE0FC70B
BDD45152
BD7EEC67
BDAB866E
BCD4BBA3
BE2798BD
3D6BD953
3D94DA6C
BDEAE032
BE0DDEA5
BD24E7DA
BD57EB1B
3D643515
BD956095
BDBAFE6D
BDB3FB52
BB222968
3D3F98AB
BDC101D8
BCEC2AA4
BD0CDCD7
3D157A67
BCD482DF
BD1E24BE
BE1A722E
BCE71356
3D8873E4
3E411CC7
3DA63E9F
3D3C16DF
BDAD905D
3E41E882
BDA8BE35
BC40D516
BD8F89F3
BE0D697F
3BCA2C19
BE85320B
BDBB5AD0
3E346065
3E4B7571
3E1DC38B
3D57E72F
BD31A73D
3D8D9748
3DD40D7B
BB427725
BC2E1430
B85CC9B1
BE0FCD86
BC238E74
BD260ACB
BE2CF65A
BD03AC39
3E5166C1
3E01FB17
3DA87C35
BD6B3300
3D1986DE
3DFAE2C6
3D683514
3E0D6A39
BE02F098
BE3CA31B
3E440E7E
3E1233B8
BE0CD76A
BE81A9A7
3D19E33A
3D45D71E
BC7A96C2
BCDF1CD3
BDA69A7F
3D7B59FF
BD110175
BD14B658
BD96CE22
BDD62F66
BEA57CB1
BCB36649
3D603DE7
3D506B64
BDD2D7C9
BE9B63DB
BECF8FA4
BE2D1635
BD1C1B4C
BD093A90
3CC86B6C
BD001554
BD11BF87
BE174E82
BE88F515
BDBE472D
BCDCFAC9
BE24770E
BE820DA1
BE59CA84
BD149978
BD79CA44
BBE30D92
BC29F38B
3D3E6207
3E0EED49
BE2C1C8D
BE388867
BE16DE1B
BE9891FA
BE7118BA
BE6AF95B
BCA5B00A
3DEA3EAD
3D6CCE69
3DB506FD
3D7652DA
BC0FD5AC
BCBBDF8B
BD10F1F9
3D8F941E
BE655C65
BD6C8BBF
BDE93A15
3D8E318F
BE4C1B91
3DCE0975
3D7375AF
3BB155D5
3CD08E0B
BC28EC2F
3D14FA47
3D9A0685
BD81BCDF
3D4FB86A
3CF6BA66
BDE76534
BDE2F095
BD7D4969
3CB0839E
BD538E16
3CFAE1F2
BB27663C
BDCC9C0E
3D87D6F9
BDAABADC
BDB5A9B9
BCC75D7D
3CAB0F80
3D7250FF
BDA8B81D
BE0BC91A
BBBCB0FC
BDB383EC
3E213F58
3DEB8BCF
BD18956A
BD3E81C8
3D43F06E
3E378C51
3D353BA0
BD202A14
BDD3DB62
3B532ABB
BD6E30F8
3DC067FB
BD0B9FD3
3E1BA305
3E386738
3E3610DF
3DF0AF57
BD5FC4BD
3E75BD1B
3E1334E8
3D38EFD3
BDA7B83F
BE22CF4D
3D1912F6
BAD73F0B
BD20868E
3DA40FB5
BCB17506
3E556CB2
BD15F829
BE6D2EEE
BE95048E
BDCDCAF2
3C4FC6BE
3C9CC1BE
BE83BC72
BEB93817
BE9F6ED7
39A9E8C4
BDC669EC
3CAC71C3
BDB9B6C5
3BFF4CC4
BDFE30D1
BED6DE60
BF1B6E9B
BEF75C6C
BE80EE5E
BEB7FE26
BDDDF62B
3D5C4482
BCF6F8B2
BDAA3150
3CB9DAF9
3DD3D334
3CFB6565
BEA27000
BF3F8402
BF366C2E
BF2B1CAA
BEF69F4A
BF1DDB0D
BF021E6E
BE07951C
3DA08933
3E187133
3BB5689F
3E3ADE24
3E09E04B
BD3C9FF6
BE859DF9
BF11AEEB
BEA3D25D
BE278B02
BDF6A8B9
BF01AD53
BEDCDE9C
BE0942AE
3CB47E09
3D99606B
BD8CC15D
BE0E4605
BD8503C9
BE54C789
BE48DE30
BDCE2E5E
BDFF0CC3
BE88D6ED
BEF065AF
BE479D7D
BEB552B0
BE4FB2BA
BD9F8C79
BE4C2234
3BB9057A
BCF1F322
BC8D4F79
BC288AA0
3D248F27
3E04168D
3CF5C93C
BE06A210
BE32437A
3E14E82C
3D8C735C
3D7E434D
BD5DCDCE
BE2089ED
3C9497D9
3D9F9B78
3E22029C
BA2A7497
3DF0BD6E
3D9D373A
3D0A77AC
3DD209A6
3D48AD88
3DA34B0D
3DE7926B
3D4E1956
BD8849A1
BE22A561
BDB8FF13
3C1AE5EE
3D3CF22B
3D3AAB8E
BD533A7B
BDA365CB
3D9F878A
BC58E3F5
BD7FF0DC
BA4F36CC
3D31316E
BD32450C
3D0F3553
3C663414
BD6AA5C4
BC82CBD6
3CF01083
3DD786AE
3B69A7DB
BDFFF24C
BCE49E65
3B66E69C
BD7C6EAB
BD153B82
3E29DAA4
BD98097A
3C4BBF3F
BB1DB292
3C9B8A41
3D881284
3D7FA81C
BD09FADA
BDABC1EA
BE5CCB1B
BE1F01C9
BE1DD7D8
BD6359D0
3DA2C4B7
BDAF72B6
BC83CB63
BD8B47B4
BE22BED9
BE5BD673
BCD643C9
BD09A3CE
BCFCAD13
BDAE6617
BD776F58
BCD4F001
BA848135
BE0D0E88
3D7EDA68
3E337702
3DE4495A
BD4F0C7B
BE8063EC
BDC52D15
BE602DE9
BDBC9565
3DB9F5B0
3DB78153
3CEEEAE7
BD90A4C4
BE1141EA
BD0D3251
3C793530
BD4A005A
BC3F48E6
3DC3C480
BE743833
