3C356EAB
3D1CDC68
BD2F3543
3DAE89AA
BDDEE61C
3CB34723
BD21DD66
3D75A8C9
BA71FE0C
3C56A6AD
BBDDBAB0
3D878C04
3E067C11
3E170888
BD09E5C5
BD222959
3D1827A6
3D13CCF9
BDE17DFA
3DDFF6FE
3D627B03
3E26F157
BE4A2AD8
BE701403
BE1B6509
BDCFB46C
3D3F584F
3D0975AC
BCE97A2E
BE0F4B33
3D872FF3
BE8437C3
BE392B43
BD845CED
BE18E31A
BDA69D78
BC24B85E
BCE02555
3DFBCB06
3D84DED0
3E3688A3
BC4C4FD2
BBEB26EE
BDE4E8E9
BD6E94FF
BDD57F00
BE92A731
BDA047D0
BDA81EB4
BDD29769
BDC72412
BE10BE25
3D5CEFCD
3CA6A66B
BD169E7D
BE0DC240
3DA65D8A
3D9612CB
BA5C5D12
BE1E9A67
BE0B99C0
BDB814BF
BE1F5EAA
BD911F07
BE02C5EE
3BC9C7FB
BC820B21
3D1DC99E
BDDB00D8
BD0B1167
3D13DF4F
3DBE41A7
BCA9E204
3CDCC8A1
BDF06B99
BDF46ECB
BE87C002
BE4BE400
BD884BB8
BB1BEE92
3DF76E37
3D09FE41
BD98F969
BD0127B4
3CAA5572
3DB3E5F6
3DCB9E84
3DACD7DD
BD36B4D0
BE5974FF
BE84A943
BDC545D5
BD83B7FD
3D99DAEE
3D181FF8
3D37AE78
BBD90634
3DD98FCE
3CFAA59B
BD19C4FF
3CE9E984
3C648BF9
39D141F2
BD5D0EDA
BE005EE4
3BE4DB03
BCD678CC
BCC508E0
3E4FAFD7
3D815A3F
3DEF14C8
BDB0CED9
BE8FBB9D
BDFED6FB
BDD386B9
BE1DFFEE
BE49BB80
BDD7A6EC
BD77DD93
BB991917
BD92DCED
3C6EFD8C
3D9A8246
BD90291B
BE31935A
BD371821
BE10C36A
BE0D0F48
BD2237BD
BE33BDFE
BE5686E9
BE4BEC78
BDBEF730
BE1593E6
BE071F57
BE0FA662
BC44492D
BDC388D0
BDA091F4
3DAD0210
BDE8C586
3C1A7D30
BD0ED115
BD9CB165
BE07C1A8
BE08CD42
BE3E323B
BE281E72
BB5EF347
BD6BAB94
3BF33E2B
BD911D37
BD7F3211
BDD61EAE
BBB382A5
3D750C93
3DC7338A
BC5B287C
3CB25EDC
BD162719
3B0DC2F1
3D2AF865
3D7EF777
3C21A710
BBC9440B
3DAC0710
3CA2D45C
3DA4823D
BE055AF0
3DE25906
3B711E05
3D47086C
BD71B199
BDBDAD80
3D1636E9
3D56642E
3D398EF7
3D8E3992
3D63C9BD
3D7EF7B5
3D35DBC5
3E103A6C
BEA0B85F
BE034A12
BC5A086A
BE122D09
BD80CEDB
BDC646C3
3DB13B48
3D6ED3B6
3E2ADC6D
3D7DD0A8
3DC1F905
BD2A9C51
BE8E123E
BEA1705E
BE9783B4
BE42F7A4
BD1B5674
BD0B4196
BDDFA46C
BD7E40F9
BC07C080
3D92EA49
BDC126C5
BD20F8BA
3D1758C6
BE52B441
BB80C63B
BE34F2D4
BEA1B001
BE1491A3
BCF26BDB
3DC60F64
3DA5CA08
3D419465
BD145EA2
3DCE2B61
3DFCC8CE
BD18CDEE
3D2EDE6B
BD37479A
3E1CEB52
BE276774
BE167910
BD609FD7
3D9E755B
3E07F419
3DAA8F30
3DA16016
BDA2066A
BE70642D
BE259ABC
BE7373FA
BD6F0811
BC8FC541
BD755360
BD0F19F7
BDFD0FDC
3DA83A92
3C2865FC
3DA415F0
3DD63B39
BDA5C19B
BE2C5D24
BE7B5DB3
BDF0A9CA
BBF39723
BC84C7E3
3BA6CBB9
BCA9FCDC
BDED60AA
3D9750E5
3D5B17FE
3D13E897
3C779B09
BDA09AEA
BDE5627C
BE719900
BE32FEA7
BCFDEDF5
3DD09364
3E285B69
3E363F2B
BC404936
BDDAE8C3
3D1B1D1D
3D04E2FA
BDBF019B
BDAD029F
BDAA0F8B
3AE20591
3D5BBB5E
BDB3B195
3C5108BD
BB37EA0E
BD3558B6
BC164281
BE07A4A2
3D87101F
BDAAB0C7
BDA02F8C
3D816712
3DD29DD1
3BC32ED1
3E03CDC4
BCD75D1A
BCF17BB8
BEA7E82C
BEC8222B
BED00D9F
BE5C97D5
BEC7DE0E
BDACEC37
BE97C94A
BDBCB50E
BA7E1BBF
3D9C15ED
3D02E30D
3D5ABB50
BC92ECB5
BE815AF0
BE9D533A
BE90AA99
BE02F694
BE00427A
BDB57D36
BE29C791
BE0BE38B
3D9D5227
3D52F8DC
3DACC0F2
3E038D0D
3D3E3AA8
BD78BF14
BDD2BE4F
3DF9A7F5
3DB9EA75
3D357924
BA8333A6
BDB14797
3D808664
BDF14CB7
3E104CC4
3DB252F2
3E0F73D2
3B669F54
BCE2D9D4
BBA0038C
3D921E8C
3E1AC89B
3E82C602
3E8EBA86
3DBD1845
3CA003F7
3CC07E63
BD97ECE5
BCEF8876
BD542035
3C4E4D83
BD1EBBAD
3D0BD46D
BE2A736D
BDD50009
BCCF1234
3E615E11
3E02B0E9
3D41BD75
BDC1BF43
3BA63638
BE489848
3AE33B59
3D97352A
BCA459B2
3DA6182A
3CEA118E
BCD33908
BD002F5F
BE4690E5
BE4C0B47
BCF49408
BD295EA9
BE0CA876
BDD6491C
BE60A578
BDF9E60E
3905BC50
3D9181F6
BC96F46E
3D5C2089
BD26DE9E
3DC43230
3CFF4E24
BE34C9DA
BE7CA294
BE8A1D52
BE39F82B
BE97D7AA
BE677FBA
BEA79A30
BE1877B2
3C136D1B
B939FDCF
3D4875EE
BDEBE304
BDC5AEFD
3E0B04F1
BD5E6E3D
BDD71426
BE86CA78
BE784D7D
BE89393D
BEA24FC6
BEB386F7
BE58AC8F
3D53ADF7
3D3C901F
3CECB928
3BD0D40D
3CC1D427
3AB6BC48
3D865669
BD78E3EB
3C5DCECC
BD9B11E6
BCCB988C
BE6FD6A6
BE4205F0
BD41DE0E
BD80EB0F
3D782900
3D133E28
3D5CE5A7
3D7EBF5E
BCCDAEB5
3C8B9A9C
3C90E717
BCABB8D2
BDAAAF71
3D55ACE3
BD8B774C
BD2A4D42
3D0E0CC0
BCE503D9
BAB6EF4C
BD16B8BE
BC4C827A
3D59E25E
BDEE999C
BD5174BE
3DCA3371
3C72B37C
3D41370E
3D42E583
BD05FE3A
BD56512B
3DCD830E
3B29B4D0
BDD6CA90
BDAD9496
BD90B6D0
BC72731B
BE2DCFBA
3D736738
3C0E69CB
BD63EFDB
BC3C6DEB
3CD01F95
3C43B573
BD15117E
BDE86EC2
BD6C2C84
BDF08870
3D01465E
3E1D658B
3E0DF9F1
3C1D56A3
BE838B6D
BD91CD09
BD80F6B3
3DE7BA09
3D86D814
BDB1D9D2
3AD6BCAB
BE55CE2E
BC042E9D
BA4E87B3
3DB448C0
3DC0735A
3DBFC072
3C64CB33
BE11AFEE
BD049DEC
BE425A1C
BE06435A
BD10CCE3
BD01FD1C
3D30A366
3E49E7FF
3E056232
3E4CBC29
3E775BC8
3D3657E2
3D64F343
BDF0A00E
BE249278
BE781081
BE25FD39
BDF69BE9
BDE2E646
BD5243D9
3D8BBCA7
3DFAFB72
3E918C32
3DFC702A
3DC10CA2
3ACD467C
3D7E3F49
BD2A0A1D
BE199F11
BE403079
BC3B6266
BD9A572A
BD6725CC
BE91BAF8
3D7563E9
3D83E38B
BD12F31A
BC068283
BE3CCE19
BE3440CE
BD4A4BA2
BDD33AED
BDC46FFF
BD5A2E62
3CE4893F
BC4B088C
BDD85096
BE9E8AC8
BDFA0618
BE601F89
BEA0D57A
BE778755
BD7FA351
BE02FD72
BD445165
BC9B3544
BD094D29
BDB5675D
BD5A71E0
BDAEEF4F
BE72DC7D
BDC094C2
BE6C256F
BEBE62CD
BE8AEDB5
BD833645
3D4A27D4
3C8C11CE
BDE46CD5
BE40085D
BDDC1F32
3B9CE98D
BD6479D9
3DB3D928
BECEDE18
BE4DC22F
BD890481
BD90DD94
3E311CBF
3E0FAC67
3E4A414B
3E018C50
BE394667
BE1E3AC0
BDE9A5A2
BE32C6DD
BE4968E3
BE50FF65
BEC43315
BDBC63FC
3E02CD7E
3D953157
3E80510C
3E1740A8
3E6438A3
3D4F8394
BE18F382
BE8466F6
BE46C27B
BE303E4E
BE977686
BE9B2BB4
BE4C41C9
BE20E931
BD6D2F3B
3D9F28F0
3D2453CC
3DB45223
BD4EE4F3
3DB780AF
BDB78312
3E546BE9
3E05D116
3D390862
BE66FD4E
BE8FD1EB
BE97730D
BD93556E
BDDF1B2A
BE785671
BDF04854
BE9970BE
BE5E60A4
3DB8CE7E
3CAFA8DD
3C04105D
3D928129
3D2FA608
BDA100C5
3D0BBCBD
3BFA888A
BE3241B7
BDE7A66B
3DF90576
BD72FFA0
3C3F3BEC
3CA1C5B2
BD8DD281
3DE46DDE
BCC62972
3E10E932
BD828EA3
3E04D939
3CCE818A
BCA0F1B9
BE367FEE
BDE9362B
3CB1E8B7
BCCD05AD
BD2DFAB6
3D6DDD1B
3D7645F3
3DDDFB67
3E187C9E
3DFF80C1
3D311971
3D02F17F
3DCEA22F
3D3D7E75
3D1B9284
3D52BC67
3DB79F8F
3D1BE983
3DF2CFD4
3E29C19B
3E0928D0
3E0B389B
3D6BA55E
3D446BFE
BD20B507
3DA48C9F
3DA35572
3E0BB26C
3D9C460D
3DD60A7C
3E249D75
3E4B4EDC
3E02BC7A
3DB40812
3E01379E
3D97D262
3E13937C
3C2F8C63
3E078D74
3DFBA225
3E1FD582
BBC7DBE1
3DD622CA
3D7233D5
3E084953
3DFB6216
3DF95E10
3DC39AF2
3DB1FB5E
3DAB45A9
3D9833D1
3E3BA187
3DE72A23
3D9D326F
BDBBAD0F
BDEC517B
3DAD74BE
BD808F34
BCD8DCEE
BD564A85
BD38B3B1
3DB3803E
3E135A9F
3C88784B
3CEC6A6B
3E2FBA47
3E43E7DB
3DB3AB98
3D90221B
BE1262D5
BD93B7A8
BD4D982D
3D584E38
BC4308A5
3DAE574F
3E41B94D
3DC9C868
3CD13B23
3CBDAA98
3E7830AD
3E731F58
3E04192C
3D95ED26
3C53E2C2
BDED6E93
BDBF1B43
3DD676C3
3DBB213E
3D72D3D5
3E4F070C
3DC1B789
3C5422B6
BCF56F22
3E5B26F7
3E42F42A
3E5B5C92
3E29B380
3D9213D4
BE042B0B
3CF4B14F
3DD610E1
3D2E3F1C
3DA4744E
3DE1FBBB
BD0BDAB1
BDA13D9D
3D67EC32
3DFFA4DC
3E0595D4
3E180679
BD87DDB3
BD9F3844
3B5645A4
3D8BF6DB
3B9028D5
3D3902A0
3D25C7C4
BD16EBE5
3CE99E8C
3DCFA25B
3E22429F
3E01A854
3C7062C8
BE174CC6
BE50DF4F
3D249179
3CF45261
3D4DB8E8
3DC539EB
3BAF6783
BDA952DF
BDEB82B6
BD31BA8B
3DAEE5E5
3EB5CABF
3E27C4C5
BDD4D250
BE4BB750
3DCAAE8E
3D8C5745
BBC60FCF
3BC16641
3D6EA6FA
BDCA5892
BDBFD0C3
BD40EBA0
3CF73C54
3D925221
3E47D5D0
BD6592AF
3D0CD1DD
3D576B8B
3D1C222F
BE131481
BEC13A14
BE736FDE
BD618928
BD46B97F
3D01067A
3D4D77FB
3C116CED
3D1D88D8
BB6859B9
BD7540C4
BAFBBAF7
3E15C058
3DCC9911
BD93F164
