3E71E52B
3DC522E9
3C7918A6
3D8978C6
BD40EBB0
BD8F7836
3D1818D4
3DA51B67
3D998CF4
3CC167A2
3DF03210
3E1DAAEB
3DF58551
3E1D1D37
3E7825BD
3E0BCC0F
3DF17B27
3D7D9384
3D673778
3C9DB0AA
BDDA0E4D
3DA4E755
BDE6F36A
BCD10684
BDD7911B
BE70FE1A
BD87868C
3DF5B3B6
3D189965
BDC31005
BD0F0841
3C1FF1C2
BE991828
BEA7BC42
BDEDDEB1
BC7EA3E3
BDC3D39B
BE5790D8
BEB2FBF3
BE6D2A12
BE2CA76A
BE06679A
BDF51CC3
BAC3F48C
BD47EA15
BE05BF80
BE201268
BE67A4A8
BE1681FE
BC859242
BCCA4C79
BDDF2341
BDE77EDD
BE3C8CBD
BD998CF8
BE2A11E8
BE561705
BD60B072
3B25D42C
BE35BF88
BE00CAAE
BDAD2A8E
BB25F7A2
BD9A0D81
BC5583FB
3D252D0C
BD088DDA
BEA79B9C
BD020964
3D589DAF
BDFF8729
BCCCEC60
3BB9B270
BDDD2BD0
BD9D1C07
3D1D89E7
BDCF69ED
3CB5EA54
3BD25610
BDAFA3C1
BDACE6B7
BEC5D10D
BE5A3685
BCB9E8D4
BE52A7B2
BD93EE38
BD81F840
BE6BADEF
BE2D4D95
BD692DC2
BE391CE1
BCB255A5
BCE4A79E
BD77A6CC
BE244EEF
BE3DF467
BDD5F652
BE1EF420
BE7D16D1
BD771A66
BD49C872
BDAB7ED3
BE8FBC46
BDDB2A61
BE5F9228
BEACEBBB
BE489AA6
BE0E8DA7
3D0D084A
BD4DB0E4
3D15B1B6
BCF7BE82
BC33727C
3CB4CC30
BCC6D222
BD9CA906
BD79AF76
BEA2AB66
BEAC8983
BE9FD9D6
BD01EC05
3D87A5A6
3D993BED
BB877837
BC88D61E
3D367C32
BD76080A
3DA4D736
3DB68EA3
BD4A3671
BD09FC37
BD9C3631
BE0E76CE
3DD4A271
3D5820DE
3DA234CD
3D4AB4FC
3DE90993
3E18E1A9
BCA12102
BD2686A3
3D3DF4D1
3DF6EAF4
3DEA686D
BA28C6F4
3BDFBE99
BDEDE523
3D27C3A4
3BDE3FF6
BCF516CF
3DA19E36
3E3B1365
3C624682
BD496DCC
3DDBA8DE
3D8FF2EF
3D6B2D11
3C9DF5BF
3DFD485A
3BA2D7F7
BD81D69D
BD0DEA7A
3D3E1DB6
3C86D3A8
BC005B6A
3DCBC31A
3D7ED22A
BD276FE8
3D8CBB37
3E0C1C8C
3DAE1D88
3DFBF88C
BC383DC5
3C27E0EE
BD585754
BC48EA9F
3D399732
3D879C08
3DDF175B
BC8AF145
BD9FE13B
BE031A92
BE112F4E
BE29BF37
BDB7D303
3BE415F9
BDE84C68
BE842D79
BEA0AEA9
BE5A713D
BE2F3151
BDB39BA2
BE407ED3
BE2BF161
BE6CFF8B
3D11F680
BC4AF407
BDA0177B
3B85A416
BD811B06
BE0D3505
BE2BB1DC
BE5049B8
BC889C13
BD43DB66
BDE9FB56
BDEA5B79
BC83BBE3
BDB0A81B
3A12B6E7
BE26BEA7
BDFF1BA9
BE057B01
BD9E6271
BE04C99A
BC4DB525
3B021105
BD51190F
BC856824
BD3E58C8
BE28375B
BD80942F
BD993126
BC7F6DB9
BE7E75A3
BDC32137
BDA82DED
BE00162F
BD3BB185
BDC819A1
BD938C09
3C059D48
BE49DB3C
BE3E7A3D
BEA38874
BE035BE4
BD9EB284
3E07AA5A
BE542244
BD5178CB
BC6CC449
BDBFDF9C
BD49CC7D
3BCCFD7C
3C4CC4F5
BDF58978
BE991711
BE52D433
BDB378E4
BD8AE4A1
BB745678
3E237FD1
BE68C505
BDC8FA4E
3D4AE23A
3CB600BA
3CE2298D
BD1ED41E
BC3A590A
BDBD3079
3DC5F374
3E14E7D9
3E17DA1A
3D9CDC9C
3DD5D774
3E529AD1
BD2D2B07
3CF86D62
3E08E6DD
3D99D9AD
3E08A569
BDDEA3F6
3CA018DE
3E1E2DCA
3E54B64D
3EAB827C
3E79CA7C
3DA43504
3DF411EC
3DD3B712
BDD2726B
3E2FDD71
3DCCE444
3E01A6D7
3DE87EE4
BDCAB42A
BE239BB5
3E5FF334
3E847B3E
3E21CC31
3E88512D
3DB43D19
3D7C7571
3E3750FE
BD8E3F23
3E316DBB
3E225FFA
3DFBA1A6
3DD30322
BE0F4B34
BD0F0DB2
3E3795D6
3E4BD014
3E94E404
3E57B164
3D0C45A5
BD4499D8
3E11B6F1
3C829B72
3E360334
3E4D09AA
3E3421AE
3DE05361
BC81FD23
BC60B806
3DC86164
3D2B2A3E
3E0F41FC
3E108349
BD8BCEA4
BCB1196F
BC164BF1
3D0786E6
3C645E4B
3D49DE97
3D9E47D0
3D953531
BDFC6DB8
BE2D310D
3C7BB167
BDA32746
BDBD6371
BD49A007
BD4B6A23
BDADF7B8
BE64877A
BAD8A23E
3D3CDD0D
3DAF6125
3D990FE0
3D89102C
BDE08955
BF11109C
BE8560D2
BEE38796
BE71432E
BF0255D5
BE8F6E7D
BE4F84EA
BE85AD1C
BD5834A1
3D5390A2
3E238D53
BD52FBE4
BCA611B5
BD374EA4
BEBBAEB8
BF18DA90
BF2E8E02
BF20695E
BF3B28BB
BF03096B
BE89D171
BDF1E368
BC2144D2
3E169C02
3DED0F3A
BC3C9910
BDC72141
3DBAFB6D
3A9DFB99
BE51A3EC
BEC91E4A
BEC7FEE7
BF000AD9
BEA50347
BDDA31AB
3CB387EC
BDD60CD4
BDC379D1
BE268510
BE1B468E
BE64C2CE
BC9F73E9
3B918BD6
BB9495E8
BE12A09B
BE03544E
BE0962C5
BCFB9530
BC70EE1A
BD5ECED7
BDB69D5B
BD715145
BCC0C15B
BD87ADD6
BD34EFC9
BE1BDBE1
BE1E87E9
BC05140E
BD2ED594
BCD44408
3B4968DD
3D02FFEB
BDD2BD31
BC81BA75
BD94BCF2
3D5FCD2F
BD280465
BDD2E65E
BC89FF28
3CB3B278
BDBBBF65
3D6FFAD5
3D9AD499
BC247BC7
3D013726
BD6B4EA2
3D720653
BE13702A
BDFF1495
BDD7365C
3D92C3A0
BDE61BC6
BDBE016B
BE1A02D0
BCB1B385
BCF05653
3D1094D6
3C66C6A5
3D541355
BAE50126
3DDCAF51
3D1EFF99
BE028CB0
BE0B65A7
BD6B9918
3C93653E
3C494B3A
3B7AB2A0
BCC03834
3DEAF66B
3E175C0F
3D32DB52
BC152AC6
3D859D59
3DD671DD
BBCBFA19
BC92D64E
BD1BAC94
BDB7EF29
BD47089F
BC323315
3B8A8DEB
BCAE6C50
BC832756
3CBF2792
3E35E452
BC9BC0C1
3B2D3596
BD6D51CE
BD701D56
BE0330DE
BD7F0BB2
3D99AE14
BD87A7FB
BD707D35
BDEB1E5D
BD831E1A
BD10D3E0
3D34A487
BE2111A4
BDAC1160
3CC30FCD
3D46E44E
3DD02BF3
BD9AAB3A
BCB88071
BE6EDCD0
BE2C49E3
BE5DDFA4
BD6753CE
BC6245C4
BE61B337
BDA4A4B4
3DCCF1FA
BC1A9018
3C049473
3C8A4DC3
3CE8EAAE
BE13535A
BE312554
BEA657D3
BE41BFF3
BD9C83A7
3C1C86F9
3CBCD63F
BD2FF078
BDFD2F12
3D962912
3B04C92A
BC2AAC52
3CD6D66C
3C2D5A20
BE122EFE
BC9DFC8D
BE2DF6C0
BE51E987
BDF4C999
BBC399D1
BABCC497
BBC0F16B
3E13CB6D
3E0BE110
3C71988C
BD98E996
BDC7D690
BEB641B8
3D335A58
BC7FA83B
BE0796B1
BE399157
BE24255D
3DD18741
3D274504
3DE1FAB7
3E2C106B
3E339FB0
3DD3ED3B
BD13D2C6
3DBD9A77
BE75D21D
3C45BF15
3BC4202F
BC25EDF7
3AD0AC7B
3DCA4B90
3B3DB2C6
3DF53BB5
3D8FC2AF
3DD6CA01
3E934376
3D0F9361
3DF06B10
3D840037
BE487CB9
3E13483D
3AE4DD81
3CE0C531
BD3216CE
3E38F9D5
3D293EB7
3CC1D9F1
3E336E93
3BC6E7BC
BD80A5C3
BE455C1B
BD399614
BE2CCDD1
BE49924B
3D4D1574
3DBE9915
3D4A8F7D
3BEA1BB8
3E2DE185
3DD3B83D
3DD7F4B1
BD8D1E48
BEC17C0D
BEB55832
BE5391AC
BE090385
3DCE4D39
3B94CCA3
BDD5A39A
BD3B0AD0
3D913FFE
3DBAB2F4
3DDE45DC
3DBA7004
3D0E59FB
3B75882A
BDCF6602
BE12005A
BE6147C9
BE2F41F1
BDBBB81D
3D4E6ED5
3B98D4ED
BE621356
BE0E648F
BE4A44D7
BEE13F03
BEC09D6B
BE7590F8
BE27A4CB
BE1070B6
BE100264
BDCF64C7
BDF3D0DC
BE55229E
BD9C8102
BE4C0986
BDA1F6D1
BE3A0B02
BE0BAA58
BDDB88A0
BE67817E
BCDB701B
3CEBBAF4
3E2782E1
3D1BEBAC
BB86265C
3D5D2F1F
3DE3234A
BE2F7B0F
BE803C3A
3D2C7ECD
BE14D6B8
BE0CB98B
BD040AC7
BDBA2AE4
BD4EB793
3D5A4C39
BC1AB6D4
3DE08B5A
3E23D0F9
BD17E3A1
3E107104
3DB9BFBA
BE506D2B
3D3F67B4
3DA0FAC2
3CC97DDA
BDD78CE2
BC170976
BD3FBD17
BDF93DBC
3D15BC9B
3D9E6746
3E266CEB
3DD03B63
3D970398
BD2F7083
BE1CC165
BD7BF603
3C4D75B2
BDF33F3E
BD013C33
3C26DE4D
BDC593B4
3B0A8977
3DC6DEE2
BDAC1120
BB5DCBAA
BDC7AF8A
3D62C5B2
BD709725
BE25D8F7
3C8B9095
3CA342C1
3CD57CA2
3D7920DB
3CC21C32
3DD8C9F1
3C90F5D7
BDBD81D4
BD18B364
BE06969F
BDE5606B
BD0B73BE
3D85AF5B
BE108577
3CA5CF63
3E14914C
3CBFD515
3D09487F
3C9B9EDE
BDC7868C
BE3087C0
BCEABF58
BDBEFB81
BDDDDD32
BCD9D41F
BE7F9923
BC0F7A75
BCBC6A77
3E3249C9
3DF3A992
BC1F1F3B
BC99DE8D
BE92B692
BEC0B7A8
BE13D281
BDD194FF
3D64B6B8
3D796B48
BDFF992B
BE96AE1F
BE2793D7
3CC20156
3D2F2F34
3E5A5C79
3D9A15C3
BC346DD2
BEA2CFE4
BE602FE0
BE10A140
BC9F8F6C
3DA8F4E8
BD180E0D
BDC114A9
BE3F0CE3
BE91F15A
3CBF297E
3D36AE6D
3D7D0CD2
3D99A06A
BD84F2BA
BD97B415
BE478EC0
3CC17F53
BD960541
3D3F6599
3D7ED211
BDC3A7E5
BD342D70
BE053B2C
3D596C47
3D0881D0
3DBF2CBE
3CFCC430
BC289996
BC8E2BB1
3D11E126
BE2052B1
3C072A0F
3E065151
BD556906
BD4F2617
3D0925C0
3DC4289D
3E0B78C6
3E23D1CA
3DBF2AF2
3CFE7187
BD93B627
BDFF2FA8
3D486D29
BBC2A6B7
BE025BDA
BE252C58
3D2ED572
3C828A7E
BCAB8B86
BDE583E9
BE655475
3DB1F299
3D7D40C5
3C78F622
BD2DE0EB
BD95F743
BD309BF8
3A52CCA7
BE65472C
BDC32668
3BAA7F45
BDB724B3
BD80C9E2
3D108852
BDD3A572
BE4FA7C0
BE98B497
BD627681
3DC32983
3E25FFA7
3C5C6D54
3D49EF8A
3E2ED751
3E30B71F
3E23A1A0
3D81447D
3C99EE3D
BE981B22
