BD7A3FE0
BE1B70D2
BD1A005D
BD80878B
BDDD2D6D
BE361F5F
BD14FCD6
BD457256
3E03600D
3E190A62
3E20798F
3D62FE41
3C81A8F6
BCA90D18
BD082732
3D25B3A9
3C950258
BDAB8919
BE121FE2
BD889119
BDC461D7
3C4EBD39
3CBCAD11
3D712130
3DE4386D
3D528238
BD6E9EAA
3E49D681
BDA5A773
3C2BF226
BE450A82
BDF23674
BDE4B149
BDF1228A
BDA7DA16
3D37C1AF
3D9403E5
3E039E2A
3E1D966C
3DFB3751
3D0816E2
3DD9D88C
BE674547
BE35BA7B
BDDB3883
BDDA327F
BDDB4FD5
BDDBC5C8
BE127333
BC591137
BDE485D8
3D3C8176
3E20195A
3E5FF5B6
3E19585B
3E4E2213
BEBA575B
BE24DABC
3C0914E2
BDB27071
BE14F116
BDF24B99
BDCFD934
BD91B9ED
BD7809CA
BDF95749
BD8D7DF9
3E06BD57
3E438EAC
3E00A37B
BE091716
BE623DD7
BE51BAAF
BE7CE14A
BE6AB84B
BE8ADFA0
BDD3A9DD
BE6CE3A5
BE44EF62
BEB9CA48
BE3024CA
BD52E068
BE2E6FBE
3E25B41B
BDB5B7B1
BD8EDD2C
BE0FFB0F
BE34F895
BE49EC2A
BD3B469A
BE01EFD3
BDA4ADF7
BE1D0A5A
BEB42927
BE7469A9
BE32BF6A
BCE7AB95
3E1CEC29
BD7B1380
BE025D40
3B7BFD0E
3CB3075D
BA6A2368
BDD0EB68
BDC9FE68
BE449F09
BD63D836
BE4F35C8
BE1364C4
BE0E5592
3BEA3825
BDCEEE6D
BCCEEA25
BC53297E
3C9875B0
BDB31604
BE5356D9
BE377838
BD07CD59
BCA8E13F
BD922A8C
BD62DBF2
BE3923F8
BE52BAA5
BD8DAD0F
3BC31ABF
3E1A1EC9
3E10B58D
3DC06FC5
3D209DE1
BDA65139
BDDF11DE
3B6EEEF4
3CB2F703
3D60DC92
3CBEC613
BD19AF49
BD61FCDB
BC962BE5
BD21A4D5
BDEDFC08
BBD00CF0
BB5FDE08
BB2C5D8B
BC87C13F
3D380673
3DCE9439
3BDEB152
3D83A5C1
3CAFB796
3D85550C
3DD6480F
BCE440FC
3DCA33B0
BDE90448
BD659BB8
BBCED738
BDDF7F2D
3E4B3A93
3E668554
3D6794A2
3DFABC68
3E3BE075
3DEAD179
3E0DF45C
3E52500F
3E03BF9E
BDA21119
BD9A9726
BD71E53B
BD23398E
BC86DCB0
3D6199B3
3E07344A
3E0A856F
3E11014C
3EBA26BC
3E76D77D
3E8E7A9F
3DF679F8
3E0D0612
3DE17C6D
BE50E0CD
BE5E2503
BEBFBE34
BDD71738
3E31A08E
3DA90E47
3EAD8F8E
3DBFD2CD
3D3FAE99
3D362757
BC46EB18
3C814C9D
BDB8E635
3E0BBC95
BDEC88EB
BE404EAD
BDA424CC
3D5EFDA8
3D95EB2B
BD4957E4
BD5DC794
3D59646E
3E6271B1
BE33D23E
3C720FF8
3EA24ED1
3D951B99
3E1BFBC0
BDBBCDD6
BDB932A1
BD964CEA
BD614D20
BD0D48E2
BE1C0ECF
BD956271
BD95F39A
3D90406F
3EB1FC42
3EB1019C
3ED67EC7
3DFE66D5
3AC5EB8D
BE4C9067
BDEB18B5
3D30FE69
3D99182F
3C1A1633
BC92BA70
BD6B2A9E
BE298770
BEB014D7
BD94A2C6
3E6FEE88
3E946ED3
3D8EA958
3AD2DC4E
BE4CF029
3A435040
3D1E9D22
BD3835CC
BD2F7B43
BC5DE392
BE25312D
BEBBCDFB
BED7CE81
BF00C4FE
BE995FAE
BDC0572F
BDE78420
BDC6233A
BDF6974D
BD34A2ED
BD2D4408
BD4C7A83
3D349057
BC91D76D
BDF117F6
BEABA8A1
BEB6734C
BED8D5B5
BEB8CD40
BE16BBB2
BDC1D723
BE27FF13
3D15C4A2
BE13C3D0
BDC7434D
3D5D0310
3DB2E388
3D00F53E
BC06F766
BE305833
BE404C7E
BE044C01
BE35B03E
3D82060D
BCA58363
BDDC3816
3D13F97F
3C0E5BB0
3CDFAB9F
BD910883
BC2470B0
3D8C3C65
BD2FCE6A
3C5577BD
3DB40FEE
3CB2B940
3D3AC750
BD1B4258
3E3D7DBB
3E458C3B
3D80948E
BDCE8C98
BDCCDFF3
3B9AEE2D
3D8E1B67
3BDF5EDC
3D8B5F82
3E3867FF
3C99C68D
3DB4EA58
3D95E311
3D2DD002
3CD9659D
3DBCC385
3CBC73B2
BC6C45C2
BE2A3246
BDBB0EF2
BD2FC414
3D09BD38
BD03DE9C
3D83E4F3
3D8E951E
3D8FC48D
3DA6EED3
3D55BD95
3D93824C
3DE44EBB
BDACDA90
3D5AC27C
BDA56828
BE0CCA83
BE5A50B5
BE2A64EF
BCF38B9E
3C6D25EF
3D0B2A90
3D43DEDF
3C111EB2
3ADE53FC
BD91A86A
BD5A6CC7
BDB0393D
3D6F7043
3BD6BB73
BCA32C7C
BD748231
BE30AA43
BE521010
BE069991
BD984F72
BDA9BA51
BD188FC5
BDAD685F
BDE9B43F
3C100881
BD60D7DB
3C125774
BC9AA74C
3C9DA70B
3D021600
BDC56FFA
BDA0767D
BDE5F836
BDD7F267
BC7768C5
BCB3FF5C
3C9F9FA4
BD971ACF
3CED998E
BDFF6473
BD92FCD4
BD0C8925
3B9CC552
BC9CDF5D
3D255348
BCCB204A
BD1711AC
BCB25F73
BC5F7EEE
3C92057B
BABD0E36
3D76CD67
3E47C1E7
3CD14299
BDD04344
BD97FDCC
BDC54AE7
BD387CD3
3BC16466
BDBA7250
BC9139E5
3C8A05EA
3C8F2AD2
3D887662
3C84975B
3DC29464
BBBEF3D2
3C943B3D
3D515F8C
BB430717
BE93FFCD
BE38D13A
3CAD383C
BDBFCE6F
BD45BB92
BD6C9D90
3C3E5BAA
3D28ED71
BCCC80F1
BD584494
3D96A014
3E450474
3E01C7F8
3D9668DA
BC25E825
BDCD6515
3C32DF14
BE08B3BA
BE49E7AC
BD76EEE1
3D94D495
3D74502D
BD997DD7
3B2788C1
3E3F9F67
BD83B824
3CB37875
BD556DD2
BDCCB98B
BE9CA870
BCED4D1A
BE2194F6
BE4FB3C9
BE502704
BE6A4698
BE01E56A
BE64DCA1
BD2016B2
3E0BB504
BD4CDF6F
BC94E1FE
BD4FB84F
3B0EE384
3E304DE8
3E7CB54F
3E332B06
BD30DADF
BE2997BB
BCBC4EBC
BE109CD8
BE1869EC
BE1B8F64
3E2425A0
BE098D33
BE24EAC0
BE561010
BC39718C
3CD34346
3E474A42
3E6598EF
3E12C204
BDAC4364
3C742C8C
BCE00059
BE91DDA2
BE43E1E9
3DE04997
3D1822F4
BD1CD0F1
BEDAFCBA
BE06797F
BDB7990F
3D31DC6E
3E23A89E
3DD4CBF8
3CF1A969
BD1D9367
3CB24785
BE38D8C2
BE2970EF
BD3BC0C0
BD934834
BE9AFB5A
BE285F6D
BE34177B
BE07C0AB
BD97C39B
3D0E5FC7
3DED57ED
BD8A4A42
BDFF8B86
BE050D61
BE3C80C1
BE9CA582
BCD017C4
3E276136
BD345752
BE63D0E8
BDCA07FC
BDAA91D2
BE24BF2D
BC1231EA
BA8F0093
BD53BF7E
BDC7B92C
BDC89349
BDE7DE16
BE3444F2
BDC7092B
3E5BB887
3C01B97E
3CF4A235
BB494856
BDBA09C4
BE12CC15
3CBF31EC
BDD1FF10
BE0DBDD9
BD3898F1
BDC4BF6D
BC00A8E1
BDD5E890
BC9A9AE6
BD99ABD1
3DD04807
3E0BAD55
3CD3DE2F
BE054541
BE27E95A
BE24698B
BCF5797D
BC5BEC43
BDCE0A35
BCC9A9D3
BC38866E
3D9672AA
3DB281F6
BD834FF8
3DD8A26D
3E4E866F
3D69861F
BD6FCB49
3B2DF1FE
BD1FFABF
BD75BFF8
BBC7A9B5
BD2821BB
BDF1BCDF
3D19A5DA
3DE5BCD6
3DE3AC33
3D93478F
3DB3EDF8
3DD9FEA4
3E6C63D0
BD7C7516
3C41F66F
BC7F6E78
BB5A0100
3D58C762
3D42D859
3D1FBAAF
BD7249FA
3DD53BB5
3E0CAC24
BCBA91C0
BEB643EB
BD1B4C92
BE0A861B
BCC23519
3D0CFD5A
BC8E454D
BCB7C0EB
3DC26D03
3D0C6D73
3DAFC68C
3BB71578
3DEDED30
3E837286
3D44561C
3D81BA21
BD70AD44
BE43E2D1
BCDC5595
BD293C66
3D456ABE
3D2961B6
3C779781
BD48621C
3BE21E0D
3D13933D
3DDD6C1A
3DEB8987
BC2BAC64
3CFB9C74
BD937AE8
BE180879
3C27478E
BD563D2C
3DA35B90
3D879727
3CD6E838
BC8F50F7
3DFF2E8C
BE045B0C
BD9F52A4
3C2EEC64
3DC88EED
3D921C3A
3DEC7D5E
BDB16903
BC2040A2
BD3ECB74
BE120D31
BE147483
BD7C31E0
BDA160C9
3CA2F7C2
3C9D5C27
3DCB6FDD
3D9182EB
3D92B8D4
3CCBA9D4
3CC86FA7
BDDDBBCC
3C1EC93E
3DC8C528
3DCF23FB
3D88DAEC
3CF8178D
BDA02011
BA6712FC
3E1A97C4
3DEB1261
3BDC46A8
BD86CCC0
BE27828B
BEBF2771
BEB83D74
BE67D881
BDC04809
BD84407A
3E4E33BF
3E0CC2CD
3E772530
3E8D313D
3E4F1A1A
3DDD9179
3E2A3172
3D46FC4F
BE9C877B
BEB337CC
BEAA6B9F
BE84EEB7
BD941AD3
3D2B952F
3E135190
3EB246C9
3EC2EB26
3E88D239
3EA3176A
3E80DA1E
3E0333C1
BE4471DC
BE95BDE1
BEB409CD
BE96E185
BE398A80
BC88FDBF
3D83EB24
3E4BE4DB
3EA40EC2
3EAA9840
3EA242A7
3EBBC4A5
3E056575
3E7FB935
BD314460
BD505309
BD7722FC
BDE87F8A
3D2F2899
3D613679
3DC3F970
3DBE5B7D
3E573FAD
3E2CD873
3E92A11E
3EA75C0D
3EB6C773
3EB2467E
BC81E5D2
3E19DF7B
3E2BDACA
3E180908
3DFCF190
3E02E473
3DDDAD7A
3C33EAF6
3E1C5382
3E2A507C
3DE4E12A
3CB99F47
BE134FF9
3CC37228
BD12A145
3E5FCFFD
3E9457EB
3E456BB6
3E6EC3BE
3D8FF00F
3D2CB768
3C687E88
BDA8CE7D
BE0D855E
BE94CEBA
BEA75601
BEDE3F2C
BE24D044
3D9082B5
3E51CBB2
3E050E0F
3E872E60
3E98EC14
3E44F7E7
3D3A20D6
3DC19F67
BD6A9D83
BE5B86ED
BECB92B6
BEC63AE4
BF024D64
BD29F4BE
BD96D326
3E69D046
3E525CCA
3E5A5D40
3EB0D0C0
3E4F1CF5
3DCFB015
BDAE1C35
BE6028E4
BE838EE8
BEBD99D8
BEC52B57
BE6E00C6
BD82AC72
BCFD6F16
3B816053
3D521C2B
3DB9702C
3E36C258
3E327DB4
3D8F21FB
BD9EEF41
BDCC617C
BD624E47
BDEC14E0
3A2D4E93
BD9AAD14
BDE6024C
3CE9DB5F
BDAC6027
3BE4B3D6
3D97E6FC
BD688E51
3D56659E
BC0DDDEA
BCBC2D3E
BCBF18A6
3CFBC888
3D9700B8
BC3F35AA
3E2EE6B9
BC53E3DE
3DFBFF74
BE04768F
BD825317
3DC1E536
3E0099DF
3DCDE026
3BEB9FCE
3DEC655B
3D5236A9
3D04FE04
BD850C6A
BC0DFBC0
3E080D50
3D59423A
