BD3B161B
BE05701F
3D1C60B9
3D024D53
BB47F802
3DAF452A
3D73134A
3DA82543
3D0D4F3F
BC06271C
BDE52AA4
3CA68D17
BC8B791F
BD5880D9
BB5B48BA
BDFDB304
BE730CBC
BE1AB221
BDB01CDA
BDFF0CC8
BCA89A6D
BA941C3D
3D1D86E8
3D27501C
3B802201
3C4FD81F
BC03D048
BE4ADF88
3CB54D8A
BDF9F35D
BD7DFD36
BE10D804
BE0575E8
BE36E3F7
BE2AF2C3
BE495E75
BE3DE816
BE82B300
BE8DC9F7
BE3F6775
BE2FAC55
BC298831
3D8A2616
BDB47A37
BD8726E1
BE833D7C
BE3B3F88
BE21F4E7
BE613220
BE7847A9
BDD6B306
BEA09E7F
BEE31AEB
BEBDA52D
BE84F1D0
BE2A8A2A
BE9592E3
BD299BB3
BBA17F58
BE93716B
BE0E47C7
BDB8C0E1
BE12B473
BE2307DF
BC130255
BDFE65FF
BE9DF32F
BE3F9008
BE164A8F
3D78D2B1
BE8A1A01
3DBAF2AD
3CABE091
BD3E896F
3DF1D67F
3E080ABD
BD92AFC9
BDB61B5D
3D3CBD42
3D11CCD1
BD772AA8
3BCE3E74
3DFF5EC6
3E56EA14
3B9810FA
3EB25646
3E241DDA
3DB1F1D7
3E6DC83F
3E014948
3CF789B7
3BD29820
BCA1B19F
3D3D309B
3E550BA9
3E650B77
3E9B6441
3E6D9CF8
3C37E9FC
3E8266BA
3DBDF1A9
3DE9A16E
3DF53C2D
3E17B729
3DEB55BE
BDBEED67
3D9DFDFD
3E9106D9
3E1F9624
3E0A0D01
3E92A75D
3E94C991
3E140520
3E6AE0A3
BC5F2D07
3E096D5F
3E15FDA8
3DC147D8
3D895FD5
BB6E4675
BD527D9C
3E4B38BE
3D6DACC6
3E43A3C9
3E5B89B1
3E876AF0
3E0B9C0A
BD335124
3C448523
BD62F93A
3C94E108
3D0E7A7B
BC8AEE5D
BD64EEB3
BCBA47FE
3E18AE74
3D486EF4
3E357F7C
3D2A53DA
3E89956D
BDB26C04
3CCC2452
BE0F6631
3C5A0FB4
3DB5BA72
3CD0AC2F
3DA6686F
BE133F33
3C81CAD4
BDB10955
BD03AF61
3DF44270
3D89F4F9
3C35A894
BEA715EF
3D239B99
BE580705
BD55638C
BD99E7FF
BE1B9000
BD852427
BD687047
BE51C4D6
BD30FAB6
BDD4FDA3
3E2FD0DE
BDE468B2
3CDB170C
3E4A6C6A
3E93C99A
BE53B96D
BE996C33
BEB3CE57
BE9008ED
BF194B17
BEF3BBEA
BD949F43
3D398A45
BDE1BE58
3E5D8511
3D77C0FA
BC539039
BD92D13B
BD92CAE7
3C8B6309
3C5838E1
BE39319E
BE0E8FA5
BEBA48EC
BEF1B0E6
BEAFC608
3C113962
3D01BE84
BD89CD5C
BCD8A08A
BCB3F6A1
3D6FCD9D
BD2EF98C
3DA62A12
BDF54557
BE1AA833
BDA5397C
BE2B11CF
BE912927
BE297BD3
BD356A98
BE4E664E
BDBCEB36
3DF3DF29
3B8811DA
3CBB991B
BD73D06D
BDB1EB6C
BDBF551B
BE0F2465
BDB78899
BEB19E5A
BEB8C533
BEA29C49
BE93C819
BE5F8BB5
3D896CD6
3DD18EBF
BDC7A0DB
BE1561BB
BAC62BA1
3DA2FC04
3DE5AAFB
BE00BC7D
BCFDB1E0
3C0B1CAE
BD6843AB
BDCC3AFB
BE88D6A6
BE9D896A
BE471804
BDBF92F4
3CE2F12B
BCD4493C
3DAF08DA
3E9F2156
3DA50B36
BD243936
BCC6F624
BD9FF5BD
3D6A95BC
BAD4B13A
BD559461
BD698125
3D8260DD
BD839FAE
BDC68ED3
3D9C2DB0
3D66521F
3E3EF10F
3C923DF7
BE2ACA78
BDB1013D
BDBF2E46
BC018865
3D2C0193
3C8AB429
3D84953F
3DBD1C3F
BC806BD8
BDAB3872
3DDBB426
3DD50032
3DC07145
BD80939F
BD68B15E
BE0DBCAF
BD69DF83
BC1319BD
3CDF0598
3D8A13FD
3D9F5BE4
3D80826C
3DEC51C9
3E5C47AD
BE5D3141
3D2493C9
BB5B7B9E
3D09E521
BD4AEA05
BD94D57B
BDA5574D
3D5DB81C
3DEF50D0
3D9ABFFD
3E3A1801
3D1B61A4
3C63F497
3E2AD1B5
BE619A07
BD89BF6A
BDF50906
3D34FAE3
3DAB1002
3DCF7641
3D10EA80
3E424149
3DB43812
BD602B6C
BDEA079B
BD4692C0
BDD5B8ED
3E90361B
BE05D455
BDB0A3DC
3D03D06A
3E26ED6C
3E5D1D94
3E334AB6
3E7F1439
3E399952
3CFAA3E1
BE1C6688
BE77BE29
BE5BB4A6
BE80DF10
3E26E725
3E27C26F
3E511034
3E57F83E
3E2403B3
3CEC277F
3D8F7F31
3DBD84DD
3D240906
BD03E199
BE5F39F0
BE7FCFF3
BE21C8E0
BE89A9FF
3E575858
3E29303E
3DFBBCCD
3DF242A7
3DD70B6C
3DE3EA75
3D0BDCF0
BDCB3E62
BDCF1569
BE0FBF96
BE017C4C
BE72928B
BE50F9EA
BC12D594
3E4A0911
3E612038
3E005CE5
3DEFB327
3B2DCE28
3D103ADF
BD9DA306
BDDD433B
BD699248
BE3A49B8
BD21FF71
BDB082D9
3CD2426B
3EA334C6
3E169DB5
3E2813DC
3CDCB5F2
BC2288A5
BD0782F3
BD217D0F
BC7C9BDA
3B826B71
BE3553CF
BE199885
BDFDD479
BD965FB2
3D326B1F
3D29FB59
3DC96D16
BDCFD8B1
BDCA6E05
3DB2B5CD
BC9B430C
BCA97464
3DB48226
3E2113F6
3D3B423C
BD30FC76
BDFDBB85
3D995C81
3D9170CF
3D37BCEA
BDBCCD28
BE1F1501
BCF3FE1A
3D922CCE
3B488546
3BC9DCFC
3C6415A2
3DD985FD
3B557C61
3DEEC34C
BCC62429
BDA9F566
BD9A1187
BD8C1A67
3DC6BA32
3D61F158
BE47360E
BDDDBB08
BE14984F
BD9B0328
BC842287
3DAADD2F
3D8EA22E
BBEEA9C7
3DF2F72F
3E0FE795
3CC225A1
3C4B16CE
BE00E2F5
BB52FB10
BDB6188F
BB920567
BD97D7F7
3C79DA87
3D0E5E0F
3AB5EC62
3C1E77B6
BE016FD6
BD118265
BD8FCD19
BCC344AC
3DE49B4D
BD43315E
BDDE33AF
BD3EF8E5
3C6C34C3
BE45FFA5
BE0D8B13
BD942625
BE25B4B3
3D996803
BCAB55E3
BE07B3BA
BD990819
BC4B5867
BD1FFA25
BE0E92F0
BED8CB15
3D7D9F60
3E89D0ED
3DD5A289
BEA53051
BE5C8321
BE2976BD
BE3D68C1
BDF80AD8
BDB50A88
BD11269F
BDC36580
BDAC57AD
BD2D6A84
BE830DC1
3E309D48
3F088DD7
3E589594
3DEA2E19
3D293E4B
BE09B126
BD9B2A26
BE5D9134
BE117C3E
BD5F4F3E
BE070FDD
BE149A6E
BE3E9E85
3D9F02C6
3E999DB6
3EB32B2B
3D72C344
BDC4B9B7
BD0B7DA2
BD5532F0
3C4A2103
BE10ABC0
BC37A8D8
BD0B9D82
BE243216
BDE78B3A
3CD5D76F
3E143E42
3E3487CB
BDBE2AF8
BC96B7F6
BE13880A
BE3386CB
BDB8FABB
BD75D4F6
BDA10960
3CF38EA4
BD012978
BD7A5FE7
BE2E54AF
BD549AE1
3E3CD5A7
3BF8158F
BBA08DD3
BE3A3F47
BDFDD7D1
BD9A0042
3E562D85
3DC48245
3DD57E58
3CE6B137
3B509EDC
BDBDBB06
BDC977ED
BE125C6F
3E39682E
BD6ADA89
BE8019A0
BE910D0A
BE053ECC
3D064B46
3DE93369
3DD095A1
3DCA79D9
3E48B14A
3DD32B66
3D935D6E
BD914409
BCE251B8
BEA02ADB
BE93EC22
BECD6BB6
BE77566E
3BD1AA27
3D2C2751
BD8AA792
BC0BD8F7
3E2C722B
3E0FD045
3DA18760
3DC0617A
BC03B591
BD4E963F
BEC2869F
BE05FDCF
3E59BD16
BD965FED
BDB066EA
BE4CE113
BE18D8AD
BDF2C604
BD80FDD3
3D844403
3DFC4E22
BD9B5738
BD3B5820
BD1AC241
3DB505E4
3E850851
3DBD8582
BE61E896
BDA26754
BEAFCBF9
BF049744
BF04F320
BEC91691
3D906C1E
3D9CD80E
BDA181C4
BDC75019
3D97DEDA
BCC07812
BE01B2C7
BDA01AE2
BE1E583F
BE17AACB
BE839253
BEAF9D53
BE9BD00E
BD851B3A
BE187679
BE477153
BE69138E
BE4AA1B8
BA73E201
BDA5B484
3D8678EF
BD7D20F0
BDE66390
BD75C115
3D44F48A
BE60AEE7
BDD73A05
BE92828D
BE043B3C
BE29F9EE
BD2E352C
BD807207
BE48F4E9
BB37643A
BE45B7DC
BE1AA04C
BDFFA208
BDD66827
BDB0668B
3DE79A54
3D4C3B42
BD0C5DF7
BE17C148
BC3D1E98
BD9B5E11
BD6C4C55
BD8EF298
3C525199
BE3BF4B9
3D09B083
3E1127DE
3E347CBE
3E8E8375
3E76BC45
BCEBC0B9
BD03B6F1
BE57D520
BD4F547E
BE5F3AB6
BE8F0C99
3CC8DC65
BE18B916
BE22D8A1
3CEE926F
3E0AF0B8
3D5F5B0E
3E439610
3E5B6261
BCB72020
BDBA429B
3D10981C
BEA975AC
BF4B1FF0
BF001083
BE1B978F
BD70F33E
BD20D042
3CF610B7
3E59484C
3E57807B
3E14D7D8
3E2A26C7
3E21F34C
3D97DD4E
BDFC6503
BEC75E26
BF21EC20
BE9D7E25
BDF66A57
BE25862D
BDD6C482
BB8C6AC9
3E16F1E9
3E3787B7
3E84AEBE
3E30E14C
3DEC71C3
BC9D7522
3D2CD662
BE2E360A
BE15FDAE
BD821249
BC2E963C
BE3D835D
3CC01EA3
3DF9C107
3E9CC1B4
3EC58F35
3DEAA337
3E1939D6
BD9976C9
BB493E9E
BCE70D05
BE6EDB0C
BDD28F43
BDD6369F
3D365B4A
BE42AD6F
BE2D834B
BD32DCDD
BD283BA5
BD1D7E45
3DF76F99
BE4463C2
BE63B676
BDBC09E2
3A34E02D
BDFCC5F2
3C939151
3E36C73F
3E2122F3
BD81DEFF
BE613D0E
BE99601B
BE3FEE60
BE2D3FA1
BE2C8383
3B498FA0
BE0C6A1D
BDD0E25C
BD13BEB8
3D3F4BEF
3E9B5683
3E95153A
3E9BE10C
3D0323CB
3A931853
3D15DD86
BD68F7DA
BE413B2F
BDF9C80E
BC816E75
BC4BA254
BD9E52BF
3E0A5AF0
3E50EF78
3E68307E
3E81237E
3E525D30
3E04DB7B
BD5DF292
BD5B0695
BDD4CA50
BD7164F5
BD0C8C4F
3CF7103C
BCC9F0C1
3DC8E74D
3E72F1D4
3E88679E
3E35797B
3E5225D0
BD812C60
3E30A52C
BD6D20C1
BD548B2D
BC7BDD18
BCE7C58A
BCBB1AD8
BDC983DF
3CFC5511
3DA26E68
3E91294B
3E6B9FC8
3DB0E857
3DAC563F
3D0F7645
3E07DD03
3D402C2F
BD098679
3A7D7D97
3D93E6FF
BC8CEDFE
BBCF34A2
3D91FAC4
3D821630
3E4102B3
3E3240AC
3E09D0A6
BD45E9BC
3DEB6DC6
BE6CA383
BDAE659A
BDF7B34C
BDC11D86
BD95DC03
3D302401
3E162E43
3D9AE37F
3DD5B059
3DE7C97D
BD273554
BDA7D3A0
3CF4753D
BDA0DF46
