3DA6ECDE
3DF26054
BC9B0AD9
BD0B5953
3E4E88FA
BD199C20
BDD28E03
3DD15A7D
BC5DE17D
BC0063CA
BC4D1593
3C8A743B
BDA406E0
BE268E50
BBBB8BB2
BD713ABB
3DB6D83E
3DD8D6EF
3D08402D
3CF7A704
3DB4D5DD
BD32BF16
BD06C143
BCF68F31
3C1A1CBF
3D5B4860
3D8305AD
3D6728A1
3DA84E18
BC08F634
3DDAA507
3C6D5431
BCE12A16
3DA81E99
3DC97A6D
3D837473
BD872207
BDD4D674
BE09B8A9
BD2A9BD2
BE0AFFAB
BD201C2B
3E48BC6E
3B139250
BC8AC44F
BD372667
3CB336EC
3D975D71
BD96EC8B
BD821594
BE257DD5
BD90DBD4
BDBC9008
BE6D9801
BDFC99AB
BE3B0B40
3DB67693
3CD20357
3D1581AB
3DC85357
3DE4213F
3E0CEE0E
3D95681F
BD15C12A
BD0571D8
3DE368B3
BCBCA177
BD803CA8
BEA7618C
BEB6E35B
3D471727
3DCAFB8B
3DAB9BD7
BD016E5D
3E328E8D
3E3D1988
3DD2AA7A
3DC4F9E1
3E33CF0A
3E31BE3D
3E50F7E0
3DCB6206
BE377B0D
BE8EC9DA
BDB4A4FC
BDC77ECF
3B971144
BBFCC529
BBDC3C2A
3E1BFD9E
3DC057AB
3E2EC25B
3DC410A1
3E1ADE35
3D58DA85
3D9E7BD8
3DC7A146
BD99794D
BE609432
BE7C4821
BDFB7B96
BE3D29A1
BE10BDBB
BD218588
3E06BCD1
3E0F1186
BCCDBA50
3D9F18BF
3C88E7E6
3C58E6D9
3D5469E1
BCE3CD40
BE2616F6
BC666872
BD589597
BE0DFD94
BD5E89AD
BDDDFB7D
BD6D646A
BDA7733E
3D29FB04
3E1BE8FC
3DAB6626
BDA09DE1
BE1CAA5B
BE0354D6
3CBC92BC
3C2A397C
3CB26C1F
3C9DB389
BD9D7B8D
BC39AC70
BE015193
3B9F93C4
BCE793C6
3E091523
3BB1E32D
3C90717E
BE4F90FF
3D13BD19
3A331978
3D5EC564
BCA7D2BD
BBE53CC5
3DA05C4B
BC9E10EA
3D3293DE
3D1115D2
BCA370A7
3D928040
3D7E53C8
BDA1E327
BE08D7AA
BCDCA875
3CC334A0
BC95C4CB
BD473AC2
3E0DEF6E
3D4CC92C
3E331F29
3E17449A
3E30363F
3E95D161
3EB5EFE0
3E278DBF
3C3DE4A6
BDC9F1BF
BD9CE3D5
3E80112E
3E6A684F
3DAD6FD9
BD3B9B75
BD3B70FB
3E848515
3D79FF3F
3EA74E49
3ED3343D
3ED93F38
3D8717CE
3C7FA9F7
BD11009A
BCD9E8BD
3DD07B8A
3DF9F40F
3EB62CC5
3EC78AC8
3E1B5F6D
3E6D2922
BBC97AF4
BD421CAF
3E68EF2D
3D82B634
3DB6FFAD
3D909A99
BDE97F3E
3D57E8D8
BB2D12EC
3D2354D2
3D7D837E
3DD0D524
3E1996D3
BCCFB54A
BD132693
BE3367DC
BE45650C
BEEEE12C
BECB9010
BE81C471
BE12B9DC
BD44FFB1
3D80420C
BC87D694
3DA6B2BB
3C30D310
3CDA059C
3DB8A994
3C866E69
BE403D1E
BEE142BE
BEFEC51F
BED8ABF5
BE94C919
BD053C76
3C9A474E
3CB73B82
3D825936
BC9116EC
BC27B7BE
BD858AF3
BD8BDF2C
BC84E9EE
BD937A90
3812735C
BE18B320
BE43E0C0
3BE9D4E8
BD627F3B
3CD894CA
BCFFA088
3BB50E8B
3B96C18C
3D26900F
BC0C9A08
BA9FC0CD
3DA95CD5
3CF59928
BD2D1DAB
BD8BE1DD
3D39BBB4
3CDB1AC0
BE048092
3B94D292
3C49BFF3
BA775D90
BDC247B4
BDF85C06
BD64E0E0
3D507F57
3D0FE709
BE090E86
BD832DC9
BDEFC5DB
3C4A30A6
BE99A290
BE97404C
3CA9C49A
BDEDAB04
BE431227
BE473C41
BD3D15CB
BD895FE8
3B4D8BB4
3B96BB6A
BDD51ED0
BE1E7530
BEAD5720
BEC615F7
BE6E6080
BEA6CB74
BE31CE2E
BE8FC370
BE9E2110
BEADDB65
BE0E1A1B
BC4383D3
3D22BAB4
BD7014F7
BE3B7D45
BE8E6553
BE554F81
BE6CD526
3DFBF362
BE3FFB91
BE0FC978
BE1DF502
BE97F4C2
BEAB644A
BE533622
BDC2AF39
3DD65267
BC9D4DC2
3C98F6A6
BD93890C
3CB89229
BCD7D259
B9F98E37
BDFBA86C
3CA1C91E
3D00BF2B
BDC1E249
BE1695FD
BE0F092C
3D2E3109
3D5642D9
BBA1769F
3D846917
BD80034D
BC9071FB
3CEE4BC9
BE3EA533
BDB11F1C
BDD55114
3D9D361D
3B34DED5
3C12FDC4
BE109249
BE2FD13F
BD7EE238
3C8740B7
3D49D78E
3D35A79C
3C9B8422
BB98EB52
BE69257A
BDC088CE
3DC8AE77
3CD43564
3DBE56A6
3DA5AE76
3D60D338
3BAA3F38
BD8F302D
BD829123
BDD0113C
BD2DDB76
BE1C6F66
BE27B6A4
BE933850
BE1589E6
BE1017D1
3DF05D81
3DCAB7DF
3E22B90A
3DD7555E
3D06E4CB
BE1C6F63
BE04C648
BE778F51
BDBD6317
BE6B28AF
BE9EF0B3
BE6BA06B
BE3FFE0E
BDFFA272
3D251B52
3E30181D
3D9E30EC
3D4FF1E0
BB7C63D0
BDBC0094
BDC498FF
BD7D4576
BD8E7E2E
BD092A08
BB502AB9
BDF1CA22
BE4B9494
BD8BB0EA
3D38D3FA
3E53FEC6
3E6FFB97
3E107693
3D8D55C5
3E085280
BDB1A990
3D6DB91E
3CBB2330
3DF6157C
BD97BB09
BDBFDA17
BD915F1F
BD070803
BE4C14FC
BDE5A96B
BB1FFFF2
3C323C48
3E15D6AB
3DD29A9D
3E37C05F
3DA49F73
3D35E5E1
3DA970B3
BCC6FF87
BC60131C
3D3B43C9
BE931975
B9EDF99C
BDBAAB59
3D915A22
3D26C2A9
BD0386FB
3D97C7E6
3CDA4992
3C21D891
3BF095FD
3D1CB315
3C142DB6
3D19747E
BCE5F9EE
BD677C9F
3D18E3E6
BD884C05
BCE70111
BE11109F
BD94A596
BC46AE17
BD9F7B11
BCCD3B0A
BD048E75
3D91A5AB
3D332C82
BCA51D00
BD03CAE5
BDA76B04
3E032800
3C1A8A99
3D8BA9C8
BD78DAD6
BE476346
BF14F3AF
BED867CB
BDEC51B0
BCF8938C
3DA245A6
3DA9A850
3DC2AB16
3DA0CB0C
BDCFFCF0
3E0A33E9
3D5B27BA
3DF78435
BDF9E456
BEAD92A1
BEFC2931
BEC2E891
BCF725D6
3D642A50
3DF16CFE
BD4E71DA
3D33D4DB
BC29E228
BE41E70A
3E489CE3
3E69576B
3E14B3C7
3CFC3DDA
BDCDAB65
BE215055
BE5DC0B9
BDD605FB
3BD5D89C
3B7E2E32
3DD52B7B
3CCC5121
3D6B6CBF
BD4C8868
3CA1975D
3E249B3E
3E6878E1
3EA72683
3E3D113E
3E018B5E
BDC7154B
BD76B96E
BBFF3C12
3CA5B568
3DE51134
BBF19565
BDBB5A3D
3D40DEED
BDF73922
3E3CA3F9
3E973F13
3DF6F221
3D2453A7
3D7EBA92
BD314010
BD66C86A
BE091EC1
BD1B12BE
3A8AC510
BDA335FF
3C077628
BE04BBF9
3D45D4AD
3E115B64
3DABA5CE
BDAC28F1
BE0378E0
BEA7248A
BE0425CE
BDDAED7B
BD05E2B9
BCFD5ED9
BD819D34
BD6BCE16
3CC423A9
3D0396C5
3DB93991
BDE91D01
BDFD9F8E
BE39B307
BEC28D19
BEBDF971
BEF0A785
BD763757
BDA2ECE7
3C59BDBA
3DC59E56
3DEB50E8
3DC8386B
BD1F6539
3D1B940A
BE1CC174
BE0E5005
BE93FA54
BE9D1E02
BECC5F85
BE9B4BC5
BB8445BA
BD941495
3B0CB644
BCF5589B
3DB44D85
3CE9D643
3D45D1D1
3E6071CA
BC8E7571
BD0404EE
BE177F86
BE41058D
BD923941
BDC1FA66
3C4C077E
3D3D3ECC
3DD1D369
3C2F31B7
3E12A1BE
3DB5DF72
3B3B80BE
3DA701EC
3CC6449C
BD2FD355
BD84C987
BC2312ED
BD886261
3E1386BB
3D5602AE
3D3957B5
3D51AFAB
3DB54BD8
3D8B8C84
BDC5C928
BDB2B62F
BD212774
BD82130D
BDA63630
3DD63392
3DEFCC7D
3C4BF1A4
3DF6C071
3DE0F87C
3D7C0C2A
3D81A909
3C04DA13
3CFE8ADB
BDFE991E
3C8A0672
BE16CF88
BDFD79B6
BD82D911
3D1E5210
BD2D0EBD
3D80514A
BBBDBE9A
3DA1E5DA
3CA9D00B
3D3800E0
BE083475
3A73139A
BD941783
BDC79E39
BDCFD124
BE28FC8F
BD68AEF0
3D448501
3CB7B6EC
3DA33789
3D8D3EA1
BDA000D7
BB1E78D1
3D0EEAE0
BD6B926F
BDCEF3A3
BE2A9288
BAB6699F
BDF02971
3CB7ED8D
3D6B3E95
3D915392
3E2FFD95
3E1ED66A
3E1FDDB0
3E0154B8
3E138983
BD23867F
BDA1266E
BEBBDC98
BE87F8C6
BE0D5915
BE02D0D9
BE4024C6
3CA56C85
3DAA97E8
3E7DA291
3E4E6E95
3EA19E5D
3D81DF7F
BD4CD2AB
BEB9E8F2
BED98FFE
BEFD49B5
BE88CF22
BE907025
BD6DD6DB
3D8D5430
3E363487
3E2A7FE5
3E98C57A
3E2E66A1
3DCF448C
BC961D28
BDCD5C00
BE57E8C1
BEF857F8
BEACC8F3
BECBB86D
BE392931
BD69B839
3DB13881
3E1BDDEA
3E884664
3E1BDB33
3E10B8D4
3DB2C563
3D267B4F
3CEF4A18
BDF74D76
BE21F089
BE6BE4A2
BE464D5C
BE57C702
3D380520
3E116FC3
3E3D5C21
3E579962
3D298B74
BD07B758
BCD26006
3CBFC7B3
3E1E7A54
3D7B42D6
3DF26C89
3CC0CB93
BD0044F1
BE334216
BC88B79D
BD3B4B38
3D8D460E
BC73B5CB
3CC44AB2
3D408ECD
3DF0CE7B
3DE33713
3E2E1983
3DDB897E
3B86E387
BDAAB40F
BCAA6AB6
BE9086C5
BDF75B0D
BDE9E48D
BCFD85E3
3DF3341B
BC5CBADA
3DCCA6C2
3E20951B
3D986CF8
3DB1CB07
3D426643
BE593ECC
BE9A00FB
BED62045
BE91450C
BDEC08E2
BE466908
3DA4C8C6
3D2BC4D4
3E318C95
3E22EE10
3E182186
3E0AE59C
3DE1B08A
BE559079
BEEF1021
BECD4F29
BEB08013
BBD84A37
3DD8C669
3DEBF1A4
3E759F63
3E0A792A
3E8B23B1
3E5D7AD9
3E5DA085
3D1BDE40
BDD327D7
BE2572B3
BE12A70E
BE9F88A0
BE2417C3
BDC7C56C
3DC5748E
3E070CE3
3E5D1296
3E901439
3E26605E
3E13F585
3C3716EB
BC6F2FBB
BDDC8D62
BE1946EF
BE2B5284
BE65888F
BE4D3D3C
BD951B43
3D82D3F4
BD168293
3CAB0ABD
3E164C8A
BD4B10DF
3DAC2672
3C8E4DEE
BE31B1C9
BDA4D9D0
BDBD092D
BDC4E9D1
BDDC0E52
BCEDDBC3
BE00F181
BD25DAFC
3E439CF5
3DAEAF36
3D64E30A
3DA5D051
BC2B0E31
BDC27AF3
3A27B344
BD1B7056
BD47D9CD
3DF32BD2
3CE17FF4
BE44DD85
BD51EFF1
