3DBE1BAC
3D220FC2
BE04CF92
BE59809A
BE53061E
BE21693B
BE4DDD8F
3D062689
3E802F5F
3DDA5254
3E200556
BD0701C2
3D291604
3D97CBDC
BC1FC1C1
BD85B3EC
BE74C134
BE395ACC
BDC72ED0
BD3C23EB
BDF77ADC
BD84E0A3
3DCA869E
3E36DEEB
3E85B713
3E3EEF92
3DA7ED44
3E0F4750
BD2643E8
BE46D4EC
BE362F76
BD9802D3
BD309C05
BD449BE8
3D14BBBE
3CFE47A2
BCDC8676
BDB8D963
BD8D9283
3D7CA99A
3D6CB4A6
3DB4E6A7
BEAC7A47
BE974CD0
BE0DA9F1
BDD782D8
BD5D6499
3D2618BC
BC68454E
3BA229DD
BE21134D
BE00B985
BE86C249
BDF37652
BD6CE89E
3D39C8E0
BE90E82D
BE443CA5
BDF3113B
BDC321FC
BBB0AFA6
3DCE1020
3CCEC3CB
BBC586A9
BE58C9EA
BE8745C0
BE4675F0
BD2CD032
BDD616FB
3D7571E6
BE90C468
BD2D0076
BDDD9C49
3D25788B
3E0BFD3C
3D04C91B
BD86777B
BE2124FB
BEBA7579
BEAA8B2F
BE98736D
BE0BF82C
BD9A4AF7
3DB8A359
BCFEF03D
3CB7319B
3D967CBF
BD332BED
3DC13551
3CCC71B6
3C8068DA
BE55E5E8
BE939BE7
BEA246AB
BE9A3427
BDC70B5A
BBC1C0C7
3E07EF80
BDC794DF
3DEB6F78
3D8C2321
BC76AC7C
BCD83F8C
3C68EBFF
BDFA8FC3
BE295D1A
BDB7619E
BDDB3877
BE4D28C0
BDECC189
BDE32E0E
BEB7E247
3CCE3941
3C496560
BDDF0F75
BE042532
BE087FBB
BD287121
BCA37FA3
BDDBCE0A
BDC62D35
BE1E0358
BDC47BFF
BDB7CC51
BDF022AB
BE5CA81A
BD9A6C0C
BDA3F029
BD2092A4
BE4FB4E5
BE555A74
BDC0C756
BD8C511A
BD528B1E
BD8F975E
BDB7B683
BD602E8D
3D5CAC28
BC58920B
3CEA0044
BC95A390
BC183EC7
BDCC99DA
BD8DAFB3
3D421BE7
BD81658F
BCD4ABA5
BD3AA47D
3DDC2285
3D80FE0B
3D5852D9
BCDE10DD
BBB4B9EF
3DB62C65
3CFC1581
3D949B45
BDE2F958
BDCAC354
BB83792F
3DFC2A93
3D29AC6A
3DA5C614
BD365808
3D8A31F8
3E273225
3C797DD1
3E5852F0
BC3094FF
3E0205D0
BD94CEDE
BE57C32F
BDA57F01
3D1C3719
3DBB8C21
3CBE0EF8
3DA27535
3DBDBEB6
3BF68B34
3DEF482E
3DDF77CD
3DE99B09
3DD0C83E
BDCA7448
BDC07653
BD725CAD
3D0C315C
BC9B173F
BCF6CB7C
3CB5F14B
3E3AF653
3D1436A6
BC49F419
3D1B6FB8
3E124DAF
3E1627AF
3DDD859B
3D2E4311
BD975670
BE443E2A
BE8822D3
BDE9B5F1
BC4C9075
3E2222FB
3B21DBEE
3E3BF7F3
3E62C890
BD3EAC51
BD8C756E
3CF142ED
BDE7B473
BD130CC0
BDF9720B
BCB47E6F
BE0DB2A9
BD303E61
3C3EC52B
3DFA0B5E
BD8AC3F0
BE655F4C
BD65674A
BDD4F5CB
BD316AD9
3B6B2B65
BDA23843
3D477F5D
BE961A17
BD482FBF
BE415936
BD0D2057
BD81BD6E
BE17A936
BE8D0231
BE932278
BE7FA9A9
BED41DCF
BEC18C92
BE105E79
3D99CD26
BD0614FE
BE64DE8F
BE856054
BD8ACFD4
BBDDF557
3CD0C423
BE5578C4
BEAAC444
BEA73EE1
BE2405B0
BE69744F
BE680D93
BDF2DB04
3D3BC4B5
BE485C08
BCE20C0E
BE2479CB
3E23C414
3E14FF21
3DF48302
BBBE173D
BE6CB64E
BE733A83
BDD96D96
BDDF0C85
BE44CB0B
BCA66273
3E3BB920
BDD2DD75
BD2BDE6A
3E0E84FE
3D7FC900
3E39BCC3
3DDACD9C
BC4E985E
BE3AC40B
BE42BA94
BCD3FE4C
BE6CAF09
BDC6A8A6
BCFBDFCE
3E84D38F
BE06322F
3E1A1DDA
3E22E0EB
3DA496BF
3E55D9CB
3E330695
3E1E4B2E
3D03987B
3D6F29E1
3DD8AF17
BB70D9D9
BD307B7D
3C7688FA
3DA9F6BE
BDB548DF
3E1F02CE
3E898608
3E0F5F98
3BB622B2
3D829DF6
3E097B71
3DA5D311
3D9F99E0
3DB5F024
3DE81A54
BD89AB75
BE153C82
BE9062BE
3E1A24AE
3DF1D8A2
3DEA604A
BD36F48A
BD695067
BC902D4F
3D627E69
3E48F254
3D810AE1
3DA6EAAA
3CD28940
BCDB0F74
3D3A2341
BE8FA235
3D902500
3DC04B13
BDD7F723
BE1BF1C8
BE21D4AE
BDB30F44
BDBD0D31
BDED6C57
3D3B1410
BC6EE3B0
3B74959D
BD2BDBA8
3CC62977
BC839556
3C299500
3DC37027
BCC35460
BDEC265D
BDDAA4D9
BE355B08
BE1795F2
BDE9B3A2
BD3E97B2
BD629E1A
BCC11B6E
3D0604F3
3CEE9AB1
3B9BE71B
BC1A7301
BDB75EBA
BDDB7B1C
BE76000E
BE1C1FB3
BE563B6F
BE020D93
BDBBBDD3
BB6BB4B8
3C935685
BE111509
3D51A9A0
3D77D88B
3CD1323A
3BB824CC
3C8E2C4D
BE1DA7F2
BEB6C9FB
BE8515D2
BE758CBC
BE27FA09
BD779D89
BD49A07E
BD384E3B
3D5C891F
3DD0D70E
3E932724
3D9C2A09
BC664CDB
3D437BAD
BD51C54E
BE85988F
BE9C291F
BE1B621D
BDAC6968
BD57A8FE
BC706C8C
BCC88A93
BDB2EAAF
BC9C89F9
3D9AB8CE
3E0F4D47
BDE71DD7
BDBE187A
BE82C0AA
BE0D7F28
3B319D2E
3C860113
3DD83DF8
3DA99DE9
3DF2D2BC
BD8555F3
BE1DEAF4
3E33EB61
3DB9D3DC
BE0142CC
BE55D494
BDD4FC5D
BDCE7E57
BBF7E1C0
BC755CE2
3C604F3F
3E0614D6
3E190315
3D9A1EC2
3DD31044
3DEB1C20
3E6242DD
3E66458A
BD9B7CDD
BEAFBC5A
BD94C82B
3B193AEA
BDA0D6F6
BD67364D
3DD6DDFD
3E28F34D
3C719514
3E135E17
3EA21B07
3E878EF4
3DDA471C
BAA373D1
BDDF4B1B
BDBC0825
3C5CB8CC
3D0DE519
BE3D9313
BDEC86E4
3D75C4C4
3BB97E6A
BE066B36
BBA0817D
3E5390ED
3E7A2433
3E62B186
3DB02F3E
3D866A54
3CB96B1B
3D2846D9
BC04CFFA
BE080C5D
BE19CDD3
BDA1219D
BD0EFDA0
3CF3C056
3DA4605C
3E3FE5B0
3E408B61
3EDFFEDB
3E999408
3EB9AC7B
BDE3583D
BDF744EB
BDA56C2D
BE5D0BEF
BE59C6DF
BE1150AD
BDDDE411
BE01E643
3DDDA997
3E9C4618
3EB30FBE
3F194F14
3EBCD17B
3E0612B1
BE57302D
BE0E9B18
BD9EF66E
BE1511BB
BE08FF8D
BDFAA748
BD691A33
BBAA1D07
3E02590A
3E6355CD
3EA1ADE1
3F17BF6E
3F1F8B46
3EDB444E
BD0AAFE3
3D23F983
BE014250
BDE93CE8
BDEB85CE
BDB7D51A
3E390FD9
3DBFAE4C
3E3DB8B3
3E6A6E3E
3E8EC9AE
3E1A7E5D
3E86F8E7
3E4F5C6E
BD2726BF
3B876BD0
3D999FC0
3DA435B9
3E09E3DB
3C58C377
3D9D362D
3DAEB383
3D0FC9CA
3DD221C1
3DDE6603
BE01C2BF
BEC6C2ED
BE735521
BD2E4735
BD5525C8
3CBB47F4
3E11737B
3E1612E9
3E345CA4
3E30FC5B
3E218CE6
3D91A57E
3D7B365C
3B636218
BD41E6EB
BED94471
BE2C492E
BD48A629
BD4C7242
B9B5D8C4
3D317FA4
3DE95374
3D946441
3DB9C0BF
3BE4B46D
BD2ADED5
3B8FCF32
BE63D876
BEEB00DF
BF1ADB24
BE4C2238
BD8B6864
BE2092ED
BDA813D1
3E08AE44
3D57E439
3E44E622
3E121B9D
BBDE33F7
BDFC2D9A
BE861F42
BE7C7ACB
BE7B697B
BDE5E4FF
BDD29AAC
BD1E55BF
BE205A18
BE32238A
BD0E9DF4
BC9A2023
3DCF2093
3DB4BF2D
BDF534B1
BD5188FA
BE00381C
BDF0CA66
BDE25547
3DC75358
BD3E31E9
3C68E0CA
3DE7A4B3
3BB0C236
3CD4CA69
3CA7237D
3DCE98B4
BCC066E8
3DB11029
BB891CE3
BD3F64C2
BDF086F5
BC7DE47F
3BF82A01
3DE20FD6
BB886480
BDA7AFA5
BE8381CC
BDEB0809
BD1B5B61
BDF5AAD7
BCCFA082
3D91FB92
3DB9EC2F
3E0DDCF6
3DFC1D64
3D0502D0
BDD28E57
BBCEC735
BDC0927D
BE7534A8
BDEFFF70
BDCD6E35
3D71BC05
3CB7AC06
3D4F4893
3DE90CDD
3DC68895
3D944C8A
3C1C7112
BC61AB00
3D2AC3A9
3C728E1D
BE73FB09
BDE9A74A
BD4DBD0F
BB9A4F4F
BCA811D5
3D73AA84
3DB25926
3E0445E9
3DDD63E1
3DCFFD73
3CBBAFC7
BD60C679
3AA9967C
BD857D54
BDA662DC
BDDFC980
BD4009B0
BD8A3C4E
BCAEA19F
3CAE5153
3BD006A4
3D8C27CA
3E083F51
3D89FE32
3D3E6F64
BD9EDA93
BDC76E29
3D89A314
BDA36171
BDBEAD18
BE74F604
BDEFDD2D
BDCF62A9
BD983CDA
3DCC4D5C
3E4C476A
3E0A9D1B
3D538657
BD995C60
BD9CB139
BC85C05D
3D063773
3BC21074
BE32861A
BDB2DB0F
BE2B2951
BC580679
3D0501F1
3D74BC4B
3DA7EE5A
3DDD715C
3D16F262
3CC67A69
BE606266
BE14F0DD
3DDD34EC
BE3EFAF1
BE7A90DE
BE6F348C
BDA28753
3D3C66EF
3B3A7EB6
3DF0551C
3D56AB64
3DB143AA
3D690345
3E052101
BC2E23BF
BDE26FF1
BE47C4EE
BD8E88C0
3D15C952
3D6070C4
BDAE29D9
BDABF9D1
BBF7B7C4
BD4994F9
BD0A7216
3D24C5E1
3DCD5ADC
BCD7226F
3DA58713
BD495CEC
3CFE0E1B
BDBEBE2A
3E280B3E
3EAF4E33
3E8A7690
3D997849
BD2904AE
BDB2835F
3D4D1035
3CB4DB45
3D566598
3D54A744
3D6FAA7B
3D42878C
3D7F5BCD
3D167176
3DDE088E
3E597911
3E65E457
3DDCDDF9
3DC4525F
3D77039C
3C875656
3CFDADBC
BD886363
3B4DFDBB
3DE80D10
3CA424BA
3D3D74D3
BD1AECD4
3E2A055C
3E0191C5
3E1D964E
3D1B0259
3DD068E7
3D464764
BD6567C3
3D23559C
BD63B70E
BC000519
BD835A14
3DF8A05E
BCCE737C
BD263EEC
3D3349E8
3D3EE543
3E2A4063
3DFD7EAA
3E23145B
3DA89828
3D83920F
BCAF7F7D
BD5788A5
BE34172B
BC11B964
39CB1332
BD8322B9
BE1B8DDA
BDB2201C
BE10D546
3D8BD5C8
3E5965A8
3E23D29D
3DFE1AD9
3C331CD8
3DAE7829
BE28DAB7
BE0C3EA0
BCED3C0B
3E0810F3
3A450522
BE06B711
BE05EAEE
3BFC0785
BC282B47
BB922313
3D869C5D
3DA5867D
3D8FB26B
BD8CE50C
BE3C8FD4
BE3071D7
BE5BB677
3D61CA25
3D439A36
