BE19308B
BD474BEE
BDF72879
BD832B79
BDA93346
BD55352B
BDDE6E2E
BC8CD576
BDC45EDD
BE5FC5FA
BE98C5B2
BEABD12F
BE77B8BE
BE7A930F
BCC88E7E
BA9D9501
BCB52703
BDA1B2FD
3D8D910F
3DE731CD
3C7BAE59
BD301666
BE762F55
BEC83B18
BEDC9E62
BE8CEE1F
BE909569
BE8B5EAB
3E42B09F
BC6E39C8
3DA1ED11
3E6600F4
3E58D1E2
3E6A9D42
3E9E4E04
3DF20919
BDD4D25F
BE6BEDE2
BEA4758C
BEF0F40A
BEA64520
BEBF9016
3E307BC3
3E08B151
3D98A5E4
3E644FE5
3E78BE46
3E1C79CB
3E0585E6
3DD1E91D
BD7167F6
BD65526A
BE3456A5
BE8DC18D
BE7C5FBE
BD6989C6
3CC3F5C2
3C85D37D
3DEBD4E2
3D37B048
3E656920
3E54FFDB
3E342D3E
3CA2550F
3C4BD332
BBC42FB5
BE88C026
BE3DE7A1
BE5F893B
BE0F2BFC
3DDC4241
B83666AE
3D1AED3E
3C39BB36
3E37D72A
3E146442
3E4D6323
3DCBB262
3CCA3FA0
3D8BE21D
BD7032AE
3D8FC8A1
3CA5BCE4
BE0D58A8
3D956DE4
BCBFAC7B
3CE2D5E8
BC955F47
3C841CE5
3D83BDFE
3E23137A
3DCF06C9
3CFA8818
3DB15A8F
3D9B7789
3C6FE945
BE30F9B4
BED8D1B9
BDEE49DD
BC083E57
BE252EF7
BC5CDC54
BC95C140
3DE22E98
3E1FFCA8
3DDAEB2F
3D705BBA
BD754216
3C851E39
BCE89F3B
BEBC1B07
BDD38C4F
BDABE5B1
3CE0B6B5
BDB940FC
3DE3CFFD
3E0BCB81
3E01B2E5
3E198274
3D398470
3CE4A46B
BDA68028
BDC52B8C
BE304809
BE77F9B4
BDE83550
3D5D634B
3D6082A2
BB6F49FF
3B9CB58C
3D75B707
3DD92E43
3D58851F
3D1337EA
3CB1EAA0
3C2667DF
BE220434
BDAE7AE5
BDF79362
BDD005A2
3D90B45E
BCE859D8
BD453EC3
BBE721BB
3D080DE0
3E132329
3DB1FC35
BD4FA204
3E3A52CF
3C92C62C
BE11FEB5
BD9FAFEA
3CC85138
BD0C5680
3C62E641
3C83EABF
BD29AF08
BE266452
BDD6321E
3D57C2D2
3D78AAA4
3DAA1CA2
3E0A36F2
BC8FCCED
BD64C3EC
BD8008A8
BE1E220B
BDF31544
3C0AC6FF
3C34B363
BCF08AF1
3CEFE73E
3DB339D7
BBDEA31C
3DFE7675
3E091CD0
3E176960
3CA63209
3DAE128D
BDB21335
BE2CD656
3C368460
3DB51FAC
3D1A7CC0
3D2A6963
3D5E979E
3E3C2D1E
3E19C60F
3E08C7FF
3E614685
3E74BAEC
3DBDD305
3D89ABE6
3E25B41B
BE1C7559
BE62AFE2
BCC938AE
3E004B82
3D438443
BCCB9FD7
BD607BE6
BBB00DFC
3DA0D360
3D85D530
BE230C4A
BEA76E00
BE0AB1AA
BB878DBA
3D0C5C2D
BD93D0EE
3DCE3C7B
3D14AABC
BD9C9EEC
BCB6A425
3D1ACCDA
3B2FB4A2
3D2AF0AA
BE13A8B9
BE95B14A
BED32678
BE73AE70
BDD02F88
BD0A722D
3D91503B
3E1BD58C
BCD9FC3E
BD543ECD
BE3902E5
BD9A9B7B
BDE62579
BE1F7635
BE356595
BC5327AF
BCA9A07E
BDAD1C6B
3D8D90B7
3D2C9088
3E0B002A
3DD78CDC
BDB8BAE4
BD884897
BE89C761
BE6B83EC
BE1B6B11
BD8CEAB0
BD60BAC1
3CCE61D2
3E15070B
3E524657
3D6CE4E6
BD5B8E8B
B9EC376C
3DA95623
3C41060A
BE67D720
BDF0F629
BE641895
BCB5F1A6
3D00C9B8
BD642EB2
BDF4E0AE
BCDCD0D0
3E367F2A
3D8D9277
BDE0C1A2
BDCBDD7B
BDEA9649
BE494C1B
BE08F5BA
BE23FD5B
BDCB1FC6
3B0D9351
BDEE998D
BE2E0079
BEAE3979
BF0397F2
BE06B589
3D59EE72
BD0795D9
BDD4046A
BCBDF5BB
BDD1A89F
BE741B8B
BE03143D
BE60C235
BDC8604D
BD06F349
BEF1DC2A
BEDD807D
BF1B0F59
BE246842
3CEABCDC
BD7B2E4E
BCCC1211
3C558B13
BE4A7303
BEA3C2D4
BE1715AD
BDD85E1E
BDC23070
BDC6D65A
BE9A6151
BDAE3090
BE1ACC74
BCF1F645
3E132D9F
BD4B09D7
3C039829
3D8A80A4
BD8D9E67
BE0DEDFE
BE70C100
3C9BF81C
3D21AB59
BD98B25D
BDD4BEBF
BD50EE9D
3CE54E97
3DEFA3A5
3DB96819
3D4A8D5B
3CA758CD
BD499DA3
BD87D223
BDB01F29
BE298033
BE27B3F9
3D104187
BD18BEBF
BD98B11B
3C09B1B0
3DFC031C
3E29ABB6
BD7E117A
3DADEC5C
3D846AB5
BC683956
BDE0190C
BE22DE27
BE389EAF
BE665EAC
BDE89973
BD14E2F1
3DB94AE7
3D39D229
BD3FF803
BE7277DF
BE181712
3CAD3F54
3DE87189
BBF64595
BDCBA6EC
3D977397
BD7C1DE8
BE38C545
BE579505
BE7A867A
BDC8B5F9
BBC6F40D
BDB35E9C
BEEB46E0
BE0C3FC8
BE2A4023
3B5EA2AA
BD781362
BDE04BD8
BD63AA22
BD464C5D
BCD29F11
3B2E78F6
BE391BF6
BD6F9A20
BE01BA09
BE8150AD
BE4F6E25
BDC82163
BD9F70DE
BD911C4B
3DFD2387
3E590CD2
3E3960D7
3DAEDFAA
3DAF8D71
3C3B9A3F
BDAC0BA2
BCF4E31C
BD99B467
BDB94CC6
BDAD548D
BD2AD724
BD81B017
BDC5FB1B
BB397AAF
3DFA6669
3DE7C355
BC039480
3D496236
BD8484DC
BC4DCF9A
3DF06D76
3D095696
3E30165C
3E217F3E
3E19B501
3DFAD21A
BC5B025C
3E29C6A9
3DDCFF01
BD9EFB4A
3D3154B4
3D911C70
BCA6BDA0
3C064F21
3CFE17E2
3DCF02FD
3D8B4325
3D68FFE7
3E228F0D
3D9F6A0D
3CB14AFC
3DD8AFD4
3E010643
3C84085C
BD6375E6
BD852D1B
BCA5A38B
3E24D33F
3E1AD5F3
3DC65768
BC7413A4
3CB57607
3D9C08B7
BDA7EE2D
BE1FB609
3E0A1C77
3DF703C1
3DEFCF3F
3D09D88C
3D1335CE
3D2DA5C2
3E0E4172
3BE3BA60
3DA913B2
3BEE0FD5
BDD1CE5F
BE1B06D4
BE2DFD79
BEBC9C25
3E310CEB
3D1C24A9
3E70638B
3D679544
3ADB4E57
BC9976B4
BDCAE932
BD0865C8
3C71F4A9
BDEEB08B
BD2BF078
BDD8D82B
BDE1C030
BEBC958A
3C9E3845
BCB7FFA2
3D8D2A6F
3C9300B2
BD5429CF
BE92E669
BE0BDA20
BD5B33F2
BD8C84A4
BE0F1F47
BDDB3321
BE034654
BE4A1F9F
BE8D9B63
3DF747F6
BDA5DCF5
BDAB2D2E
BD79441D
BE6F0418
BE802B13
BE89E6F0
3BDC5278
BE05AA0F
BCE28CDE
BD2B54F8
3CEA3E02
3C2C580C
BD7569D3
3D919061
3D651AF8
3C910155
3DA5D777
3DFB1CB2
3CB697F6
BD96E66F
3D006678
BE10DD11
BD5306D7
BCE6B428
3D0B8624
3DFB7689
BC93AA17
BD23F0E9
3CED8A63
3E2A1390
3E5A3AEB
3E1B4D99
3E42C568
3E33E446
3E3B9241
BDF2C08F
BE1A3FE9
3C988ED6
BDFB93E3
39A2DB93
BE3F1FBE
BD557A43
BD7CE45F
3E8A2391
3EB2D9CC
3E677B72
3DC87D8B
3D8C51AE
BB971EC3
BDA2B5EF
3C77CCB0
BD55D1D8
3CA7F366
BDC5D46B
BD068E13
3E10B3A5
3E06B32E
3E8CD8EE
3E831069
3EA7DCC7
3DEA0BA7
3D3782B2
BD1F81ED
BD1D2670
BD814496
BD828642
BDC2ACBC
BDA370CB
BE4BC983
3D42BA26
3E46DC77
3E93E9C1
3E943E22
3E15CCA3
3E906453
3DDB4988
3C918805
BD9A9E2B
BC35C7C7
BC74E5A3
BD81844B
BE6FB538
3C923CC8
BD75C838
BE25E6BD
3DECC349
3D60F434
BCB7530F
BECD02C6
BEA55E61
BE5108B8
BE68DF62
BEA33795
BD9EFD1C
3C221624
3C5154F2
BD8A885B
BD771E8E
BD0002B9
BDD94CA8
BDB639BC
BD82238C
BE13B188
BEC0AC30
BE5359E8
BE0C4ED8
BE419576
BE4A70B6
BCAE7D96
BCFB0CC6
BCCCEB62
BCE5EE24
3C8C2146
BC944AB6
BDA27E2D
BCB112CE
3DC39B45
3CC1D8ED
BD7F6E8C
BDF58A29
BD5DF003
3D02FE58
3DB97EF3
3DAF40A8
BEA50EAB
3E704D62
3BE0E77E
3DF08C5D
3DC35D10
BC4186BD
BC876D83
BDBC77F0
3DA0A077
3C999744
3D67DD3C
3DEF8996
3DF977C7
3E0C8F9F
3D6B4DB9
3DF1704F
BB9EFB16
BDE30B9B
BD5CF60B
3D3F92A0
BCA8D208
3D05B976
3D6A61F9
3E1D9348
BD286C0D
BCD122C5
BDC19CC6
B49E7300
BBD607EF
3D805C2C
BD77BAFC
BD859BBC
BDAE0B90
3CCC063A
3DB8694F
3DD9C900
3E038E84
3D5D3B9C
BDA5414C
BE62ADB2
BE43DB46
BDC8D223
BE91CF59
3CCBDF38
BD4F7361
BE3895C1
BDF46CEC
BE0B5711
3D661DC0
3D9FD4CA
3D1433C2
3D7CF914
3D1AD1A9
BCD6E1D6
BEB3111C
BEFD4EE8
BE9B85BD
BDF5D726
3B78074A
BE11B639
BD88754A
BD967E6C
3D5DE83B
3DA9FE97
3DECE1C7
3DAEBE8D
3DB5032D
3D64FA97
BCD7B014
BEA1EB4E
BEAE28A7
BDF01923
BE22FE0C
BE325901
3D306F8C
B8CFFE9E
3DBA3E11
3DB6B79E
3DA8E5FC
3D90CD89
3E3A1B77
3E012ABD
3DE9E3C5
3DD7831D
BDD95344
BD59E0BE
BD455A9B
BDDC61A0
BC978FA5
394AB249
3D9D42E5
BD784F13
3CB56626
3DCA244C
3D62026F
3E117858
3E21EE41
3D8FEF57
BE235C03
3CF5060A
B9CF6B41
BE3F35AC
BDD10A4F
BD96D165
3D024F2E
3DC98B62
BC872924
3D3E490B
3E0B6A9E
3C62AF8A
3D4C4530
BE193492
BE90580D
3CA4A7EF
BDCCDAF7
BBAF4F62
BDBC7D3D
BE2B1127
BDF8960B
3B853E74
3DEB2EF9
3E6ABB57
3E2B4174
BCA28FB4
BDEA69E9
BEDB1E3F
BD48C132
BD019365
BDB7A6E6
BD902A0A
BDD3DA00
BCECA940
BDDC8651
BA415631
3D6ACCDE
3D9DCF59
3E51A1CC
BD50B8E0
BEAC4E6F
BEB3785C
BE8A5963
BE1389D5
BBFE321E
BD63CEA8
BD9A6DD6
3DBF08AB
3D8C30F9
3C876A34
3D8CBC9F
3CD5FA0D
3E0159F4
BE0EC98D
BE8E757D
BE547B16
BE34BD66
BDF486AA
BE14B7C8
BE055B98
3CB8C8B7
BCC4082B
3C4A4598
3DB4202C
3DE0740A
3DA64629
3D661CFE
3D09D1D4
BD85A82B
BE26A602
BE26CD6B
3E41B601
3E5F9CCB
3AAD5018
BB0082FF
BD65A4C2
3D0A4DDD
3E0AD66E
3E141E9A
3D4F32C7
BD33E7EF
3B571421
BDDD8DF7
BDE49EF7
BD46C948
