BD66D47E
BDD5134E
BDC8FC95
BE30EDB2
BED91030
BE500B1A
BE27EF87
BE5F6D8F
BE0B1CFD
BEAA2273
BE5B468A
BD2DD073
BC177A48
BD7C6A36
3D91AC11
BD30F605
3DF4EBD8
3BBD67D8
3C82C678
BD83C2B7
3CAAADA0
3D0C2EFE
BDCBCED1
BDDBA545
BD90BDDC
BE3512AC
BD8929A8
BE8D331A
BD93734A
3A688F9C
3DAD8B6F
3DB9A459
3E2A0497
3DB98176
3DFFCD11
3CCA20FB
3BB9D8A7
3AC40E78
3D81D2F8
3DE33FC8
BDCA6405
BDFDDBD7
3D402F1B
3DA1E214
3C04A358
3DBFC26A
3D9AFD2E
BD2CE76A
3D9224A8
3CC86212
3DA48A2F
3A84F478
3DC00312
3E20C763
3D9CF117
BD9BE5D8
3DA67FDB
BD6D3F02
3CE14121
3CADFF5E
BDCA6105
BD164489
BC92E634
3BB6C56A
3D4D5B62
3D8CF40C
3DBA8C15
3E8604AF
BB609B9F
BE676511
3DAF8EA3
BDAE13B8
3CA400BD
3DAE999B
BE1A7711
BE2C6A7D
BD0444D7
3E45B233
3E5FFF33
3E58AF04
3E2AF3C5
3E7B2955
3D3861DF
3DD2143E
BB615428
BE6A2B2F
BDF38F1F
BD509921
BD45C2BC
3D875B33
3DBA9712
3E93E368
3E665BF3
3DBA5B97
BD49D56F
3D36EAEF
BDDA076F
BE25F485
3DBF542C
BE3F775C
BD9FF525
3DDA67D5
3DED4D96
3DC9E38A
3DD4168F
3DAFDD8F
3E6B5D77
3D7C5436
3D977BC4
3E1AC6D4
BD6A1191
BD7DEFC8
3D80C9B3
BD2DD8C0
BDA62C4C
3BD5D405
3DAD3A35
BD0A2EF0
BDCAF691
BC240C9B
3E8BFF6B
3E714FF7
3E9BFB47
3DE9552C
BD9B868E
BB9E88D4
BD41463F
3D869239
BD8087ED
3BD129E6
BD63E707
BE463BFE
BDDF352C
BDA13470
3D259DE7
3E60A74C
3DAF91A5
BD6EC4E5
BE662763
BD5B3CF1
3D595D51
3D9535D5
BC606B4B
BD1EBBDA
BE475876
BE1E3087
BD57D576
3C9D2BD1
BC820A23
BD5D55BC
BE3D0BC0
BEC2AC7F
BE488DDA
BCA7BB73
3DCCDA0F
3E9F499F
3BDF4787
BB1730B6
BE333E22
BB808ED2
3D95FAB6
3D0E2F2F
BC69D1A1
BD887E21
BE0BBAED
BE6DBA40
BE441A9D
BDA75C54
BD37FABA
BE5E33F0
3E0AF986
3E72466A
3E930178
3E8CC7EE
3E261576
3DB2DE96
3E1A6BDB
3E9635ED
3DEAC1A9
3E56412D
BD6181DD
BDBE4B31
3CD78446
BE214915
3D9A3EEA
BDA594A7
3C9EE65F
3D92C4F8
3D8B743D
3E8BC7E8
3E0ED1EA
3DED6CB4
BBB46325
3DD1DEE2
BC2A808C
3BDC6ED7
3CBDE5DE
3C83B0A8
3D1F7A3D
BDF2AD8F
BE5DC276
BEB3927B
BEA6ECD6
BEBE748D
BDF4ED00
BE9D8D63
BE9BC609
BE6CDDCD
BD29FACD
BE1C9E94
BA814C95
3D98E418
BD81D8AB
BE6CF1E7
BEC0395E
BDE7D675
BEECC7E5
BE264501
BE899B45
BE8E3B5B
BF074956
BED686E8
BE925103
BEBC8424
3DA5D9BA
3DABEBF2
3CD998F1
BE024130
BD03D0A0
BE5081C9
BE901E5F
BE8E5B74
BE15B193
3C47A945
3DFAD988
3E062A10
BD5D31C7
BE9248D3
3AE756D4
BCC66A50
BEECDCFD
BE8D4273
BEA20982
BE4CE6A7
BE251537
BE4A9971
BE08E164
3D6BC742
BD69928E
3D06518D
3B116325
BDB9EDEE
3CF08A28
BDA2D9B7
BE87F115
BE6694DA
BE2CCC17
BD08A869
BE30B74D
BC802813
BC3B2D3F
3CFECC34
3D7368CC
3DAD42C4
3D2C4367
BE4A2893
3E2F1F6F
BD1ED7C6
BD08F1F3
BE2C95FF
BD450CD5
B9B56358
3C2A4147
BC9BDEB0
3E219EB0
3D9BFF0E
3DD2F87A
BD8D85BD
BEBD54A8
3D7674D8
3D5F80BA
3E7ACCBC
3D181AE2
3E3E08F3
3D928BAA
3E3F3C66
BDB5EA63
3D0DD179
BA1270BC
3C9F5F43
BD28346E
BDDC031A
BD842646
BE969A0E
3E3E8331
3E881DC1
3E7FB9F6
3E9BB660
3EAF86CF
3E46EBD1
BD0C87F2
BD01F33D
BD3870B7
3E034503
3D53BEC8
BD275774
BD798997
BE6E93EF
3E4A5DC0
3DFD3AAA
3CA426F2
3E5083FD
3D6F9D5C
3D92A717
BDDBE1FA
BD9EDB18
BD5521AA
3DDBD660
3E1E45D8
BCD4C119
BDF604A2
3D0D6160
3DF66D21
BD042FC3
BD4E6326
3CCA3313
3DDDAA1B
BC000940
3DC05306
BC2554F9
3D9DC157
BD75EA71
3D9917AF
BD2FD140
BE8939BF
BEB6C696
BE0A3C99
BE451B29
BDF343BE
3DA1FE10
3DF2CF8C
3D74089E
B8435A1A
BD8A6C86
BDE24E7C
BDB13BE0
BD672BC9
BE3976F8
BE523E4A
3DB07BE4
BE87A4E4
3B32766C
BCE6813B
3DF07A04
3DF08663
3D88B4E9
3D0B8DF9
3C8F6307
3C65F727
BDD80BFF
BCDB1ADF
BDECF722
BEB98529
BE4A98FC
BC4B944E
3D4EA38B
3D30E6CB
3C059BC9
3C1664A3
BBA6A7CB
BD5702DB
BD162761
3D8AC623
3D98BB99
BD1E19FA
3C99EF90
BE29EEB2
BDBA2071
BC3B7CA4
3DD67BD7
3DBC32F8
BD38E697
3D82E8D0
BDA20F27
BDF30357
BE562E24
BD21878D
BD552C8D
BD8996EC
BB7AE12D
BEB0810E
BD9C2E7E
BCF0989D
BE88BE65
BEBB2558
BF0857CE
BE3EC1A8
BDD704F8
BDE03F09
BE674562
BEB5ACE1
BE6B7B70
BD8E3A96
BD6E1A97
BD1491F5
BD7170AC
BE46BA51
3E09B623
3DC5A069
3E00F3CD
3D9110ED
BC1EDF6F
BDA3CCFE
3DACC5AF
3CACCCC7
BDC24A4F
BE4FA1BE
BE6517D5
BE78311E
BE82E43D
3CFCE1DE
3D8DD9AE
3D19E22C
3DA1BBB3
3E109FF3
3E062E4E
BBA91A41
3DD53094
BC8EBF6C
3D96A4BF
3A521CA4
BDB20919
BDC98BB3
BEC891A2
3D492A66
BD69C54A
BD31434F
3E30E61E
3E153424
3E2292C4
3D71F767
3CC9CB29
BD4A1D24
3B84FE0B
3E0B8B40
39427C76
3D0859EE
BE4618E0
3E8BD549
3DA454FF
BD7D0CDA
3E775F1A
3DED82F9
BD3F4B9A
BC91DC6D
BDC57D91
BD6ED097
3DB2ED71
BA8E5FE2
BD6DE113
BCAC53D4
BE5DFF6B
3D6E434C
3DDC9AAE
BDC0C1EB
BD8376D6
BE44E70B
BE3C4645
BE1ADF6F
BDD5DEBC
3B18A21D
3D2D23E4
3C656065
3C015B2F
3C0EC3A4
BE6DCE7D
BC0E521B
BD859D69
BE419C01
BE8F9788
BE64D830
BE73662A
BE73F24F
BE1B1FDE
3D97A647
3DB4EBB5
3DC66E03
3C31BF05
BDA7B7D5
BEA5F13A
BE101FB0
BE297E3C
BDBFA6A3
BE338FB8
BD6EB3CC
BE42AF11
BE52DF0F
BD839F4C
3D91B49E
BB4A7A4D
3CD3CC5E
3DD06ACE
BC9004FF
BD91D293
BE3E7E3F
3CA35530
3D012388
3C505921
3E05C9B5
BD904A9E
BE885E4D
BE571828
BB95605C
3D041F45
3E21F527
BD189456
3C768FB1
BE66B47F
BD6AC0C7
3D315A60
BC72E001
BD2F4254
BB888C17
BE5B429A
BDD253C4
3C0CAB53
3B7F4C86
BD719FA9
3BCA28B4
3D4BDEED
BE1DC7AB
BE917430
3DDB87ED
3BBD3DEF
BDA78D35
BDAC16E6
BEA820AA
BE8019F7
BD5F0BBD
3D91A62F
BDC69C26
BCF74D86
BD436497
BCDFE764
BE723577
BE2AC6CA
3E94BB32
3DF557F1
3DB22D3E
BDAA96D1
BE0CA735
3D8FB3BB
3E161F29
3DACD8B7
3D770321
BD0C3457
BE0B1604
BD913A3D
BE419409
BEDC04A4
BDAF3FA8
BE1FD31C
3CB298AA
3E3920F6
3E9F321B
3E93E95F
3E53FFF0
3DD36A05
3DEA4CDE
BDD9B503
BDB3735A
3C368D20
BE2FDB43
BE8F835A
3CB6C4E9
3D8EC2BF
3E6E100D
3DE1B552
3DEFE139
3E15B2BA
3E0276B3
BBFD5981
BCDF903E
BE0BDD21
3A5E5B8D
3D972BD7
39DF7936
3E1281F2
3E13E50F
BCEA7774
BE3B740C
BEA0BA32
3CA5A808
BD68FDF5
BE25A620
BEB011D6
BE62C6B0
3E4B262C
3E0C2E33
3CE4B3CD
3DEAB1FA
3E1BBE4E
BDCAE7A3
3D919477
BDF172C0
3DE3FFEB
3DAFC583
BE157506
BE63C6F2
BE509F9D
BE780026
BDBC8DDE
BE21C261
BD4D4A00
3E47B4F4
3D414EF5
BDBA56A7
BC280965
3C971A43
3C6FECB8
BEA3C768
BF2F8227
BF1B5385
BED2970E
BEB6A4A0
BD807F38
BBC634E6
BE6781C5
3D609FED
3E43873B
BCEF74AF
3D4BEF07
BC0DF209
BD7B234F
3D8B3865
3E80668D
3E79147B
3E59C6EA
3E149CB5
3AC7589C
BE87C466
BC9CCC01
BC73ACF4
BDBB12BD
3D38EBB1
3D3E2480
BD0B0473
3D5B1777
3DE12F41
3E860064
3E90761F
3DEE049A
3E3C6A82
BE3DBE53
BE1C8074
BE88BAC3
BE6D0CBF
BE8943CD
3DE8A338
3CA03974
3D663B01
3DC010A5
3E45547B
3E894822
3E3DA528
3E2B739A
BC090FE6
BC8EF9C9
3C99B4B6
BE457CFA
BE11D881
BDFAF02B
3E2D9B76
3D54F49D
3CE64936
3D8A3E46
3E5E916C
3E285AD4
3DDB69AC
3C28936F
3B590FCF
BD945F80
BDB4FDFD
3C4FD5FF
BCFA5264
BE24EE43
3E896E07
3CFD3971
3DC1CBA1
3E048FE5
3E230101
BCB8FB7D
BDBC602E
BE7AD7A2
3CC7AC43
3D971785
BD7D3247
BDF2EE41
BC243AFB
BDFDA12E
3D5C3783
BCB81CED
BC5F387B
3E11936D
3E1AC73B
BDF0859E
BE82DCFD
BE7CC93A
BC058CD0
3D3D0F9E
3DBB20CA
3C536199
BD586B93
BE4AD199
BC9C7295
BD45035C
BCABCD9F
BD8E3944
3C2B63A4
BDE07A1E
BE08763A
BE104DB0
BC08F727
3CFE90B9
3BD90089
3CBD330D
BCD64040
BD8F6DEB
3C0A6A2C
BDF4FA62
BDE32D53
BE2CDAEE
BDEF869A
BE6018C0
BE056E75
BE0512CB
BE143719
BDECA89A
3CD4DF8B
3DAAB4C6
BDC3A10E
BDBA8958
BE1F11AA
BE12A0AB
BE0BAED4
BE38E8E2
BE5ACB11
BE83EBB4
BE5535ED
BE82D8B4
BE5D9747
BE97F7B9
BE82DEDA
BD40B9D1
BE0791A6
BE7EBCD3
3D5A8A06
3D1CF447
3C5CD698
BDC8E539
BDA4F4AA
BD9CA3DA
BDF3B8E3
BCC42D13
BDBFB80C
BE11042A
BE8A3145
BE6E7E0B
BEA1DE04
BE836893
3DE96EC9
3E479CE4
3E023A54
3DDB6663
B9756A18
BC282A1C
BDD0056D
BDBA264D
BD9A3849
BD96B07C
BDEFFAB2
BD63AD31
BE58B10A
BE83C16E
