BD94BE03
3E914E91
3E43D51C
3E748F45
3E0DDD98
3DACFF05
3D3CA704
BDB0369D
BDDA9421
BDE5400E
BD1D2B12
3D22AFEC
BCF0AB9D
BCACBC77
3E6E6F71
3E391B32
3E0E265B
3E567B35
BBECE83F
3CB39FB1
BD67E03E
BC988906
3C8C221A
BCD28919
BCA72AD9
3C87C6C3
3CBB4549
3C75120C
3DD7B861
BD859451
3D9266EF
3D4E2FAC
3DB0B925
BDCB0539
BDDBB1CD
3D006199
BDDF3167
BE2B25A2
BD9095B9
BD138AAA
BDAFE20B
BE7840F7
3DDCCCBF
BDB3195E
3DBF4120
BCC1B107
BD84AFCC
3D3E07D6
BD28E849
BBFCB16F
3BD277B4
BB3224D2
3D9BE89E
3D4EB75E
3BF1C050
BE386148
BDABAD59
BE022846
3DC62891
BCC1BDB9
3E248E00
3E1CD2D1
BD21E9F4
3C82CA57
3CA54404
3E271178
3E1EEC5F
3E9333AD
3E85FAEF
3D986BC2
BEAD05F3
3DAF6997
3E2021D6
3E255C28
3E6373E8
3E53D4B2
3DB383FD
3E3300F1
3E0E6158
3D1B0E1C
3E1FF5CB
BD224AA4
BD48A046
BCFD79D0
BE654F3A
3D9DE7AB
BC26D58A
3DA785C4
3DE3030C
3E2BEE4F
3E1E384B
3E443E4D
3E4F5C57
BD95B883
BE194D65
BE8632FC
BDE3B620
BD4A3F5A
3C92B4CB
BDBE485B
BD40C120
3D3F89F4
BD27FE7C
3DE184F1
3D94C1E6
3DD9593F
3E39AD43
BE930564
BE8B7F04
BE813610
BE9CE869
BEB22FF4
3D60737E
BEC527BD
BD1041E9
BDAF7B8E
BE216089
3DD49862
3D6E8C8B
3D93706D
BDA1A8B8
BE904FBF
BE2F49AE
BDD72B89
BE964FEE
BE32F3D0
BD9B8B8D
BECAE108
BE6701D5
BD0CE466
BE85FDD5
BE485859
BE334DE6
BD4A7E82
3D846CAA
BCD7A810
BBCFDDFE
3CB9FB49
3CD76E72
BE2077CB
BD6D0DEB
BE22FAAA
BDEAEDA0
BDC665C4
BE8B6C13
BE25D48C
BEF2E8DE
BE93DCF9
3D5658D2
3DE235D9
3DDFADE5
BEA7FEB5
BE30FB9A
BC0719FF
BC8BF71F
BDF6E616
BEBF0D34
BECE861A
BE760E2D
BEAC21AA
BEB23FE4
BF0D1DCC
BF5C982D
BF27481B
BED64C54
BE947809
BE3B0044
3D33A91A
BCA4753A
BD8CE623
BD21588B
BD58E93E
3CBF7BF0
3B0CB152
BDF83C4F
BD0E80B2
BED32154
BEC9F103
BED67E44
BE9AE668
BC012C4F
3D259AA0
BCBD3343
BD974070
BE249C1A
BDFDDBC2
BE23A401
BE3085B6
BE087A2E
BE111E3E
BE9C8DA3
BE308CBB
BEA6BFB9
BE2ECBBA
BE0046A8
BB49CEA4
3D4A5E91
3CBE2875
BDCD7F07
3E77BDDC
3ED1EDA8
3F02D7C8
3ED5FE49
3EABF8D3
3EC5D0EB
3D2CFFB1
3E3FE022
3ED6B92D
3DDC6FA5
3D2F260D
3D7083C5
3BFAEE39
3DE7410E
3EAFF67C
3E82B32A
3E82C536
3E586A8F
3E20D46F
3D3E404D
3DCFB07D
3E3F1848
3D9C31DF
BE04FAE1
BD15C7E9
BDF50669
BD05CFEA
3E8DA2A6
3E0B96DC
3E3F6B3E
3E468372
3E294617
3E2F695F
3DF5D70F
3DF6F746
3DC1C85F
BD8E0F75
BE1C1F82
BDC73B12
BD63E32D
BE28BDEF
3E728087
3E76013B
3E21F5B3
3DFFAEB6
3E2F48DA
3E36F94B
3DDB060A
3C237782
BD065C40
BC794362
BDD4399A
BEA17BE9
BD9687EF
BE252386
3E48478E
3DAC08AE
3DBE1AC1
3E1495AC
3C80E476
3DFF572B
BBAD23D4
BDF6C969
BD939291
BE2126F6
BE1F6603
3D17E375
BE29830E
BE8E0F7F
3DE85BAD
3E29A433
3D87F523
BD04163D
3C97EAFE
3B71E288
BE0195EC
BE31CCBA
BE5A62E6
BE906DC1
BD4EDB60
BDAFD91E
BE43D640
BE06ABC4
3DC67477
3DEDB544
3D3A249C
3D28CE26
BD7930A0
3D4AAAAD
BE2AFDDA
BE111DB0
BD5B1B8E
BCB63F77
BCFAD2BE
BDEA9C04
BE039BB6
BD874FB7
BDAAA6BF
BA628C9B
3DA1F750
3D14C902
3C13B472
BDB455DE
3CBA99F1
3D028F8B
3E093564
3DD82D35
3E19D558
3DCFFA2C
BE262C29
37B762FD
BD17AB3C
BD2A8F66
3DB443D9
3C9AB09E
3C926C5A
BE040B6E
BB8EC72E
3E024CB0
3D20079B
3DC03CF8
3C8130EF
BD2C0FAC
BDFF85EF
3DB040E6
BE020A33
BE1B3442
BCBF235F
BDB60015
BD4844DC
BCE593E6
3D2A9311
3DF7FE45
3DEBC70E
3DD1C605
BCA0CFE3
3DC3116E
BDFEFEE4
3DB96B72
BC7B4CE6
BE2D70F6
BD87A697
BD81305F
3DC830B1
3BE7C6B1
BD67F278
BD795494
3DE272F5
3DBA7820
3AB24815
BC8270EE
BD2BDD50
BCE84B82
BDE5BE59
BE19A4ED
BD214418
3D8CF544
BCAEACA4
BC2C3027
BD11B18A
3C1FAE7F
3D6C0821
BE0FFB84
BE09D477
BD8DB614
BE42DC0A
BE231346
3C13C8C1
3D233D3E
BCE32FAC
3D440E47
BC6FA012
3D99D780
3D4EA708
3D8FD097
BCBB9EDF
BDF7EF7E
BB4F4008
BE19DF87
BCD961FB
BE280FD0
BE5423AA
BD7F61E2
BC8D5A5D
3D42A0AD
3D91774D
3DD579D6
3D717279
3DAD5C7E
3D9056BD
3CDFEDDE
BE3D0408
BDF5C88A
3DFE997A
3E839DF4
3E597832
3E54A5F4
3E160D61
BD121BE7
3C848FAA
BE036567
BD8BA619
3C8ECA74
BBAFA910
3D0AD23D
3E023E26
3A8F649C
3E43AF80
3E189A1D
3DCC2048
3CD544DD
BD42C4EE
BD5C7605
BD9C909A
BD72EC57
BE1A2499
BE237EE5
BDC6A0BB
3CE6A8F9
3C84FF8C
3C67B9DF
3E5EFE5A
BDA60A3A
BDAF53DB
BE48108C
BE587D7F
BDC3E7D6
BE1D3AA1
BE410A8D
BE44D8A2
BDC9D981
BE012B24
BD881E4A
BE2515DC
BD184050
BE1159A2
BE35AC89
BE3877F0
3D156EFE
BD92CE05
BCF7F39A
BD545AC3
BDE6191F
BDF923D2
BDEC4FDC
BE36AD58
BE27D1E1
BE1AB8A2
BE879249
BEC1C8B3
BE7D1645
3D76A956
3DA255C9
3DBE6D94
3E177A00
3DC43BF7
3E26A40E
3D633C95
BDC93E67
BE1F8FEF
3DDB9D15
3C06D7B0
BE4B51AA
BEA2B21A
3D2839DE
BDD1AB16
3D3387C6
3DC90342
3E1D1302
3DB4C063
3E7D9B14
3DAAFE04
BD12ED75
BD15C3DB
3D4A99FD
3E12B0F4
3DD2CD25
BE87691B
BE151AD0
BE3AD32A
BDB1EB8C
BC6FAC56
3DBA1B10
3E5F31B2
3E1A6E7F
3D7531C0
3B237890
BE1158ED
3D730540
3E942AC5
3E6E3B1C
BDB417A1
BEBAA6C0
BE5A9CFD
BD0B60F8
BD83F3E2
BD910FA7
3E2573DA
3E0ACD56
BD74CF92
BD1EDFD5
BC7AE63E
3BA5C2E4
3E28EEF2
3D11B4C9
BC38E1EE
BE8D4D77
BEFF4B51
BCFD0E27
BD8B9BAA
BD482725
3DAB51C3
BD82B923
BE0E4A49
3DA79FC3
3DD414A7
3DBF9DA8
3E30E793
BCA17D61
BE284DF8
BEB64F87
BF20C04D
BBE9EF66
BD9D701A
3C3C7FE0
3DD85B06
BC30EDE4
BD4A4E6A
3DB60290
3D07871A
BDB556DC
3D93BCD7
BD4B2929
BDAC682A
BE8C6DB1
BEE61F1A
BEA18498
3BAB2D4A
3D0F7E16
3E080C97
3E220C1C
BD5E4B7A
3C25104E
BD6140D1
BC9813C4
3CCB942F
BE13458E
BD8AFEC7
BD2CBDA5
BE3A5F88
BE0CC63B
BE8E0C15
BE6656A9
BE719F3C
BE9AC952
BE0FCCCB
BE304CA0
BC77C1F6
3DE11222
BE386292
BEAA2A5B
BDAEDE14
BD829C8E
BDA90806
BCBBF434
3D3DBC53
BD80A544
BE393F5A
BE0191F0
BCA0FE86
BDB6551D
3DB7B613
BE170CAC
BE7025D0
BE977B2C
BD1B619A
BDFBA88E
BE423BDD
BE8D3C5E
BDA433D4
BD17A2DE
BE07CF57
BDEE47FC
BE103B43
BDC9F110
BE40A9CE
BED95BF7
BE8F603B
BC8D88F5
3DB44062
3DA60E08
3E606591
3E8B0F85
BBA75934
3CC4B85B
3DB7E098
BD281E0C
3DEA42AD
3E1BB5A9
BD65D045
BCEF69AA
3E19950B
3C6BDC6E
3E539C5E
3BFF707E
3E7D1CFB
BCC9D25E
3C573DE3
3D20EA59
3DE62B80
3DAD1007
BD5BB71C
BE1C23B0
3E098C93
3E4B69CF
3B7BD48A
BC2E9A31
3E219379
BD0D64FE
3E18A2D0
BCF4D817
BE62FD4B
BE93ED58
BE80C183
BE29AD7F
3DB8A6C7
3CAC1E63
BDABE651
3DF3EA2D
B83AB87E
BE356CEB
3E3B4C57
BD3C4729
3D701DBF
BD999533
BEB1695B
BEA2FC45
BEA68C44
BE6FB6B3
BD76C7D2
BBF97886
3E2683EB
3D4CDBB6
3D6E3B71
3DC1F3AB
3E068F09
BDC5DCF1
BD670F2F
BE5E4F00
BED0F5A5
BE7B5704
BE64227B
BC89C990
3DC12057
3E547277
3E513AAF
3EABE82A
3E7A28B7
3E3D9177
3DD3F524
3E46081F
3CDC6C05
BE405BCD
BF18DAB8
BEDCED16
BDF3C3A4
BE34AE3C
3CF4DA21
3E88ABDD
3E8FAEE4
3E4CD359
3D944D33
BE42B66E
BD817790
BD35CEE3
BE393729
BE68050C
BF314134
BF25C780
BE72770A
BDDC38D1
3D4C8477
3E8F0C39
3E324C5F
BDCD9392
BE5E793E
BED712A3
BD7AD763
3CF06C2D
BDB7E98A
BE84CD69
BEEFFCF0
BF1EE81C
BE52367F
BD9C4B87
3DC3CDB8
BDD1D38B
BE4891EB
BE6F96C0
BE7B5276
BCFFDA3F
BE485BC3
BCB26135
BE18A689
BE1886E2
BE9E2E69
BEED1482
BEA0F481
BDEFEA65
BD04499C
BDCAD677
BD466DBF
BA6FBC47
3C9DDC02
3D266E22
BE20BF9C
BDC765F8
BB8C01EA
BDA60DF2
BE1E0873
BE730633
BE91C93E
BB71738A
3B9A8D07
3DD31561
3DF71E7E
3CDFAF1A
3DFFA64F
3E19C4F9
BDBB93D6
BD88EC54
BDFFFB32
3B5C641B
BDC9D144
BDC00F73
BD8D41F3
3DEBC743
3DD378F9
3D2E6EB6
3DADA0A6
3DDC01BF
3CF4F296
3D8AEA70
3DEC0AD0
BE22F4F9
BCA225AF
BC57A497
3D8BAE20
3DC7C823
BCDDBF84
3DA8919E
3D764BBB
3CABE730
BC4FC0AD
3A84FF52
BD8F2118
3CFE89D8
BDF123BD
BED0D7A6
BD56A79D
BDFF59EF
BDAC9102
3D22848C
3CA4E74D
3CD94068
3D03D07A
BD47913F
3CDBD0F2
BDDAF52A
BE18FE8D
BE6C850C
BD07467F
BE3134A8
BEC6B523
BDC71F14
BD7A8289
BCB22A7A
3D1F2E39
3D834076
3DFBAC32
3E2B50CF
BDF8D0C1
BC74A093
BD774F17
BDF86BAF
