3E85FB89
3E95B74C
3E1E86C7
3E4065DC
3DC49183
BC513773
BE337F47
BDA03510
BD228E55
BE121CAB
BC07E160
3E2A8BE0
3E3CEFAE
3E9213C4
3E4247C1
3DA48E5F
BDAC9C27
BDC4BBBA
BDC010C6
BDFED3F8
BE838D42
BDF6153A
BE296EFF
BE17AEF5
BE327FDC
3D8349D0
3E1798BA
3E1056CC
3D1028F9
BD4CAC63
BD6E95AA
BE7DC72B
BECC2FA5
BEC8C6F7
3E21AA78
3E8C8814
3C9B4625
BD6F378A
BD8CCEE1
BEFBA44B
BF07BAD6
BB56D2CC
BE02453C
BE2EE381
BE6514FD
BF0ED991
BE9BDFC8
3D92A5A9
3CE5ACBF
3C864BC7
3D085352
3D8327FA
BE0FD357
BE91A257
BE58DB9D
BF055C7F
BE2E0914
BE0A9537
BDC5D531
BE4DDF8D
BE1DBEF2
BC618E09
BD865CB7
BD17C63E
BDC8F2FE
BD5F46E8
BCD7997E
BE1E93DD
BD121798
BE27F0BD
BD5EFB28
BBCC299F
3DACF888
BE275C31
BE02511B
BD8F0146
BCC43527
BCC8D1A1
BD87DA58
BD63BB4D
BBEF7BD7
BE3D4F99
BE6F42D5
BDE97A8E
3D5DC8B0
3DAA9740
3DBA9092
BCBD30A5
BDE68013
BD5C4E21
BC3AAA4C
3E03C95B
3CC92A1C
BDBDE4C4
3BA18E1F
3D20EF04
BD331EF1
3D74E3E8
3DE6E4EF
3DE6386C
3DC1CA33
BDB3B47A
BD67C2EF
BC37935B
3E121A8B
3E97EFEE
3DB55873
3E0A006A
3DAD6F3A
3D92C6EE
3C906A16
BE85BAF8
BC8C78E5
3DBA52E0
BDC6CA45
BD00F0B8
BDF7F2A0
3D19A3D4
3DC9BE37
3DF88475
3D0A4D55
3DD89D2A
BE5387C7
BE2A7FF9
BE2CDB5A
BE848970
BD9EB88C
BDA0AF48
BD56E924
BD990746
BCAD626E
3D9890EA
3DFDE050
3DFA8980
3DBF8E27
BC4054E0
BD87DE73
BDCB4FC6
BE46ABEC
BD50CA49
BE3D3CE5
BE38CB0B
BE287071
BCFD508E
BD95817E
3C594DF2
3CFA92AD
BD9C5A3C
BE0BFC77
BDF73FFD
BD8E42CF
BC37DF49
3DA2E544
3E8370F9
BD8D78C8
BE28557C
BE2F91C3
BE0D2BDA
BD9F0713
BDC63406
3CB5ADDC
BE07B73F
BE1BFA91
BE07F7F8
BD806360
BDA084D4
3D9CC9ED
3E4712EA
BC377FDC
BE1450D1
BC9D613D
BD9031BC
3D844BDC
3D556A44
3C0FBD43
BDB7498E
BD10C9CD
BDFC5E30
3CE98B13
3E1BBC8C
3DAFEFB6
3D033122
3E69ECC2
3D0F87AA
3E12E527
3DFE0F80
3DE2260C
3CBC08C4
3DA73811
BDA34A2C
3CA3CDAE
3DAA4AEA
3D835823
BCAA3E4D
3DE2C3ED
BD91F4E7
BD661177
BD8B2DDC
BD78E11C
BE45665B
BDE3CBE4
BD48D954
BE805CD1
BE822235
BEB463C5
BE9FA1B1
BE29564D
BE3020CE
BE323EC5
BDA8EE39
BE0E1E63
BE2F2314
BDEF00E6
BD283BE7
BDD44FCE
BE07DDE1
BE976411
BE0A4ACC
BE9AA8DC
BEB0C503
BDF32BCD
BEA62037
BD7EBFEB
BE937941
BE45CF4F
BE25CFAF
BB22824A
3CBB5246
BD05F563
BDDD8C7E
BDA7BC9F
BE8D8FD2
BE80C34A
BE8428D0
BE6E6CF4
BDF8F135
3D7D0A7A
BE6E16D2
BD724434
BC7B6561
3DCD78A7
3D88B2E5
3DFEF7E2
BD1D694B
BE83F3F5
BEB9858A
BE25E0A4
BE322ADF
BE9FD7F5
BDBB2B25
3D91CC27
BD9A434F
3D25CCDC
3E3EF9DE
3E0A2F55
3D63F0AB
3CC8654E
BD0E96C6
BCF330DD
3C69EAD3
BCB1BB0F
BDB954BB
BDD7D931
3CEDA774
3D6BAC80
3DDA525A
3E50418F
3E041D6F
3E2A5C43
BB9734D3
3CD5B3E9
BDFC65AF
BD975911
BE2C89FB
BD9BCC0B
BD8FD336
3E18E809
3E1569E0
3E3B31EB
3E988A3F
3E396C34
3DED2F93
3E05A5C1
3DC4861D
3D3EF7C4
BDD6B9EC
3BE96E26
BE0C76CA
BDFA61FB
3E8C5AC3
3E6337AF
3DBB98F9
3E781047
3E327A9B
3E04768A
3DABEB19
BD94C9EF
BD25FD8D
BDD51B8D
BE0AA636
BD11046E
BC15CD7D
3D8F635B
3E5608D6
3C91895F
BC427F55
3C60BEEF
3E115E47
3CC91D36
3D2DECE1
BCEE9439
BC68075F
BC7DF8CE
3C62865B
BD6C23D1
3C79E743
BCF47F59
BC12F26E
BE55E46A
BCAA28C4
BD872545
3E43DE2E
BE017DDB
BDC5E6D6
BE0B4597
BE543CFF
BC3AF125
BD5EECB6
3D6051B2
3CF4E926
3C3E09E8
BDD3924E
BE30A3EE
BDA4BFD8
BD453EF2
3E87A6DA
BE5FE1BB
BE0CA456
BDEA2C30
BB9AA2F4
BD22A4EB
3DEB7CA0
BD3744CC
BC990778
BDA732AE
BDA0BB9E
BD69A32C
3CEC5D9B
3D2720AA
3E63A740
BDF4C7B9
BD87ED89
3D438BD3
3D2E89C7
3D546862
3AF42E20
3DBF238A
BB79A5AA
3D7BE4A3
BC2AC59E
3DB333AA
3D92F655
3DEE0B63
3D8ACAD7
BD49490C
BC2B844C
3C30FDEB
3C33BFAA
3DAB1420
BCA3830B
3E1F595F
3D3CAABE
3E4D450D
3E7BB3FE
3DDD3A42
3D918FA9
3BF7A1B5
BD4F882C
BBB475DC
3DFAC170
3E265292
3DAC9C93
3E10A2EF
3C3CDD04
BD24C480
3D81D939
3DA84E49
3E931E97
3E2A1D66
3E0CA3EC
BD845CFB
BDDA7ABD
BE009CF7
3C5E7B64
BE31CB8C
BE49EA6C
BE2A6457
BD253CB9
BBC6DA17
3C21A797
3D508A65
BDBD29FA
BDD4A858
BDACB061
BE76FE89
BD5BBA17
BE1CAC62
BE20CE9A
BC4B544E
BC1CAA3B
3D2BA20C
BD470A4C
3DA99CAA
3DD1AB1A
3DBA7131
3CD2AD29
3BDDDDCD
3DB3B698
BE2422C9
BEA556C4
BE40F796
BE733536
BD52B633
BC8EE6B8
BC65EF7F
BCFAA438
3DE7DD7E
3D5181E4
3DE556E6
3DF586F6
3D4D3635
3CC193F3
BDAC527B
BE3BAA51
BE0D8828
BD27E64C
3DC8AD18
BDD00FC8
BE730981
BE70348F
BE63A327
BE398626
3C98E995
3DA7F658
BCAB93B5
B94FAB8E
3CC8DDE3
3C107240
BD4B0676
BC8AA3E6
BCFA6F96
BEB0BB59
BEA6BCA4
BE84BAEE
BDEEFEDE
BD1BE231
3B6E43C3
3BF91554
3D2AC40C
BC6D89DA
BD45367C
3D3558C6
BBE3248F
BCA1C21C
BEBBD2D5
BEB0A712
BE5C7AEC
BD1D99B2
3D80424E
BDF10431
BDB3B67A
3D52231C
BD9FE87F
BDE61338
3DC649C9
BE2C9B92
BD89B1BB
BDDB5CED
BDE8AC48
BE23BDEF
3D1EE1CF
3E23F381
3C8E33D9
BD88C41A
BE1F9B3A
BDA09A26
3D87A987
BCC6FFB7
BDB7ECA8
BE9A8826
3E1C08E5
3CB1BF54
BCC0E5E5
3CF42812
3EB97D36
3EA388FE
3DE3735A
BE36C72E
BE414CAD
BE99634A
3D93A0F9
BCFD7943
BD0ED3DE
BE5BA7DD
3DCB7685
3C7FCC65
3BD538CA
3E289290
3E9E12A3
3E8750ED
3DE56FD1
BE6DFE2B
BE2CB595
BEC7BAA5
BE44388E
BE199FDA
3B96B6F7
3D0BC4EE
3DC3A54E
BD9A1462
3B32A1E5
3E77A836
3EA2B718
3E9C1D67
BAC22852
BC4F499F
BDDE6F88
BE7B8238
BE8F9DE1
BE0C1E25
3DA42710
3DD5D530
BE8AD16D
BCEAE5DB
3E6E67AF
3E86E95F
3E32FEFA
3E11BDC7
3CD74043
3E7AED39
3E21EF69
BE000382
BDE7AE79
BE43F72C
BBD068C5
BC832CDC
BE264FC0
BCC22592
3D85397F
3C56F912
BDC881AA
BDEE9D1C
BDF5FDAB
3D5030DE
3DE27854
BDB369F8
3E022ED9
3C9524A9
3DBEE79E
BE17DEF7
BDD6ADF3
BE3612EF
BE4A7079
BE9CD0C1
BE6FDBF2
BE3B86F8
3DA6E820
3DA3A95E
BD0B3DED
BC32483B
3E3D32A0
BD8BCD49
3C900088
BDD3EFCA
BD38CB8C
BC8ABDC3
BDABFB79
BD5D2C98
BE0ACAD5
BDC1BC95
BCBE0095
3DE74A92
3D90AE28
3D39C20D
3E505FA6
3DA4D71F
3D5ED3AE
BD318350
BCBDCC6D
BD622A84
BE1BD240
BD215035
BE8C8213
BEC8EFAA
BF1E2336
BE28EB04
BD3AEEEE
BD7F4908
3C89181A
BD03B06B
BEBEF8C6
BE0DD031
BE3291EB
BEA00184
BEB64656
BE69F259
BE83F05B
BEA56EDD
BE906DF2
3C037E8E
BD30FD94
3D152CAB
3C370EDF
B98B337B
BE21D973
BE988778
BEA6DD35
BE6690EA
BD8719BD
BEA23354
BE65B782
BDDE9A37
BD42A6BA
3D792C8C
3DB4CCC8
3DB4EF4E
3D240737
3D533262
BD1A8453
BD01F2C9
BE2A144C
BDD78190
3C837857
BDB23130
3D99DD51
3D2311F9
3E2FB557
3EBA1FA8
3EE7A44C
3E1B94BB
3DBECC39
BCE63EC1
BE28E4E9
3CE4760F
BD8D4AC7
3DB115C7
3D84B30D
3DDF9AF8
3E5D4922
3E553F12
3E8D8F49
3E5420C2
3E218224
3D74EF3B
3D55827E
3D56D21C
BC7F4C24
3DB63B93
3D3F8BE1
3DC04BFB
3E7AF20F
3E28B16C
3E294FA7
3DF93F39
3DBC687A
3C5CA229
3E336A36
3E148B8B
3B976EDE
BDA24C7A
BD2EFE76
BE4158F9
3E4C2615
3E0A40A3
3E304B8E
3DB78750
3C31262B
BDB85FDF
3DD43D90
3DD0B1CC
3DAB4929
3DC66D75
BDBAC8FF
BE1D68B6
BE2F06E0
BEE181C7
3E10ADA8
3DDCB873
3DB3B2B8
3DE63B80
BD95FCE8
BD1198B5
3DCD6A42
3E86DE04
3DE9FDE7
BE6FF166
BF01572C
BEC53839
BE4187B8
BDB60C2A
BD0B8640
3CAFA4D4
3D4F37CE
BDE4CB44
BDF6EC31
BE1CE71C
3DE60F8E
3E8E4A05
3D81EF8E
BE8BE5B5
BF0D0782
BED1489D
BE322185
BDF39FAA
BE2ABC17
BCD74100
BE195E21
BE51E02E
BE28CD5A
BD910D8E
3DC4F6C0
3D82505B
BDAAF60B
BE9F2C82
BEB561FF
BE932B67
BE6E267C
BDD726FE
BD6FEE03
BE4EEDC2
BE64D86E
BE0345CD
BDC779F8
3E0C16EB
3CC91358
3E0BF50F
3B4FD763
BDC01B1B
BE8593BA
BE47E5A7
3C88038C
BD1AE6E0
BE0716E5
BE2605DF
BDD3A9DE
BE345BA0
3D25EE10
BD9A69E8
BD21CE90
BDE96C0B
BE36A57F
BE2D3564
BD01E200
3D299553
3E59CA38
3E7ACBE4
BD22F785
BD47E789
3BC562D0
3D0B7CB0
3D49DFA4
3D8307DB
3C8090F3
BC83EB1D
BCACFFF0
B9CACEDE
BCCE918D
BE701F89
3DC138ED
3E0088EE
3DBD30F6
3E19047B
3E023582
BCCA0DAF
BD62B7E4
BDAE0423
BBD6E5D9
BD562B29
BDE8F576
BE01C454
BD35C1A8
3D833AD8
3D75BA07
3DAD8113
