BBE7224F
BC20F93C
3D5378C5
B9AD205E
3CA4746D
BC9F1784
3D4C00C4
3DDF10EE
BCE4E88F
BC8B0847
BD13F055
BDE82CC2
3DEF8440
3E55EC49
3C0AACA4
3CECEFE1
3DF5AB57
3DEEE201
3A5ECF0A
3D2D8E7C
BA73705A
BC725900
3DD67991
3D50DFCF
BCC0AD3E
3CB3F488
3E1BA21E
3E1692D1
BC31F9B3
3CDEA228
3DC64B3D
3DCEEF2E
3DDAFF81
3D24B744
3C6BEC02
3D3B790B
BCC96FB1
3DC8FE14
3DB40D12
3E3188A9
3E212CCA
3E5805CC
BD96B7D1
BDA2E0A5
BE058FF9
BE2915A4
BC717D07
3D9EBF1D
3DFD634F
3DD552AB
3DCB8DBD
3E0EF99C
3E06AAF0
3EC023B7
3EB1AF59
3E98D8F9
3D9185A6
BD65D8B6
BE98D91D
BDEDB244
BDDD495C
BE3DD57B
3CAEE603
3D369C05
BC929AD9
3C805955
3C9DB4F2
3E8367DE
3E7F68D5
3EDB13D5
BE1653FA
BE71BE5A
BE73BE4A
BD9D5134
BCAB71A6
BD80084C
3DEEA015
3C898F61
3DA9EEA4
BDC5D3E2
BE9EA564
BE9B2D5C
3CE1FBCC
3E9FDE73
BE161565
BE18BD34
BE31A635
BDC9CEA5
BD5BBBFF
BDA5C1C9
3C9E9D40
3BFB213D
BD4923BB
BE3B975C
BEA3EB00
BE6C7788
BDFEFC4B
3CAADAD8
BE299A51
BC733074
3D9572DC
BE684D4D
BE393C4A
BDF92B36
BD77B846
3DC13D59
BE5DC92E
BDEFAA83
BE84874A
BE549500
BE92B819
BDE56C93
BB0AA555
3E52E784
3DA82B2B
3DF1C6CA
BDA6F5E1
BD7306B6
BDFC137D
BBE95B7B
BDDA2388
BBD06EFC
BCBD7ECA
BE1376E4
BD6862D3
BD2E69A0
BC84A2A0
3D1FA698
3CEB60CE
B995E623
3DB30052
3C81730E
3CFCE79A
BD2B5CBC
3D89FAEE
3E1DDD6F
3D5E7902
3DC3ED48
3D8239CD
BCDB6789
3D86876D
3D1E9D48
3D8C92C4
3BE84B79
BBF7D09A
3E1ECCDD
3D014758
3C471E34
3D642491
BB8C4FF5
3D14C3C4
3E3A48E0
BCC7BB7D
BD844CE2
3D51635D
3DAE7040
3E33E44C
BDA56F54
3D8BCB68
3D9483D5
BE344A53
BDF52560
3E4AE6D9
3DDDA351
3E1161C5
3E5CCE53
3DE5F312
BD5915F5
BAD148B6
BE8116EC
3E1DC4B3
3D8D3368
3DD18E4C
3D830081
BE8A0D23
BECEB83F
BDD10BE3
BC7F8C61
3C1CB47D
3E210FE1
3E0E2959
3D833274
BD11868A
3E348702
3A17BF49
BD026143
BC220F13
BD7DB0C3
BC030248
BE662F8C
BE38C0DF
BEFDFF7D
BE0E8E16
3D9A599A
3E11FDBF
3DB9306F
3CCE57F6
BD6DC198
BD7197D7
BDC3E415
BE50CC70
3E069938
3CBBFC31
BE518E8B
BD525B0A
BD797AC9
3E6399E6
BE523F68
BE389AB5
3E5F9C37
BD7130B1
BB83B435
3CBDD5DF
BE60FC77
BE7E7F4D
3E02CAA9
BD4F2055
3B3DF0D5
3E336E1E
3ECB43EA
3E36894A
3C8BA848
3E0958C9
3E110D48
BE4B0333
BE018CBE
BEE6EB62
3D838455
3D8578E3
3DED4B6D
BCD46926
BD9DC737
3DC6C97E
3E7BD2F2
3E843E41
3E464225
3E34983D
3E61E823
BE6BC6A2
BE3D4C92
BE854F58
BD189DAF
BCC3950D
BDA5A41D
3C4EB347
BD75AAEC
BDF71A2B
3B733F00
BA640DAA
BBCB95FE
3AC8D0D7
3E9436C2
BE4A600F
BE4CE2EE
BDF2C96E
BD8EFF2D
BDE89898
3C0A249F
BD877258
BE9BB7B5
BEC50457
BEB09149
BEDC1B7B
BEAE2DFC
BB8FB2E9
3E873B8F
BE24BF9F
BD9076F1
BDAB89D8
BDC0AAF2
BD4AB3F7
BD88ECE0
BAC28828
BEA198A5
BF04B4A4
BEE4BD80
BECC22FA
BE8E13C9
BD4581BC
3EA35190
BE62FF1A
3D1707DB
BC09B106
BE0439D5
BDC479E1
BDBACBAD
BBA1EC36
BE2E9F20
BEB78CE5
BE9AA05E
BE901E88
BE8F50C2
BD6663D7
3E9A1760
BE12A340
3D8CD579
3CA7E4BC
BDD3B25D
BD91CDA7
BD6102D1
BD5FC529
BE1E898E
BD6C9577
BDA56A6E
BD14D9F5
BDBA0E70
3DB044C9
3C9C6B68
BD1BCC60
3D8A092D
3CE5A849
BE2BD0E8
BE46090E
BD82EC35
BE0EDFED
BBA20011
3D843D93
3C46DBD7
BD9129E8
BDC2BB47
3DE35BC3
BE3BE6DA
BE7649B6
3D0BD015
3CA6FD0C
BDD92C22
BE03285F
BE0D83EE
BDB43FC0
3C0700E1
BC54041A
3D79FFA2
3E110000
3C8A20D5
3DE21108
BDAF839C
BE6DD46F
BBF522A3
3DFA93BC
3D9D22AD
BACA4AFA
3CE3AC0B
3D12E045
3CADF72B
3C04E678
3E2B2E8A
3E271BD4
3E321FAE
3E063D39
BCDEB657
BE1CA427
BD8F1F57
BD32E465
BD2B3247
3D21819A
BC6DDAF3
3DB85761
3D971B04
3C1724FC
3DE00A3B
3D77FFFD
3E011E51
3E055B63
3D2662DD
BD721962
BDE8ED5D
BDF5CB0B
BDCC91B6
BD6079EC
BDBA7B1F
BC888C5D
BCD9C152
3D7D0815
BD075C9C
3D8CD420
3E148324
3E8B7594
BD5A4565
3DF63F6B
3D63DC83
BCADD132
3D262C49
BDD3CD0C
3D89F780
3BEF9519
3D1BA091
3D646093
BDCBBE98
BDFA229A
BDD81FE2
3B86407E
3D8A506C
BDD34865
BDCA3594
BD0B3156
3C54352D
BA01ADC3
3D90AA8A
3C95E1B0
BC97724B
BD47436E
BDC41EDC
BDE8FB7D
3C10BB45
3E21977B
3D468912
BD5A09B7
3D8B51F1
3D221351
3DD8D053
3DE5436D
BC2600F5
BD9264D7
BDCC582A
BBED0059
BD787E52
BE07362D
BDF35AFF
BA4349EC
3E02BD76
BE54FF0D
BD34DDF9
3C65A3DB
3D325B1F
BD67D220
3C894565
BA9E4639
BD2C001D
BC44E527
3B8ABD06
BE0FE6F4
BE5A3F9A
BDDC3810
3DC922C3
BE26D460
BD140E3B
BE471FB2
BE147D5A
BDD311F8
BCCEF8A3
BCBC4E14
3D667B9D
BDE03BE2
BDF3E0AA
BD91FEC7
BE1883B1
BE31C770
3D506A09
BCBB2F40
BE5EA5FB
BE5D2A4E
BE419221
BC08EA79
3DBAD54D
3DD64CE9
3D425622
BD0B8A75
BE0DF1DB
BE2B7A1D
BEF2D665
BE85E5A7
3DE1BCBC
BE517D3C
BF034673
BEC15CE4
BE1BA880
BD83AA66
3DC78187
3E141E45
3D115BFF
BD6758D2
BDCE5003
BE236A5A
BE8762B7
BE6B4C47
3DB3F70E
BD911BD6
3DDFE518
3D1BCE34
BE41DA4D
BE31C78E
BDDF2664
3D39BD8F
3DA4D50E
3C099669
BE16F817
3CC90CED
BB31C3BE
BE36A712
BD91C6B1
BE4B3A9D
3E3A13E9
3EB80A1A
3E0C0528
BD31DE62
BCABDC8B
BD0A3115
BBE59E2F
BD50A5D0
BC691CF8
BC9A7297
3BBC2155
3DADCA95
3E761FE2
3C332378
3E39C5CC
3DFFCB21
3DBAE22B
3DD7B7D2
3CC5F051
3BB28506
BDDDF326
BD59F5A3
BCCEE7EA
3C0E8180
BC7EB828
BD41E9E3
3E0076E7
BDDAFEEE
3E2A94B3
3E11E560
3E1E25B6
3D59D451
BBB24B89
3D160DF5
BDE73362
BD2F30F0
BDAF5DA5
BC20B6C2
3CA3262B
3DDAF6DB
3E052D07
3D7DC6E3
3E407BD7
3DAB4A00
3D2BD08F
3D798263
3D072362
BD13541E
BDD8BA1E
3D9DC2DE
BD5D0382
3D6A8A8E
3D1D261D
3DAAA4CB
3DA1AE25
BD927355
BE40A8E2
BE8819DF
3D110AE3
3CD20BC7
3E099514
3D8656B6
BB9750F8
3D8A40B6
BB6341C0
BC376D74
3CEB791D
3E192799
3DC19A2C
BDD8A694
BDB3F158
3CD38F9C
3D818B79
BE2B3587
3D283F51
3C9647F7
BCF41B7E
3DC4CD6A
3C996239
3D7BCCAC
3CC5D8DF
3E72F207
3E496896
BD2368FE
3BB34F3F
BD129950
BDCFDF2F
BDDD8C07
BE1FDC53
BD19925C
3D352CDD
BDBF80E5
BBFE4D1E
BDA412E0
BD0997A8
3E3632FB
3D40F04A
BD276AB2
BC0B49F3
BD3DD87E
BD837773
BE1F85B2
39A42F39
BD9BFCB0
3ABD739B
BD6A4822
BE472884
3CFA8380
3C11A946
BE560F5E
BD39FA30
BDA61F85
3CC412EA
3DB0DE08
3C4ABE56
BE3A3DEF
BE04FE94
BE8E0362
BE2D3F4A
BE8A4F25
3CF64EC2
3DA81C86
3DEA2D23
BE145266
3D004ED6
BDE5A34F
BCA4AD4C
BDD444FF
BE79DF78
BDCA408E
BEB9D31C
BE877614
BDCA3C8A
3D4BCAA4
3E1CF22D
3DF65B52
3DDF66C5
3DDCFDF5
3E4E0F3B
BE20DB1D
3C95E1D9
BE2CBE3B
BE482612
BE9B4897
BE39BB68
3DCE58C8
3E2FDF66
3E09F563
3E6579DB
3E31C6CE
3E995BE7
3E1BE48C
3E230770
BDAD32F5
BDB766F6
BE076638
BDA97B49
BE4BD696
BE5098E8
BCE23D29
3E18CE1D
3EAD9816
3EB8FAB0
3E951112
3EAACA4F
3E569A4F
3E50CF46
BE03C263
BCDE01BB
BE00B98A
BE04C34E
BD2F6840
3D7F85D9
3D1BD775
3D29E058
3E734B60
3E872DF7
3E865F77
3EB77789
3E7531E1
3E86A2B0
3D83D514
3DB73449
BD0D655B
3DF15E46
BCC019E2
3C3BBED6
3D612ED1
3DFE81B1
3E8BBDEE
3E33FB4F
3E4B7570
3E9819CE
3E508C33
3DDC7CD4
BE25937A
3DC91C54
3E41ACBF
3E6A3C3D
3DAF9C9B
3DA3D0FC
3DC83807
3D82AD0B
3DFFA056
BCC932B7
3D5B401A
3DC18382
BDC6C350
BE1E146D
BD8D39DF
3E0F7B93
3D47EFFA
3DEFDA6B
3E8FEB4A
3E2216A7
3D093925
3D65F4BE
BD6830F0
BD9F4C81
BD914BA1
BE8414C9
BE36BE96
BE237B66
BE28EC51
3D7FC390
3DECD7F7
3DFB86FC
3E793144
3E3EA522
3E1A4C93
BD201EC0
B98534DD
BDD09C51
BD66E34C
BE4F09A4
BE1695AB
3C91A6BD
BE36E326
BD297E14
3E39168D
3E392BEA
3D9D2AA8
3E543E51
3CB695EB
3C61705D
BD8277AF
BD93ED11
BE2C07F7
BDAF65BE
BD3CE6AE
BDA3D066
BE7AE429
BD56467F
BB1F6ECE
BCA6E8EE
3BE44BA9
3BE13E8F
BD6BE9FA
3C38C621
BD6EAC5E
BC714EAA
BD714809
BD8BBD72
3DD71460
3CA0C8E0
3D836AF1
BC2A1EFB
BE16CA89
BD99DB45
3DB785DB
3D4A11E7
3CF57AB4
3D9225C0
BDFF6B34
BDE2A93B
BDD6D9D5
BD980780
3E1A3E5E
3E523017
3DC8BC44
3E0F750A
BD9AE56D
BDB482BB
3DAE1F71
3DABEBFA
3CB4CB2B
3DB96DB0
3C6B50DE
3C778CF5
BD274C24
3DC0DD73
3D4A9010
3E853FC2
