3BA87E0A
BD9106C3
BD1FB83C
BDA4ADD7
BD5C2AE0
BDBD4446
3D6204D9
BE2ABF6F
BD95CD6D
BCAB08BB
BC10ABD7
3DB10A23
3B9D1C10
BDCE48F1
BDECA4C0
BCF1C9C6
3D4A1EC7
3E08A399
BDAE67CB
3D622FED
BCC08D57
3CBB735C
BD84EE9E
BD1DF9EF
BBF2B40E
3AE52AFE
3D3CAFD9
BCCAE3B5
BE0D9EE1
3E026017
3CD36B68
3B9CD501
BC2557A9
BD3D8033
BE2F62B3
3B32C128
3BA55E8B
3DBCA733
BDEC821E
BD7DD77C
3D3900C4
3DA95B18
BD7178B1
3C74F3CB
BDA4C71C
3CC9A829
3DA8B1DC
3D8C8819
3C0B0057
3DCB3A67
3D8980ED
BD0D8D5E
BE6EC9B7
BE27D9E3
BE447E37
BDF2F3F9
3D2B0FC1
3E0A18BA
3C0F3721
3D95EC9B
3D4FB68E
3D899633
BDA929B7
BCBF9783
3BD55F3C
BE5C2CE5
BDBD17C0
BE92CCFB
BE98AA23
BDEF6FD6
3DE0772A
3D82AF86
BCF9BF54
3D95890A
3E192521
3DCE81C2
BC5AD496
BE556446
BE5D0CE3
BDA7465B
BDE3891C
BDDC9C63
BD60014C
BEDD3E3D
3DF8B932
BBFA5F98
3C8774D4
3E40C752
3DD45CD3
3E2A01EA
BC0500A4
BE3C62E4
BE91CA5E
BD82EAFF
3DCD6F42
3DCF7E53
BE05396D
BEEF84D8
3C144C38
3CDB2E67
BC96FC8A
3D2168F7
3B8A9BA4
3DD1AD2E
BB8DEBDB
BEE6A685
BD7ED865
3E16915D
BC080A4A
3E52DAB5
3D3B5CB7
BED79E17
3DC35545
BDA58FE1
BDE8B171
BD9435B8
BD9CC804
3C6772A3
BC7129AB
BDC11712
3E423BEB
3E804D82
3C0EE306
3D30398C
3CC87983
BEC450E6
3C3AA877
BC383C6E
BE0D7A27
3CF1A2E1
BD63E493
3D185ACD
3D82B91B
BD0A8492
3E78177B
3E18003C
3E760F64
3E2BBA24
3D8EAE64
3DE9772D
BE03C572
BE886946
BCA9FF53
3DC56C43
3DBBF100
3DCE8F1A
3E175CFC
3D1EA3FB
3E815AC0
3E0E3D1B
3DC70D3C
3E43C877
BCE14919
3E639626
3C0BD5DD
BEB6E573
BE29F2B1
3D6B440A
BE75E3DA
BEBD4F8F
BEF63810
BEF69175
BF01F4FB
BEB6611C
BE8AE8FB
BE65A2C8
BE1EBA35
3D695547
BDD14D05
3D27E728
BD5069E6
BE8B697A
BF04D72E
BF1034DF
BE98EE36
BF1A9271
BF30177D
BF3D40D0
BEC577C2
BE8D00E3
BDD697AA
3CE542C5
BD6E3332
BDBA9921
3DAA1F4A
3DDEAB5A
3E05295A
3E20A512
3DE1E7C4
BB829F33
BED90BAB
BF0D6FFB
BE926BA3
BDD88DEA
BDF9223F
BD0BBD2F
BD8D8DC1
BDB33306
3D1AC4AB
BE5EBD6C
BE088D85
BED51FA9
BDFA9FA6
BD72829B
BE50ACFA
BE20F187
BE42A515
BE76BA30
3B936419
BDB45808
3C99952F
3D86570C
BE3CEC4F
BE88EDF0
BEC407BA
BDDD21C4
BD91CFCD
BDE78482
BE6BD976
BE4B4D45
BE557AF3
BD6919E2
3BFDB9B3
BE78FA91
BC2FC4C9
BDA500C6
BE3E8760
BE0B568D
BE4CE999
BD598018
BD25C173
BCDBF6B5
BE379C3E
BE386C1E
BE81991E
BDCE38DB
BE0D7E27
3C0302A8
3CB8AD1F
BB9105C3
BE6E9CDC
BDDA9814
BE142000
BC951D82
3D06A87E
BDA738E9
BD7F7990
BE2948C3
BE4F838E
BD1FA0DE
BE301B08
BE452351
BE21601F
BD0FB0C2
BE2A24E5
BD90B536
3E034001
BCA56E60
3C1E0C43
3CB6493F
3CFDAB42
BE008CF6
BE0214BA
3CA11378
BDA2A1F7
BEBAF887
BDE25F2D
BCF6AA37
3D9FEA30
3E2CDE90
3DE82650
3CFB431C
3DBABA94
3B9FE577
BD256A86
BD92E2E1
3C1A8750
3E176914
BD24E259
BE0B349D
BCCB1883
BE3AD290
BB85229D
3E4D1698
3E69C57F
3E22FC4C
3D83FC3F
BE405BE5
3D2941A8
3DD2871A
3D9948DD
3E2F65C9
3D287853
BE43B7ED
BD42D63B
BDE5F87F
3E651178
3E3F21CA
3DC97E58
3DA49C5F
BD6397E2
BE71A2A4
BC0C6591
3E040359
3DB726D0
3E001017
3DE454EB
BEE393B5
3E109D42
3DEE5105
3DACFF2E
3CFCC107
3D9EAB86
3D3373D1
3D6BE44F
BC30F9F2
3C6756AA
3DB84079
3D6BB23E
3E2D2A30
3E15C4FD
BE8FFEAB
BD7464DF
3CEB7243
BAA3C92C
3D11EF83
BC8FB7A2
BB3AD5A9
3C1DA600
BD129C75
BCC8E194
3D0DC5E8
3D308036
3CFFB2EA
3CF7EA7B
BDAADA8C
BDCFA7F9
3D324FB7
BD51661C
BC779C24
3DAB2F8E
3D854941
3D987958
BD3A1540
3DB4DB03
BD5EA36C
BC1AC958
3D3E5C2B
BDC376EA
BD525978
BD361CD4
3D953908
3DB23BFB
BD202C10
BCBB1544
BDC8B5BB
BC705BE1
BDC2C786
BE0ED0A7
BD9E6B7F
BE48FDE7
BDFD91DE
BE6AC474
BE2ACE05
BE17AAB1
3E022E3C
3DD7A694
3DD8F586
3C524480
BD8D288F
BD023A93
BE3197AB
BE7ADB66
BE825B2E
BE9B4208
BE01F66F
BE14B836
BD8E09E7
BC36630C
BD2ED225
3D3E12AB
3D9151AD
BDC6B584
BD1017EE
3D8D50D5
3DAD1A26
3D00BF11
3D639FA9
BC1DDB4B
3BF59112
BB89AB80
BE4AA411
BE03080E
BDC54E36
BD622A4C
3D87596C
BDAC0055
3CB5AA36
BE288092
BD3BE0CE
BC232A0C
3AB93A16
BDA139D9
BE36A154
BD8AA4C5
BD960009
BE627F0C
BCC38767
3DED5F05
3D97F03C
BC14B52D
BD0ABA3F
BD831665
BD828233
BBC17E83
3D47A782
3D371CDE
3CBA42DD
3CD3099F
BDC77CFB
BE1A2FC3
3DDC73BA
BD42B27E
3CC70222
BE072B24
BD78458B
3D940160
3D3D7B1E
3DC8B210
3DA1E252
3E129B05
3E19BE71
3E6C5A19
3DA79DE4
3D605ACD
3D356352
BCA774A6
3D833C99
3D571DE3
BD4B2136
3D9782C4
3DBA234C
3D6F3283
3E59FA5B
3DCC5E0C
3C55E50A
3E040B3D
3E216230
3D364D1C
BCBF15B4
BD5EB9F0
BD9A2493
3DD5A923
BD5901CA
BE0D9096
BD5E6249
3CAA1C35
BCDB4880
3DBF600A
3D15FA31
3DCD6A07
3E0F2EC1
3E2B14A2
3DB20193
3CB24D58
3D2523E7
3D2432A5
BDF2403A
BE4F7FFD
BE103E37
BE2C13CE
BCC69127
3D9B76A7
3D77B3AE
3DFC407F
3DF65D9B
BC2CF098
BD0D0CC9
BDFC3FCA
3D51B0EA
3C3F92FF
BCFB77B0
3DDFCC10
BE432B45
BE457ECA
BCFB321F
BCF27D60
3D259B2A
3D251C56
3E471301
BDB05C6B
BD4B44E4
BE80F8CF
BBC8DE4A
3E036B57
3DA17357
3D8635F4
BC190285
BE790844
BDD63694
BDAE890F
BD136FD1
3D71F8C6
3DDA0DD4
3D50C77B
BEA21A3B
BE4167CB
3DB6E028
3C3A75BE
3E171A0E
3E80696A
3DE41C90
BDB3341F
BD7CD823
BD42154F
BD11E179
BC4DE71F
BCF2C75B
BE411C5D
BE9F7BD0
BE8A52D5
BC211C13
3E120DC0
3DFDC840
3E201A62
3D8C94CF
BC7CE491
BDD9E9E5
BCB15F55
3D66B35B
BD68303C
BD61B6AB
BE768CD3
BEC547CB
BE8F4E5F
BD0C3C7D
3E4930F3
3DC0640A
3E8ED42F
3DBFE367
BD30BC74
BBC0861F
BDE6BA4E
BDCE90BD
BD4C959B
BDF367BF
3CCF69B6
BE91C103
BE9A777A
BE04304E
3D8514DE
3E7F0C06
3D927400
3D1E440F
BD97C3DD
BD284EFE
BDE8F61D
BC134F0A
BD50F249
BE916140
3CD91F7B
BDAE4928
BD66C97E
3BABD89E
BC21ECD8
BE44D24B
BE592629
BE426243
BEA2C85A
BDF696ED
BE3C127E
BEDDFA4F
BE836B6E
BE7A8C99
BD1CF239
BD1797AB
3DC46C87
BB1C471D
3D88AC8B
3D3AE772
BE01FE45
BE25D2E6
BE4EC95A
BE956331
BEC4854C
BE988BB4
BE25003E
BE306C62
BD02EAFC
BDE4B56D
BC9A3014
BB000D00
BDAD0470
BE0E12A0
3D32859E
3D76DD30
3E362C34
3DA75FBD
BD8A7BD9
BC8DC05B
3DC09D2C
3D632D8A
BDBFE95E
3E2ACBF0
3D8C65F4
BB3ECB10
BD202269
3D5F1356
3E29A7F5
BD0E40CA
3D8CC136
3E0AAABE
3D1AC0CC
3AA44920
3C194A76
3D9AB3B0
BDF3A249
3CA5AE40
3D8BBC00
BE152760
BE43FC29
BE0C8897
3DA7709A
BD30D356
BCB774A1
BCB47283
BE0F8986
BD9FC415
BD33688A
3DBB72F4
BDA811DE
3DF2814F
BD703A34
BE5230E8
BEA93B05
BEB72591
BDDEE172
3D8312DA
BBDED8C8
BE525448
BEE2D14F
BEAB6672
BDE48EFF
BE81A0A8
BD5797EE
3DD9A553
BDAFB56E
BD814DDF
BDF071B2
BD8FFC96
BDF6A77F
3C114959
BD983213
BD47A421
BD80D939
BE92ABDD
BE38125E
BDC604C8
3DAA6390
3E457C19
BD84D971
BD5C8126
BE2A3ED3
BDE6D2DE
BE00DDBA
BDB6D775
BDD8F121
BDD0066B
BE2CF976
BF03AC19
BE571354
BB266A25
3CA6FC46
3BD9FF1E
BD3F1D13
BE8CB322
BE81AAED
BEA96041
BE41B938
BE00442D
BD945784
BD1B50BA
BDB95B13
BEE1570F
BEB1440D
BDF0AA71
3E2CCFB5
3DA6AA7F
BDDFCA85
BE85AADD
BEF23817
BE822C73
BEA9E7F5
BE85160D
BE1DD78F
3DCD5A83
BE5735F6
BE4CACED
BDD80B70
BDC03A20
3E2C4C6F
3DA21847
BCFB91EA
BC498E96
BEACC230
BEC99F80
BEFDE614
BEEF8948
BE3D93D6
BD213427
BB8D3BE7
3D8C62C5
BDC9CA02
B89095DB
3DA014F1
BCD00994
3CAB9FCA
BD6E0E86
BD589C82
BE0F580E
BEA4D736
BD41D8B2
3CF5CF96
3DD6B349
3D397E63
3D8AAFD1
3D56920D
3D985A7E
BB9913B8
BD4B0E70
BE4C334F
BC849047
3C176DF3
3C2D7A2F
BDB7459D
3C1B96E6
BD85FAF5
BD2BB132
3D7A9228
BBF2011B
BDBD5DE5
3CEAFBA3
3DCFA789
BCAC70E2
BD49BAA5
BD703207
3DE58B03
3E0B2A0D
BD1550C8
3B4BC385
BDDEA94C
BD92FA4A
BD897055
BD11FF0F
BD927CC5
BE12BD99
3C9BB41A
3D7ED66C
3D99D9FC
3E1CA57E
3E00E1D3
3D039C3D
3D4DAFAE
3DA342C2
3DA9DF4E
3CC42F43
BD8805BF
BC6A917C
BBE1290B
BE1E9824
BE134769
BE445BC8
BD3CD8F8
BDD8102D
BD205084
3D4A20F2
BD4401A9
BCF7CA71
BC3F49C8
BD92CCE1
BE445451
BEB2A5E6
BE6FB7AA
BE08507E
