BE8801E7
BE4F86C0
BDD4B142
3D00090E
BD4E22A3
3CFE65E6
3D422EB3
BD96FA17
BCE42CF9
BD963F22
BE21F147
BE2C34B0
BE5CFCB1
BE50191A
BE76DC34
BD1E1C0C
3D408E2D
3E68EE67
3D8903FC
3E879913
3E95700A
3E8C3975
3E07B7A0
BEB6F346
BEA79201
BEC79769
BEB6A88F
3D6474BA
BE0332DF
3C643790
3D30D55C
3E6A3A69
3EAB0254
3E1AD63B
3DA13DC9
3D377E8E
BD47E2C4
BC04A691
BD443517
BEFCBE3B
BEC766E8
BDF05FC7
BDC98E89
BAB4CAB9
3D2F98E0
3E382664
3EA0AFD7
3E30F23F
3D076445
3E043288
3DBCF278
BD67E844
BE25C43D
BEC7A943
BE0E6490
BDD33F0E
3BD72DB1
BDFD99B5
BD710224
3E4DAD1D
3E1C9D57
3E31A0A1
3D2077F1
3D7AF422
3CDFCB3F
3D811F1B
BD53A401
BE8542A3
3D654C58
BD4615D4
BE2A1A00
BCA6229D
3DAF3EEB
3E4B0BBF
3E901D68
3E2C7C06
3D892174
3D8497AC
3CB9E03A
3DA5B1D4
BD887E7B
3C103BEA
3CDD7AB8
3E023774
BDA8D5EE
3D879B64
BB26366D
3C0F1102
3E3C193D
3E348BCF
3D956DC0
BD519EAF
3CDF9106
BCA64D8E
3D6313EF
3E1E31CE
3E2C3221
3E643E9A
BD59A6CA
BE49A45A
BE0CF0E6
BE83CDD6
BE02F85A
BD9C7DE7
BE1F6D08
BE05201C
BD9AEA0D
BC24BE23
3C27B01A
3D25A893
3EBF2498
3EA85B43
BC4E42B9
BD4C06F3
BD126B60
BDB3DDF4
BD4D7477
3C816018
3DA8C9A0
BD82A263
BCD32739
BC2865E0
BD25DD3A
3DE63EA4
3EA206F9
3E3511CB
3D938570
BD49FE14
BD055623
BC3029F3
BCFF3B7F
3D31F02C
3DB05F7D
3DD29F74
3CBAFE59
BD7A0A05
3E16B590
3E53A2AB
3E32C8BA
3E1B5DDB
3E073B4C
3DF4BC89
3D75E3F5
3D93C963
3DF0AAB2
3D2FDB34
BB0B7434
BD4D08CA
3A982340
3D96DAD3
3E581D70
3DADAFBB
3CDB78A3
BD3AFB1D
3E0C6DEB
3DAE3DE4
3E05A76C
3D1114B6
3CB6CEC3
3E0CE6BE
3D10BABE
3D8B9103
3D964FDC
3D6206DA
3DE95630
BCB89359
BDCB9BA5
3D5E9AE1
3E2E371A
BD6C6243
BDB0E7E9
3D071288
3CEF16CA
3D3C8D73
3D0957F2
3DD759A4
3E3EDFA5
3E1A0698
3C042A5B
BE384664
BE3C5309
BDEFCDED
BE921140
BE18F5DF
BDBCEE6D
BDE5D8B7
BE5665FA
BE479126
BD1463CF
BDA110FC
3BDE571B
BE2B61CF
BDF1D09D
BE84E35E
BE34CA2E
BE5F7DE2
BC816B44
3DEB59E2
3E1405EC
3E365E87
3DD2C572
3DC02A05
3CA43FF5
BD8808E4
BE14F862
BD29026A
3DF06AD0
BDE5BC3A
3D792AF5
BC4092E4
3D782F66
BDFBFC18
BCBA49F2
BD2545FD
BC16929F
BDF0C98A
BD8866CF
BE28CA96
BE772C88
BE6B9195
BDB21CBC
BE307925
BC8B81DE
3DBECBED
3C47FD48
BDFF5A93
BD4A3ECD
BDA0EF98
BDBC020E
BD96781D
BD1EAAB9
BDB3DF92
BE63C8A9
BE3DF606
BD8477A8
BC738254
3E66E7C7
BD090E28
3C8A3ED1
BDA4017D
BE2BBD95
BD8814B3
BD6700CF
BD3892AD
3CE02368
3D628D02
3E0F70A9
3E39A2B2
3D80AD05
3DB88F4A
3D9742DB
BD5E2084
BC7533ED
BD94016F
BE6F77D9
BE478389
BE2790DF
BE3B7F8B
3BFACE0E
3E69011E
3E4BE20C
3E55212A
3E351DD4
3E363172
3D94B9F1
BCF99251
BE168570
BE85E1CC
BE7E2B4D
BE9918E1
BE8564F7
BD59D4A6
3C337E07
3CB8D60F
3E60E321
3E48D9DF
3E1D28BB
3E0C14BC
BD8AB378
BE263CF3
BDBCFE9C
BE1DCF42
BE31A303
BE49A9B4
BE2AC405
BE083307
BD401C8F
3CF550CC
3DE393A6
3DCD4932
3D9FA40F
3A425B2A
BE40C7B3
BE860850
BD35DF83
BE21D52E
BD70369A
BBD6C305
BD522A20
BD66A5DA
BE08FA3E
BD67DD15
3D19FE4E
BE5D7241
BEA9C07E
BE8F9FFD
BE0D2483
BE83F40E
3D5875CC
3C4A9435
BCA1E5B7
BC4D770C
3CA6095B
BD129415
BD95936B
3C6DCF5B
BEAAB700
BEA88E03
BE1B365E
BE2E918D
BA8FE416
BE150E31
3DF39879
3E0060D9
3D90D8F5
3DB2124A
3D01450F
BCD2EB7D
BDB9FEE4
BE63C2B1
BEA5597C
BE1932BB
BE40DD6E
3DDCAD6C
BD6EA7E2
BE0C2653
3CF325E6
BD090BA8
3D551092
3E2AA763
3D9E5EAD
BD600E9E
BE5CDBAD
BE4AC1E9
BE80FF06
BE19157D
3EB08789
3E490CCC
BC02AE60
BD47D1B6
3D45FC76
3CFD5D22
BC1509F1
BD99A8F4
BD0B34F9
BD690F0F
BE4E71A2
BDE0B844
BDBFBBE6
BC1C81A1
3E9A86A7
3E4A8D5D
3CC5B2E0
3D0781F1
3D8890B1
BBD497EB
BD53C73B
BDC37BAC
BD5539A8
BD832C54
BE84DAC0
BD88541A
3CDA8F19
BBCADB73
3E8EBC25
3E54AFC5
3E0DE67E
BC52A0A1
BDC56A4A
BE64EAC5
BE314E02
BE5D096E
BD9A6354
BD850EE7
BCE6469D
BD1D3427
BE171CDA
BE460FA4
BD8E8F94
3D014432
3DBD2183
3D5B8C71
BCA3616C
3D44102A
BCA55103
3A62575B
3D94AEDE
3C91672C
3C90D721
3D756A1D
3D0A403E
BC9CB421
BDDAD63F
BDAAF40D
3D235944
3D35CDED
3A6F8774
BD31792F
3CCE2089
BCBF30C3
BC48E24C
3D3E13C1
BCE6DB6C
3D75FB1C
3D062818
BA355A46
BCE30534
BD6178AE
BCFA59F4
BC84D2E6
3D8EF931
3D81FAF8
3CD62034
BCC3A588
3C1B3292
BDA7F9FF
3DA6A234
BD75FB41
BD2E8054
BD237DBB
BD97A762
BDD42710
3CD3F355
BE55C601
3CA4666E
3DB43FEC
BD08DF5F
BE0358ED
BD2FBAA0
BCC1B781
BBEE88F2
3DEE7520
BCFAB751
3D09E6E8
BD26C816
BD052209
BE11199A
BE533E23
BDA524CD
3A83F174
3CB04F5D
BD8B984B
BD0ABB19
3CA9E449
3E057801
3C874E12
BD2C5F4F
3C0AA877
BD3538C2
BDC6D47E
BD33FC92
BE2B3FB4
3CE5689F
BD9A219D
3D65D4A5
3D9DB55F
3E2ECACF
3E62178F
3E0A876C
3DEF1DD6
BD6E0A88
3D27233E
3D7106F1
3D15977D
BD351DC3
BC276C1B
3C509A3B
3DF505F0
3E0E8FA8
3DE95EFB
3DD08694
3DC4DCC3
3DFDBF14
3E1A93DB
3CD515F1
BD972961
BDFE3E7C
BDE4F15B
BD8480A4
3E6F0C3D
3D80C9F2
3E0720B0
3DE545CE
BE4CAA3D
BDBB0FBC
BE51834E
BE077B2F
BC81336D
3B4333C1
3DDB6271
BCF34081
3D46D614
BDE6F7CE
3DA8AF28
3DFB99BB
BD15EB18
BE33CA0D
BEB56863
BE9F374C
BE07B26B
BE153BAD
3CBFB75D
BD658657
3D459DE8
3DB41698
3D048B51
3DD1D3CF
3D5DACCE
3DA7D784
BD54A866
BE872962
BEBD50B4
BEABE8E7
BE479A23
BE297A30
3DF42329
3D810268
3E8C56CD
3E7701E4
3E219BAD
3D101A13
BD994494
BD33BB9F
BD3723E0
BE4EA4CD
BEBF8515
BE7B19EE
BE82F21A
BE5566E4
BD818B33
3E0425CB
3EB2881C
3EACED1C
3EC13C12
3DABE85B
3E213F7E
BD07C875
BDA5B6C6
BE1D73CF
BE1E84AA
BD34FA35
BE8F9629
BE839057
3E2A3C44
3E9650A7
3F155700
3F19A5C0
3EB86A5D
3D322E73
3E1F421A
3E13331A
BD42D425
BD5B32C6
BD601E36
39E58BD4
BE43152A
BE3E68D7
3EB591D0
3F079B61
3ED23F12
3E2522CD
3DA8F002
3E3ABDC9
3D43C1B7
BC000492
3B02B3FE
3D914961
BC1F0D98
BCC408C0
BDC96A50
BD9E60FC
BE5F81F8
BDBC0958
BD41A2DA
BD8CD464
BD14216D
3DC0D146
3C5AA3CA
3C518ADE
BD9071B5
3E281BC6
3E74D8EE
3E982129
3D8B17A7
3E2A145A
3DADAA7C
BDFC433E
BCD9F20F
BD36F565
BE0F3379
BD80BF0B
BD937B3E
BD9E0E2E
BD4F8920
BC3CBD38
3D7F77D2
BBF0E919
BDD20615
BDF868DC
3DEF15F6
BCC97134
3D8A155A
BDB79728
3CEE0817
3D25AE6E
BD90FD32
BDD2D9EE
BD8D0A50
BD1E1F05
BBD7AB2D
BE03700D
BDD634DD
BDE35A04
3BF1BCE0
3E78A937
3DBE425B
BC569FCE
BDCD05C7
3CB0BF68
BE107BF9
BD81CD02
BD6716D5
BDE7FD08
BC1E5923
3D4EB161
BC3BAEF9
3D93B7DF
3DB67108
3C514DF0
BCD842DA
BDC9823A
BEA297CF
BE531063
BE3B048B
BE3B1B24
BDB30AD3
BE221B93
BE235101
3D925631
BE070DF6
3D6304AD
BB9B0998
BBED60A7
3DA17E78
3CC3648F
BDF40B0E
BE281F0C
BE720200
BE29F2DD
BE3DD150
BEC0C358
BDFD0ECF
3D16FAB5
3C47588A
3C97C0D1
3CF2ADBC
3C1CD0D7
3C8B156C
BDCBE814
BE898E80
BE92415A
3D074E46
BE68B0EB
BEA2EA46
BE879FC2
BE2661E2
3D24C284
BC9435A6
3D83E853
3E329705
3DDBE1F8
BAFFF6C5
BE5C7205
BEAC5B4C
BDBCE193
BCEECB1C
BE12B537
BE8DD241
BE0F3967
3DAF6A16
3DA91AD7
3DDFBBCE
BB811121
3D8C1578
3B8A972C
BE1316B4
BE55A27F
BC4ADED7
3DA7C49A
3DB8EA2A
BD6974E6
BD5BABE6
BCB43736
3CDDB701
3E24C352
3DB55BCC
3C8518FC
BE143924
BD104523
BDCB812F
BDA0F4A0
BD584FF0
3E0BF56D
3E9019A8
3D80181E
3CE3AFBE
3E0E7634
3D0C43A3
3CA50BF2
BDE42F51
BBFB8482
BD1BB592
3CF00383
3C88A728
BD874A9D
3E8263FC
3EEEB0E4
3EE318B9
3C72C524
3D6D94A8
3D358A06
3D797991
3D5AE2C3
BDCFE5E7
BDA06DD1
BD52C95B
BC4A9B50
3D9D1F33
3D0E0DFF
3DE286B5
3E6D6509
3E8E6816
3E1A298F
3C2DA78A
3D8C8D4B
3D1AADBC
BDAFDAAD
BE3372AB
BAC5424D
3E05C428
3CC21006
3DC82710
3E3C5924
3E14694A
3D439255
3D68DD35
3D550F85
3BAF9538
3D808A3D
B90F8E9D
BDBAE640
BE0288F2
BD0324A2
3D8EF315
3D9C0F90
3E21102A
3DC1CEEB
BC246C15
BD5255A0
3BE43269
BE9D1E05
BED1FBD0
BE495C69
BD9E4587
3C17AF2D
3E136F7C
3D92F4A0
3DA38B86
3D235739
3D1B1289
3D3D7D29
BD3C90F7
BDC69D97
BE04DB04
