BD57360A
BC2C9D33
3DB063E6
3E09CA7A
3E2E1195
3DA42829
3E4030F1
3DDE2711
3E51F2F8
3DB705C4
3DAA159A
3E30E40F
3E26BCE8
3D6836A7
BD6F2408
3D9E04F7
3DF0FA3C
3DD0EE28
3D6D677C
3DBD614A
BDA1D64E
BDD67D88
BC9E0A2A
3DC18CB7
3D6CB95D
3D246EBE
3C1A24EB
3DC32375
3C9A406B
3DC62FFC
3DCEAB6B
3D7F9DE2
3D46F9DE
BDBB1665
BC3DE636
BCA7FCD7
BCBB54EB
BCC4E39E
BDAB97EA
BBB85EC5
BDFD1D40
BD760948
BA43C0A3
BD769F84
BC84E261
BE1178AF
BDE1AAA7
BD4AEBDF
BD791647
B8B66A04
BB94467C
BE040513
BD9EE6A1
BE10ADBD
BDF4ED1D
BEA0DB3B
BE0D6257
BE4F6487
BDDB091D
BD9A3A1F
BD2DF242
BD0D4300
BD04FD88
3D42ECBB
3DD6AD02
3E05A399
3DAEF6E5
BD9A1509
BE307B72
BD1EEDFD
BE266D00
BE33234B
BD09E8A7
BAE393C3
BD95F7D4
3DA4B9B4
3DCACC5D
3E454A16
3DEB14A1
3E0A1026
3DAF2C0D
BDAABA5F
BCD862D3
3D7F4BCE
BE16BB39
3D4B61BC
BD8F0D70
BD4CA19E
BD851EE8
BD400B32
3DD291D0
3DEA27EC
3DE8CA33
3E21D4DB
3C2C6A46
3BC31B79
3DF1B0F7
BDF587FB
BE31D63D
3D7C373C
BC4037E8
BD664BC5
3DB473E7
3DCFED69
3DA64F14
3DD532DB
3E16C336
3DCD7774
3D98F67C
3D3D6008
3D9594AC
BD8F0F28
BEAAD425
3D252F00
3DE299CE
BDF5D3D2
BD9B8434
BCCBA207
BD055F86
BDBC8B3A
3A8A996E
3DBB6391
BD334D99
3CF0A77D
BCAD5FC6
BDCA7C67
BE3FF94B
BC25382B
BCEBA7CC
BE3B7E69
BE095A01
BDEFE1D7
BE22EC18
BB92C4D0
BBDFD9F9
3D47FDE3
3D0E7A95
3E0901D1
3E233BF5
BE01427A
3B0158A2
BE080D25
BE4231CB
BE69FBBB
BD8CE165
BDB87FF0
BE20D010
BE01E51E
BE041AAF
BC02ECBB
3E465C8E
3E137C62
BDB467D5
BE3211DF
BD74971E
BEA6A3C0
BE33A9CA
BDB48EB8
BE622B24
BE524092
BE2E5E7D
BE0F24E8
BDF158BE
3E9DA670
3E457C78
3C438784
BD41FD5A
3DB43718
BD2F2E2E
BEB7DAD2
BE25ACD1
BEC8397B
BF01613C
BEBF3EA7
BD36992D
3D798934
BD81D120
3D360CBC
BDC17ABF
BD445DD0
3D6BC36F
BE459CC5
BD9812DA
BD397C91
BE884E57
BDC5E6F5
BE9D38B0
BEF0E7B8
BE076AA2
BE30A3D4
BE433D95
BDAF138E
BE5E0DF8
3E2E6147
BE08058E
BE88258E
3DDEA97E
3E6A9485
3DF04D06
3D495FEB
3E40D2D0
3E9BE2A2
3E0E921F
3E677D94
3EA18D6A
3EEF71CC
3E82E23F
BC77BCE8
3EA236F7
3E11DAEB
3E2CB6DD
3DB52C74
3D0CD882
3DE02FA1
BC3B7AF1
3DABB6C0
3E6BBCB1
3E4BD06B
3E4DA25D
3E0E42A3
BD4372DB
3DE87DD6
3C0EA339
BD47CADB
3E3E915A
3C775665
BC75E8BA
3E044477
BDC7D658
BD1CE874
3D5AE1E8
3DA15509
3E205978
3BDC9FFC
BE81756D
BE0748A4
BE247715
BCBAB5FC
3DFA7E57
BD5AE6F7
BCD1FB61
BBD34E84
BD8F3C31
3B8D3FE6
3D8504E3
BE2DC1E2
BE308352
BD9BCEEE
BE2920F7
BD2177F2
3E16E36B
BD6FE90B
3E06AEEA
BD81B529
3CADC94E
B7B22698
BD162616
BE36D979
BE7099F0
BE8218DE
BE4BFBB1
BE83F5A8
BE48545A
BD5EA7D6
3D8E5A1F
BDA88C7D
3D9289BF
BCBE25E4
3D20F298
3C4C5376
BCA03148
BDC83222
BE6F206C
BE886206
BEDC2523
BE465F0F
BE16C545
BDD2FECF
3D0C1DCE
3D16F524
BE10700F
3D2F77D8
BC75071E
3D068F77
3E00B2DB
BE42197A
BE794251
BE3BFE59
BE9494B8
BDCF28B6
BC2FF498
BDB9F1C7
BE4B1273
BC60730E
BDFB3739
3E1BB425
3DD254D4
3D8EB59E
3E12977B
3D1B34FB
BDB5C1CB
3C113DB4
BCEB9694
BD92BED8
3D23822F
BDBF1E1A
BDE06998
BE39A3C9
BE338829
3DAD5B5D
3D50860D
BB9A8096
3DB717BE
3DA6FCB7
BDB55CB9
BC0F34B3
3D64E251
3D73FC4A
3CC69547
BD05D395
BDD5F8E2
BDDC09AD
BCA35BFC
3D7A8B89
3D719A10
3D4369BF
3E42D5CD
3E43DF95
3DA15125
3DD40F1C
3B5D3C6F
BDC9577A
BE3F2758
3D58C1AD
3D475827
3C8B0E00
3D0A68FA
BDBCE481
BD583035
3CB73C97
3E0F1652
3DFB4CE3
3C8F0E19
BDD5C90F
BD803007
BDDC2339
BE032CB8
BD1B750C
3BA24E23
BE121A4B
BDB1E1CE
BE279D4E
3D6E8FCA
3DB5936A
3C3525A8
3E0105B6
3D0C0510
BD652232
3D5AEC78
BC157D62
BDF43F90
BE692198
BBE3DDA0
BE175B6D
BE33D2BB
BE34371F
BC11EE7B
3B24161B
3D572E0C
BD64B3FA
BDC32E99
3BE41A82
BDA92936
BD07589E
BD9821B9
BE6621F0
BE9E01F2
BE07B2DB
BD33D3AA
BE948669
BCA9CFB6
BE093A0C
3CBFC219
BD8392A6
BD44C7DE
3B3785CF
BC1A0213
3CD22E5D
3BA93C92
BE431270
BE75444B
3C8A6B57
BC51F1AD
3D1C015A
3E1CB2BC
3E12C2A5
3E1DC320
3E4400E3
3BCDE36B
3E2DA5E9
BCBD036A
3CC36D08
3CF55A53
3E9636BF
3E3E2D44
BD873BB7
BCA99AC9
3D9C56DC
3D82A8D1
3E3917D5
3CE9C8CE
3E717D78
3D121AC8
BD1D7311
3CA1F4A2
BCC93253
3C93139F
BC210A97
BC1BCD03
3C8BB6B0
3DD0F917
BE617A19
3E1C56E2
3DE7C54C
3DFDB413
3E89A007
3E553704
3D4011CB
3CB4A398
BE00A262
BDC8BC54
BDB26825
BCB82B70
BD75AE70
BC242955
BDD8BBDD
3DB5532B
3E52A538
3E60F710
3E7C0FB5
3E82C4FC
3CFD9AAC
BDB46FB5
BE026190
BE1808FF
BC99CA53
BD1FAA47
BD2DEE5D
BDD61C9E
BD8395F3
3E421E86
3E4D27E7
3E5AD9A7
3E131474
3D9782BE
3E2B5A24
BCAF1DD1
BE17159C
BE32409E
3D0D7573
BDBDBEC2
BCF304F6
BE8723D6
BE16A0BD
3E23193F
3E12B7CB
3E1CE216
3E2EF56B
3DE3B1A0
BC22371A
3CCB628C
BE0FA670
BE6F83EA
BDF0AB43
BE003564
BD4AC703
BE43CB64
3CAA5129
BE258780
3EA0D390
3E18EF02
3D9D55F0
3D59B595
3D566E48
BDFB75E7
BD86741D
BDDCCCF6
BD6D84CC
3D4BD3A9
BD827434
BE149D6C
3D84C7F1
BEB79661
3E851DBB
3E0C4D58
BC9691B3
3DEA8065
3B5F02CF
BE6C49EC
BDB34E55
BC1366EB
3D79F4AB
3C191DAA
3D2ACBDB
3C6F8915
BE7B38C4
BE06CD44
3DC3CBC3
BC76195B
3D391834
3D0160C3
3D0EF537
BD290431
3DEAFB95
BB854580
3CE8A78D
3DA9A110
BCF89A43
3DA6FEBA
BE475CDE
BDC04D44
BE37B381
BB9AAF77
3C5ED545
3D92D487
3D745320
BC7EA761
3DF437EB
3DCC6F8D
3DBF8FF8
3DB34B9D
3D2CBB64
BE08FE31
BE0F341C
BC219AA1
3DF6D4C7
BE0F424B
BE11B680
BE5A5647
BC325916
3E22486C
BC1D2DFF
BD320272
BB8F9ED9
3D1DE970
BBFC1FFA
BD158423
BE138A91
BD451659
BE0619F1
BD06A5CC
BD948DB7
3B908310
BCB801D6
3E12B5F1
BBAA684A
BD80E5A2
BD1F526E
BC58106A
BD3626CF
3BAE1A87
BE401C32
BE312027
BDF85539
BDCF6937
3D2CBBB9
BD503328
3BBF98CF
3BF668DB
BE02A0FB
3CB987EA
3C95C280
BD87BD93
BE6859BE
3D78DCA4
3C1B9F87
BE1FEEDA
BE8652F0
BD46B9AB
BD3F02D9
BD9F27F1
BD6A2DDC
3D3B93DD
3C3D4FD9
BDCDE70A
3CBEBB69
BE559FF7
BEA454EB
3DD2BCE1
3E32712D
BC611512
3CEA6B35
BDA53BA9
BE0F38DA
BBB6EA76
BD9892BC
3929EBB8
3E0FA707
3E1352DA
3E55E437
3D903465
3CCEB1BC
3D3EC961
3D27C7F5
3CA2872F
BD5C9F6A
BE1BAC60
BEBD6012
BEBCA37A
BE031A6A
3C8CE879
BDA1C1AC
BD3EB96F
BC806766
BD65C60A
3DA0EC6A
BCA5C3C6
BE00C9CD
BE88B8AB
BE95B06B
BE7C55A3
BED0AB61
BECF783C
BECD3620
BE1EDE20
3D1661E7
BD5EA7A2
BE01E893
BDC00518
BDD1574F
3CB9F4A6
BD0E4A0F
BE46249F
BE84C60A
BEE28807
BF0AF489
BEB3E2C1
BE050B3F
BE405792
BC733DD5
3D8F1B0D
3E2B76CF
3E022121
BDED148F
3C6FEB78
BE624B1D
BE153D9E
BECEDE4F
BF192DB4
BE987B18
BE9F62CB
BCE174CA
3D8B524A
3E9B1B8B
3E6E74B2
3EC1DD0E
3E565307
3DD3B84C
3D93877D
BE194F76
BEB6C45B
BF164127
BF37F058
BF160C0B
BE20E481
BC11E229
3E338817
3E935BAF
3E747C3A
3E5190DB
3E0294B7
BD8A688F
3D173042
BE55E357
BED0C71E
BF335A1C
BF55CA19
BF085617
BE65D874
BC2EE366
3E78A245
3E611732
3D3879FF
BDA1B295
BEDCCE06
BEBAA8E4
BDAB2F43
BE2796E6
BE8458B1
BF062F2D
BF296F49
BECDC121
BE9F4D26
BDA34E34
3E02CF91
3D24AB7C
BE6E57B2
BED4F4BC
BECB4A14
BDF5A75B
BBAC6E1C
3D520CA2
BE70137D
BF05D771
BF1A2F3B
BEAB11B0
BE3F7330
BD50A008
BD2EED3F
BE52B4DF
BEB42C8B
BE8BC69B
BD587DD8
BCB82642
BE28AF60
3D79C047
BE04AC16
BE6E8DF6
BEBE7B1C
BE8ADE97
BDA67828
3D484E88
3DFBCA37
3C8FF6FA
BE247BFB
BBF8F92B
3BE20875
BCEF8B91
BD510486
BD87C672
BDA4E4F1
BE09A5E4
BE3FBDED
BDCB3CCA
3C472E25
3D833FAA
3E8190A0
3CB03227
3CB09B16
3918A111
BC0A4A8F
BCA515F5
BD5CD119
BE010D5A
3D85BFEA
3D4CC30B
3DC08E86
3D02BED6
3DD7013B
3D8432A5
3D7EECAA
3DDBB7BC
3DAF286B
BDCEA135
BB77FB40
3C9BA6CD
3D2077A0
BE80AE60
BDA914D9
3D59536F
3E046380
3E1670D4
3D956AA6
3D995FFD
3C7C6AFB
3D1E6A38
3D397C74
BD40F34B
BE0A7933
BDF94EEB
BD526EC0
BDE3E2B0
BE0C4C33
BDB4EC7F
BE1E1561
BDAFE57F
3D089B0B
3D47EB41
3C72506D
BCDD7FA3
BDD02A7E
3D0F555A
BE4EB103
BC83F5F4
