BD4ECD71
BB1AF9A0
BDEF5195
BE515206
BDD25A83
BD0AC929
BC1DC42B
3C232CA1
BC68FFEE
3E4EEE70
3D25A713
BCA4F11E
3C9E16F9
3C960FEF
BB5A17A4
BDE01BDC
BE8BB824
BE512C8C
3D89774F
3E31F6D7
3D2BA470
3E56777C
3DDDB61E
3B4B6E16
BD4046B0
BD80947C
BD844A38
BDC65C5F
3C87BD4B
BE518999
BDC3540C
3CDB5C55
3CFACC21
3C368F2F
3CC70D73
3D890837
3DCC9C6D
3DB56D4A
3DE3A57D
3DC57AD0
3DA04D79
3D98D631
BDEC5CB4
BDB4F887
3CCE1CF3
3E03E173
3DCD0EA6
3DD6706D
3D9BE646
3C89C167
3DAA8E8A
BD3C701D
3D579D27
3B9E32D0
3DB3D217
3B6D9485
BC30A98D
3DC06A08
3AEAD039
3D2971A5
3E083611
3E052ECF
BD290FE2
BD39B6A7
3D5ADDFA
3E1D9AF0
3DA32591
3E3878E9
BD32E8D5
3DCC443B
3E1961EC
BCA8965D
3D934173
3D1B07D3
BDB13DF2
BC45065C
BD7B733A
BE28D05D
3DAD6A3C
3E3EA5D6
3DE67E6D
3E0204DB
BCA7F3D3
BE97EE9E
3DA6091A
BD395A21
3BA098F0
BCCB5C84
BE039424
BD30F664
3D5EB20E
BD143944
3D9C3407
3E54CB95
3E52865C
3E33EFBA
3CC356A1
BD62FF48
BDEFF780
3BA050E1
3D22F5D4
3D399C5E
3E64A0BD
3D405FB1
3E275B52
BC78AEC9
3D8ED7D9
3E2AC640
3E31ADD9
3E0DC1FE
3D2DA428
3E4A1F16
BEBCCE86
3E2117A5
3E93144A
3E07FB28
3E1E35CA
3E5DA396
3E69628E
3C05D167
BC872EF8
3DA527B4
3E2B782C
3D8677E0
3E09D60B
3DCAB9F1
BD99284B
3E01A687
3D24A5B7
3DB8B2C3
BC4DDC69
3DC3FB24
3D187E3C
3D487556
3D9A7DF4
3D0B10E3
BCE6FC5D
3D896715
BD96B7DA
BE2C0A63
BCCD2A71
BE2178AA
BE08DF98
BC8D2748
BD86C3D9
BE045F99
3CF8862E
3DFFD863
3E2114A7
BADCBDA4
3CA335DC
3C0C8FCB
BD22102F
BE8C732F
3D929AD3
BCDC7BE8
BE4D84CD
BE453129
BEBAF629
BE4EE6D0
BD3C6180
3C84BFB4
3E36AE45
3D799A2B
3D61C9ED
3CA9FB01
BE59A98F
BD895C11
BE2B5B22
BE315348
BE078EA5
BD7E2A0A
BDE41711
BEB6DC0E
BE05508E
BE8A1C20
3DAEDF61
3BBCA1D5
BE3A6AB1
BDD1DC25
BDEC69F3
BCCEC4B8
BECC1A80
BEDDDB0C
BE8DF0A0
BEAA1C29
BEBB22EE
BE16F57C
BD36E3FB
3E15FFC5
3D512CB1
BDB53B51
BDF3CA04
3DEAB3D3
3DE02C10
3DB371FD
BE4AD1B1
BE05F139
BD86D814
BC949FB4
BCF69280
BC9E90B0
3DF1C633
3D96DA20
BE513E24
BD293646
BE21A993
BDF0B04D
BCA38A6E
BE66A446
BE0C8A98
BDFDD449
BC20611D
BD59A0E7
3CAFD9D1
3E10C1F1
BDC1A74C
3E2CA5DB
3D82085E
BD973D7F
BE341F1E
BDD2697F
3C555420
BE0C30BC
3CE45A59
BDC2BD0A
3D56691A
3CA303BF
BCBC012F
3C2BC0C9
BDDF956C
BE96026D
BE5D7EC3
BE321885
BDC7BB43
BD8C12F2
3D229156
BDDCC4B5
3D21A3E4
39FFB6D2
3D4F67B0
3DEDA017
3DA2615D
BDC65058
BE381C66
BDC8F1FC
BDDE1F0B
3DDE5E2A
3D93A43A
3E6F657E
3CF165CC
3DEE5592
3E38154E
3DD1C7AA
3E04E4D1
3DCD178B
3D96D6CD
BC6E4A17
BD16A6FD
BD2203CF
3D16E464
3DAD4B3A
3E235E7E
3E9F7869
3E2D16CB
3E1D7472
3E0F8FB3
3DD4CF3B
3D90F5EE
3E15FC18
3E114C7D
3DD8DBFB
3D98FF4A
BD8E287A
BC3FDDEF
BD0BC2AC
3DCA698A
3CFE8767
BD31CAF9
3D148591
3DD9191C
3E21CE8A
3E602493
3DB66D8D
3D210C22
3E367D14
3D951B1A
BDCE50E9
BE7439F3
BED58A7A
BD81255C
BDFC394D
BE5FA942
BDD405AB
3C573EE8
3E4E1BC1
3E0D4E46
3D9429A2
3E281736
3E5026AB
BD065A10
BD64E336
BD694C84
BE1B24A0
BD8FDF80
3B8CEF3D
BDFB9EC8
BE0EABAF
BDAE02E9
3E219E7E
3DA4C8D6
3D12572E
3D73F40D
3CDA01B7
3C8A948C
BD437B06
3D20F63C
3DCF84CF
3E3460D4
3E2F892B
BCDDE3FB
BC040265
BE1B1C78
3E038818
3D1E40C4
BD67E40B
3DD532DA
BC173B06
3CD9F87C
3CC27005
3E4C59C6
3E77A6F8
3EA1C1EA
3BC8A68D
BE6C42D0
BD1DC412
3D6F6215
3D58257B
3D979D00
3D134427
BD002CB2
BA487D98
BD3B6E8C
3CA565F4
BDE9D4F1
BCCC4CA3
BDB97741
BD47B66C
BC4D78D6
3D565D63
BD8BF61D
3D63E065
3D9E6A6D
BC898580
BD128375
3CA347C6
3C382BEE
3E12CD30
3DF04AE4
BE02E965
BE11834F
BE3F92A3
BE0876FA
BD3F4005
BE2D131D
3DB5DBE0
BD9BC84D
BD1C6995
BC9FE232
BCCC3D3C
3E0C8BA9
3C8A9B12
3D33908C
BCB66E93
3DA78ECF
BCC86BFD
BDE8E8E4
BEB39EA3
3D32F000
BC836916
3C108067
BCEBD104
3DA2F782
BC2DF496
BD382B69
BD8BE50B
BD594403
3D194162
BD608B34
BBD951CF
BE85EF15
BE996339
3CE316D8
3D092567
3DD33382
BC96F9C5
BCDCC3EA
BD19977A
3D9E5DA4
3E0428C8
3E10A75E
3DBF5FD1
BD62E9A1
BDA46216
BDB142A7
3CD6920E
3D23917A
BA3ED283
BE8A1721
BE89DE44
BE802530
BE9B5A0F
BDA6EA37
3E391FC2
3CB2078D
3D81D9DE
3D1E451B
3D2C8E29
3CD7CEF5
BD89D371
BD845CE2
BE51712B
BE22D3D9
BED4F300
3D8A6ABA
BCCD949B
BE25BA4B
BD7B30BE
BDB3F416
BAE309A7
3DA47728
3D35633B
3DBE72B9
3DAA8243
BC23D40F
BCD125D9
BE9E7D6B
BD04D94E
BBD9DB80
3D2E95F0
3C810BBD
BE5282C8
BE13BB37
BC74A6BE
3DCC60C9
3D8F9ACC
3DE30B9A
3D64C30E
3E1AB5BF
BCDF0C10
BE4583A6
3DD9DB46
3C4B46B1
BC89E11C
BDEBC5F0
BD972DEA
BDBB290B
3D0C7633
3C1943F0
3DA3F10D
3E1E9C6C
3E3499C5
3DD072C0
BDB95CAC
BE303DD9
BDB9D7CD
BD790545
BD00E52F
BD65007C
BD1DB2F3
BCE2E75F
BC9BC023
BDEA56DB
BD426A2B
BC9A16A8
3C74D683
3BD5D015
BE4F0754
BED0D8A8
BEBD3563
BECA9689
BE0D67FC
BDA1C885
3D110178
BD47EE83
BCAC72D7
BD6C242A
3B958472
BC92EEDD
3E3B09BB
BE35189C
BD3B4345
BEBE0618
BF09B417
BF191580
BE4757E5
BC51623B
3DA0AA1C
3D58B2EC
BCB775BB
BD8FC02C
BD98CB92
BD9ED6AB
3D94E394
3CF2172D
BE5819D7
BEC47528
BE0CAE96
3CCB2CC9
BD127359
BD41D262
BDC5EE4E
BD1224D2
BC6122FD
BCD49AD3
BDD6C6D4
BC663080
BBE18A3B
BD8CB502
BE1D0FD8
BE40A8B3
3DBE2559
3E3289E0
3DF14396
3D3E234A
3C9DA772
BC209DA6
3CE76730
BD009E0F
BD83334B
3CA18BE9
BDEB844E
BEA0A1DB
3B5D660B
BEAD9B5A
BCE77894
BDCA38E2
BD448C11
BE356D7E
3D3821DF
BD849291
3BC6BAB7
3D3D74EE
3CEEC7B4
BDAE8075
BD782877
BDC9EB71
BE11E4D0
BE90C59C
BE863BB5
BE878401
BE81EBB4
BE5A3E5F
BE173962
BCC81FF0
BDFDCA90
3D4D9EF1
3D41C186
3D5C447E
3D131F44
BE67489F
BEB3ABC1
BDD517C9
BE567D04
BE72C191
BCF74874
3C2CA965
BDC9159F
3C3E9116
BD76F18A
BD1E6F0F
3D283C4F
3D3F7648
3DA55715
BDAF21CC
3E0271EB
BE0A5EF5
BDF63A71
BDD3C627
3D8CDC73
3B9329DF
3CCA8B86
BCF6326A
3D7CE5F9
3DA93B80
BB180CBA
BD98EC77
3D0114E4
BC21C352
BDC05128
BCE92077
BD1D5AE7
BA490BC4
3E37E1A9
3D96F245
3E276F6D
BB110F93
3D1A63D6
BE2A43B7
BE409DCA
BE2E8408
3C881516
BD84B1EB
BE5B1F1F
BE1FDD64
BDCD5A1A
BCEE35C7
BC5F40C7
3B8276F3
3C14CEAF
3B1A68F7
3CD939E5
BDCBA351
BCA02415
BDE94D60
BDFD731B
BDBFDF48
BDAF44EC
BDC1463F
3D0A1E6D
BD7E5E8E
BD8A48F4
3DF2C363
BB8E0A94
BC5707A3
3DC6333F
3DCD9C7A
3DBE2764
3B242D08
BD9AC146
BDE36DCF
BE0CDFBF
BD6F30FE
BC2A8244
BD7B38F7
3CC29924
3C2980DA
BC7274C2
BD109899
3D1E3BD5
3E08905D
3DAF0AE7
3D684115
BD3E5C49
BE3F1FEF
BCD0811D
BE018D50
BE4E77D7
BE6D0B79
BD7F8EB4
3C23F99A
BC26B3B1
BD24A031
BDF1C543
3CB5503E
BDF811DA
BE2AA122
BAE114E5
BC6DBE15
3D8F83FA
BE725364
BE6DF6FF
BE59A3D6
BE1B746C
3BF95384
BD7178EC
BC74261E
BC113E4C
BB5A240D
BE4713C2
BE30ED47
BE6DE61A
3D5A507F
BC9227ED
BD2905C7
BE112E34
BE14FE0C
BDA5F164
BD969930
BC46CEB4
BDFA6438
BD07A720
3D824A38
3DC28E29
3C773568
BDD396F4
3CF1EC43
3DA96A59
3D9C535E
BC43927F
BD10141B
BE3616C1
BE58A852
BC0DC612
BC5A827C
3DCCC20E
3E817A99
3E0AEE31
3E132D50
3D832F57
BDFFEE37
3D8819F4
3CC0B562
3D016D65
BE27B33E
BEA39F04
BE416B40
BDC4718F
BD27E094
3CF9D066
3DEC520E
3D96519D
3D4A5250
BD631AB5
BE183DF0
BD891B83
BE1F52D1
BE81B5B0
BE6F323D
BE9ED188
BE1E5C99
BD9321EF
BBF01BE0
BD291A66
BD55EA85
BE7D265F
BEFA7543
BEA73F9A
BE1C40EA
BE58F3E6
BED07D9C
BEB201C3
BEC5A6D4
BE53669C
BDD9C0EF
BDA02816
BE14EAE3
BE65B185
BEDAAED2
BEBCE045
BE588FB8
BE216CCB
BE2BCBD6
3CDE84E4
BE2A8625
BE7BFE31
BE5433FB
3D527722
BCE5BDB9
3D04ADDD
BDB256DD
BDA1BE8B
BE3F7A80
BE5A125B
BDC50268
BDB005E7
BE3B53B5
3D81CA9E
3C663BCE
BD5CF0A4
3CCEB7C0
3D9D5B24
BCB549D4
BB9DABA2
BD963C64
BDAF5122
BB9393E2
BD1CB603
BD459C4B
BD9FD21C
BD028645
BDD34B41
3DBE4274
BCA9CF8B
3CCA1E9B
3D496E54
3DB5B6A1
3CBD9DFE
3C4D96CB
BD84BC09
3DCE9C4F
3D32483B
3D3AFAC9
BE21FB85
