3D26D8B3
BD9A4159
BE157258
BE5A677A
BE404273
BEAA18BA
BF054B3A
BEC35784
BE464A7F
BE5DBED1
BDE41E30
BD675928
3DA6EE8F
3D24E479
3D00AB67
BDEFD081
BD889633
BD88DF17
3C514E89
BE00D6F2
BDF6BED2
BE46D81E
BD81F465
3BF88D0A
3D4C8DB2
3D929148
3DADC714
3DD5DB99
3C8D4621
BDD6D361
BDD553D9
BB640619
BDEADBED
BE07009D
BDA77691
BE67478C
BE842903
BBC86D2C
3D8B3024
3DB7C4D9
3DB93BDD
3DD67294
BD915BCF
BDAE4737
3BB9D00A
BDEE17DC
BD988155
BE433EEB
BE115859
BE48BC0D
BE140E78
3DE9EE95
3E5BEEA8
3E5059B7
3DFC2C47
3DB29D99
BBC042DB
BD175DC8
BE69DC56
BDD5E29D
BD9D7E4E
3D77396E
3C4FDFE5
BDD5F2C0
BE41DBBA
3D48B760
3D95EA39
3E6A352E
BB71EB33
BD3BE91C
3D1B349A
BD95F5E6
3BE0A9ED
3D015537
3E2766BE
3D57F8A1
3E002F7A
3D11349C
BCB90AEB
3DA796CE
3E1C8C14
3E3FFC0F
3E10ABF8
BC11199A
BCC3F36A
BB5A792C
3D542FD4
3D27E32E
3CBF058F
3E148BD8
BD1D8754
BE12B88A
3CB357F3
BC5EFF00
3E185A8D
3DAB2026
BDD54F62
BD48FAB3
3D61F9AF
3DC451B4
3BF465D9
3D07C526
3DBFA27C
BDA3C9EA
BE13F99A
3C513398
3D965B9A
3D3848BB
3DE2270E
3D357D6E
3DDBD819
3D3D417F
3E3C3491
BE0FCFE5
3D00DA42
BD7D17CE
3CBFFFF6
BE38FA3A
BE3B661D
BD8F7DD5
BD04D4C3
BDEF259C
BDA195BD
BD00673A
BD97878F
BE0F6B4A
BE1C1F3B
3D2CAC25
3B887CBE
3E42C0E1
BDA0B766
BD073A9E
BD8864F1
BDDC4531
BE64773E
BE87BE46
BE49DAF1
BE52AC2A
3A9C458E
BD62A541
3CF81C17
3E036343
BD5B2AFF
BD84459A
BCE7D48A
BD73E780
BDD9F744
BE4885C8
BEA50AF7
BEF504E3
BE927F16
BE630A1D
BD948C3D
3CB5B56E
BE92436D
BE2DA7A0
BDFC5193
BDE89578
3DD0A20D
BD63AF74
BCA631D5
BE533701
BE5291AA
BC129859
BD935C23
BED818F9
BD21AAA5
BE18E80B
BE8504E3
BDD88A0E
BD4D74C3
BC8B3EEC
BDFCBC24
BD86154B
BE1C1EE3
BD8C69C9
BDBDF76E
BE0820E6
BEB20175
BDB6A783
3C8BFFBD
3CB68EBB
BE1EC4DA
BE09B505
BE64F978
BE601126
BEA4DC0D
BD54E487
375CE580
3D17F9E8
3DF15DCA
3D3BFE14
3E652EDD
3D343DD3
3D724492
BD006DA2
BC78577A
BE893A4E
BE58EEBF
BEA7298A
BF0652E9
BE23E771
BD9EB17E
BE7C77F7
BE019E01
BD82D82B
BD8068A9
BD433D99
BDA71C9D
BDF31F2F
BE2EA2BA
BE1586E5
BDBCB14B
BE671314
BE635B6B
BDB5F0CF
3DC9006B
3DFB3C80
3E696683
3E9428D1
3EBF8E7A
3C1A22A7
3D66FFF0
3DC02952
BD59E6C9
BDB2AC41
BD6ED75D
BD9355A0
3CB05A86
3E31BC61
3EC6EC78
3EEC926B
3F0F2DFA
3ECE2BF4
3EDBFA8F
3E195410
3D82F649
3D7E2AA1
BD2A37B9
BDABBCE8
BDCF454C
3D89AF2D
3BCC6C36
3E2B5970
3E75CD07
3E72F104
3E8712B8
3E9C75B0
3ED1FCC2
3D38950B
3D97E55A
3C509A51
BCFB3171
BD92815D
38D5D4D8
BC823989
3E18B66A
3C416A92
BE1BA533
BCDF59C8
3C5721F4
3C274EC7
3DB6DEC8
BE50E40B
3DCFCB01
BEA62CD5
BD47C00F
BD6FFB78
3E119951
BCBA905F
3DA0466E
BE755BC4
BE7B4AB3
BD57E111
BB32BB92
3C2EC042
BE2F9769
3D16A7DE
3DDDC004
BE22DD34
3C8DD195
BBD51184
3C978CC9
3CDA8117
3B47577A
BD869684
BE5392B4
BE06EF6E
3D9CDA3C
3C109CB4
BE2FA47F
BC987B64
3D1CA6D1
3C85DFAC
3D33A831
3C86C90A
3D50042F
3D67F8F5
3D19036D
3D0C7830
BD691DB6
3D55396E
BD98C390
BB3FD62E
3BA33CA2
3EC30EAD
3E04476A
3E1C19C3
3DE1D3FD
BDBFE0B8
3D2E80B7
BBFE7E70
3DE8C439
3D2A2B15
3D84C9F3
3DB18252
BE17B6A9
3DA22ED8
3C70834F
BD0F6C76
3D3ACD75
3DB7BC58
3D455DB2
BC57404B
3D3AC6D5
BDADF838
3DBD0388
3D2FFA2E
3E1E3E68
3D8C955E
3BECBE0B
3DD9D21F
3CCCE212
BD9C1601
BC3BA708
BDC79F09
BD275682
BDAD3B62
BDCC8BB6
BD056941
BDC99F54
BD897D26
3DA38547
3C39E395
3E2AA897
3E552C5A
3D3377A6
3B80091A
BD86A79B
BD8AB392
BE31B0DF
BDB1E488
BD48E998
BD9D5DFC
BDF77D4C
BB848590
3DE9D82B
3D98B4F6
3E02AF18
3E3F56FF
3E2EAEDA
BDC5CCF8
BE0F6780
3DB9D949
BE44457C
BE119A3A
BE1F400E
BD7BA536
BE2A45B3
BE39D051
BD8CB77B
BDD8E30A
BD70C4C6
BDC10F58
3E0C3792
3D33107B
BD8D4964
3D6AE3E8
BE8AC04F
BD848EE8
BE72BBFD
3D82CC5C
BD08C848
BB970EB3
3CD2D8D5
BD369801
BDFC3209
BCFEB218
BD0D662E
3D9DB71D
BDAAD87B
3D10D5E0
BDA2DFAB
BCA18EE5
BDCB7C0A
BE766D7D
BDB69A10
BE65A63C
BEFECEC4
BE72858C
BD8FBA93
BE7883F5
3D2D7D59
BD268EFD
3DC85BA7
3D99BA2E
BD9D6F51
BDA0B1CC
3CB2C70A
BD82EA04
3DF5DE6C
3C998D57
3DD0AA3B
BDF0A43A
BE22C958
BDE89D92
BE279434
BD99DE46
3CFC2741
3D2AB0ED
BD9B0045
BDD8125E
3DC9159F
3E32AAF6
3E886220
3E644811
3E8DF408
3E16E40C
3E1D394E
3D23B669
3D23F290
3B9567CF
BC8878B7
3CA5901F
3C8B66B8
3CB34D48
3D7B5D4E
3E22C705
3E8769F7
3EF54AF5
3EA1CB46
3E6D6ACE
3DEE76FE
3D6BACA8
3D803F25
BCFB37FE
BD8CE1FE
3D594EAD
BE7C28DF
BE2E5C83
BDD3F87C
3DFA5B4E
3EA99E34
3E883983
3E3A0593
3E0D3B6D
3D1256A3
3E09EA56
BDB14D4C
BDE0A5A8
BD3D1F3B
BDA1A211
3DF5DC6C
BEB8C1AE
BE466901
3D4ADCB4
3D202FD4
3E2017EC
3E5B7EDA
BCBA67E3
3D573DBF
3DA38988
3D82CEC0
BDADB2FD
BE3078BE
BE35910B
BD9E9202
BE45E95D
BEC03086
BDA4907C
3D4E5C3A
3DA0A0AE
3E085FE2
BE3B9F79
3B5E1FD2
3DC60B5D
3BBFDB2C
3CC4578E
BD571BEC
BE8D0128
BD7CD2CD
BE7423DC
BE64C8BE
BE8E0F7A
3DAEEA54
BBF4A63B
BD444AA1
BE164D1B
BD244917
3CE4B176
BD63FAF9
3DC7139A
3D8E97FB
BE402F41
BD029E80
BE7C51F0
BE314FFF
BE30D14B
3C81C337
3CC382C8
BE3A6645
BC3B8956
3CAE129E
3C314F86
3DE062DB
3D65F60D
BD8C3068
BE2F8039
3DF1C084
3CC373EC
BD9ED944
BDC0276A
BDD994A3
3BB3B6CA
3D2E9CD6
3CB8DC1A
3D4727DE
3CD7DEE1
3DB174EF
3E098D1C
BD1F8571
BDF11345
BE033358
3C1C24BA
BDEC321C
3C7C51A1
3E158316
3D8BD0F3
3E313553
3E1644ED
3D24CF93
3D22E5CD
BC04F8D8
BB9CDABC
3D194DEF
BE5A6DAF
BE52792C
3D9645D2
BD3D8EBC
3D2CD39D
3E614DDD
BCC5613E
3D747DD9
3C808FF7
3B9D4832
3CBB3D2A
BDA10289
BE09014D
BD6CDF8C
BDA05D89
BD49998E
BE62111D
BD09E7F4
BD197FAD
BD1E6C8C
3DB89FC2
3D09DE3D
BCCE0E24
BD830810
BDD4E3A5
BDDD346A
BCC59506
BCFFA301
BD3C58F6
3D0E32E5
BDFFBD06
BD4481C1
BD56D2E5
BE12FB79
3CF0B2C6
BDDA8BAD
BD52AB24
BD20B570
BE1E5A60
BE17AC64
BE27AE17
BDC9E154
BD2DC219
BDAE3891
BBFEF999
BD754646
BDF1B474
BE6B0A0F
BE214B2A
BDA784D3
BD9121F2
3E16056B
BC06CBE4
3E109CCD
3D76666F
3E00776A
3E1329A2
3CAD28E4
BC705821
3E1200E2
3CACA494
BD91906D
BD6FC27C
BE1467C7
BE394473
BC897FE0
BD61E339
3CFE6914
3DAF62BF
3DC1238F
BD20C8D8
BD0E5EA3
BD184E49
BD90615F
3D5EE782
BCB807EF
BE212026
BE98662F
BEAE054E
BE9902AF
BE654D85
BBE8BA46
3AD7E706
3DBB96BB
BB29DC66
BE1624AF
3BBA8B33
BD3A3CA2
BE3C40F0
BE723DF2
BE9C6C55
BF4B2BCA
BF236D3A
BEA27DB3
BE810522
BE049349
3DA1B0BE
3CF7DB55
3D329347
3D02FD28
3C72DBF7
BE10EB27
BE2CD709
BE43140B
BEF46A37
BF534997
BF4A9C45
BF096913
BF2E9AAB
BEB6DCC1
BC008A4C
3E052980
BC0A7BF0
3CF0A015
BC06CBAC
BDEF5D33
BEFE1CFA
BF0E81D9
BF16BD33
BEC22F9A
BE7DFAF4
BED5FE78
BF1ECCB3
BE88FAC4
3B2919DD
3D29CD79
3DDD18C6
BD4FD46A
BE4EFF3C
BE629EFA
BE9502D1
BE794CE3
BDED0251
BDA1A2FB
3CE4F143
BE6C1BB1
BF1A102B
BE9B4F62
BD7C7886
3D08E700
3E0C358A
BDBA89C9
BD311F7B
BD85D385
BDF228DC
3C02DCF6
3DED543C
3E445052
BD03A671
BE14BF0A
BE318889
3D3FD093
3E19B800
3E535C79
BD8E6AA3
3D3DAB4E
3E506CEE
3DF2173F
3E204013
3E069824
3E0A018B
3E763118
3E88C596
3DC86B54
3E495E35
3CAD1FE2
3DC4D8E4
3C8AEBB1
BE394429
3E041F9C
3DC162A1
3DBBC73F
3D0C892D
3D699F80
3D78DA56
3DDCCFA0
3E1DDF29
3D0ED9EA
3CBB8727
3DA37C8D
3E09640E
3E02C49A
BCB998DC
3D7C7563
3C4987AF
3DBFBB4B
3E02332F
BD4CED2E
3C006E86
BDC3FA27
BDC1D668
BDD32000
BB8BB362
3D975D3C
3D745C9C
3DBD84E0
BD699239
3C7D0B68
3DC4D874
3D1C4BF2
BDB8A564
BE345C2F
BE479402
BE13633C
BE559542
BDCC65AF
BE08CCFE
3CDFFF7E
3CBF7297
BE23F262
BE393794
BE4244D8
BD90ED90
BD1FF1BE
BE0C8BE6
BE4B8B8F
BE4F2FA5
BE367A27
BE01CD3F
BE30CDE8
3CAA4599
3D3C9872
3D482290
3C8541E2
BE0C3C17
BD4807F5
BE2BE650
BDE9F674
3D3FB813
BBE4510E
BE2319EC
BD0D36BC
BD989855
BCCD6848
3BBBC6A6
BD944167
3D2002C8
BDA61A64
BD8D1A3A
