BD639B7D
BE085862
BD5EC459
BDD473B9
3C82B545
3DEF9522
3E2969D1
3E0F4E42
3D705B01
BD39C463
BE239364
BE311D28
BDACD7D1
BD9F960A
BCAF7617
BD306CDF
BE4F1C2F
3DF63B95
BD6208E6
3D194DDA
3CD5C7AE
BCDF91B5
BDBD0B1E
BD4765E8
BDC5EF46
3DC5D892
3DACB314
BDE9FCD2
BE0FB09B
BD6B825D
3D094811
BC7DBA79
3B05761A
3D5C9749
3D4615BA
3D942C50
3C511C70
BDC78463
BE5B6331
BE40F382
BCD30C74
BDDE3C90
BE2625B1
3D8B2D00
3B17A257
3D7A6B46
BD2A853B
3B970EF1
BBCC9749
BD782C88
BDE3EDD7
BE00D490
BE566F10
BE62CF5A
BDE74EBE
BC3D5977
BD9C864D
BD977CB3
BDA312F0
3D2F4D94
BA15C8A1
BB6C4DFC
BC86C75D
BE2FD199
BE02239E
BE04A7C8
BD0C8980
BDF20D52
BD4BD82C
BE2DFE41
BC45C8D4
BCACD097
BDEB333F
3E05321A
3DA823D0
3D58EAF9
BE1609C8
BCBC844A
BD9D4FD7
BD25C6B0
BD9E30B3
3D95F827
3D989BEE
3DE4953D
BD9EA036
3D959076
3DAC93E3
3E59C1A8
3E7852AF
3E1138A1
3D7E9D34
BD883630
3D8FA2F6
BC84A552
BABCB476
3D0FBE73
3DD397AF
3DDD82FE
BCCD9CAA
3DC1D8DF
3E35E25C
3DF12181
3DD9EC6E
3E90AB9F
3E5291FB
3D77EAEB
3E0DE815
3C9DAC66
3D3C802B
3C86B1D3
3E49E944
3E5A66B2
3DC4D18F
3E018F48
3E131960
BC6D7D8A
3D2D28E5
3E340265
3DC890BE
3D8C2B8C
3E68484A
3E0E1704
3DCDE20D
BD3CA70A
BD30111F
3E511E8D
3D4A3DDA
3AD621E3
3D98C92B
3D35555E
3D969EE8
3D00399E
3DF87828
3D1ECBF8
3E68AC21
3E3E4977
3DCDD23C
BCDD7A58
BD1A60C6
3E89DE5B
3D5EE43E
3DE07FB4
3C66147D
BCC23FE5
BCF2272D
BD700C40
3D80BA64
BB019CE1
3E090981
3B9093EB
3DA31FFF
3D1A51D2
3D2B220E
3E477C58
3DE12305
3D3FC7D0
BD89CF56
BD763D3A
3BA4CB88
BDBCF7E7
BE127E7C
BDE8A598
BE1B235E
BE027F84
3BFAD929
3B54D454
3E71A67C
BD4369DC
BE6C0BAE
BE84D28A
BE703DC4
BE7F7F28
BE40EAD2
BE15F246
BD33C5D1
BEC4AFA8
BED18865
BE83783D
3C1B6C2F
BC81138F
BE1283BB
3D0670BE
BE74BD22
BEC99330
BEA7131F
BE9B4381
BE57A2EC
BE588AAE
BE9E0A53
BECC20C3
BEC0B31F
BE1EB53F
3E09153F
3D2393BB
3D8EC2E7
3DBC33C9
BE2899F3
BBE90039
3E9703C8
3D775F2F
3E0042D7
3A6DAEEF
BE500B17
BE19C0D0
BEAE52C5
BEB1624C
BDD9F44C
BDD729E0
BDE2D805
3DA21D11
BE739A10
BD9C09E4
3CD75016
3DC8E07E
3D4EE734
BD4A6D09
BD9FCD70
BD2C5093
BEE05D47
BF015584
BE1DA6F8
BE3516B8
BDC4C55B
BD8E7E57
BD2D88F8
BD95BF3E
BDD12224
3D9805EA
3DD28957
3E07FDA9
BD216CC6
3DD2FA0E
BDC25B92
BDB44C1A
BDA11AC2
3E2A02BE
3D4E5177
BC2912E3
BD848782
BE42106D
BDD78FBC
BCBF29F6
3DCE820F
BC6CCB83
3D40F449
3E1F17E6
3E571A8A
3E219A40
3E13F127
3DC1EBB1
3CEB3C02
BD68AA4A
BE6FE86C
BDB2D9EA
BE0CF309
BDFBD6B3
BC94D453
3B2C437B
3D44603D
3E90C671
3E368190
3DEFBDB6
3E566B53
BDCAF070
BE155C18
BD2CFC0F
BDC625B1
BE1D7AA0
BD84F1D8
BE07913F
BE188495
BE184D45
BACF7615
3DC3B0AF
3E201F2B
3E14375B
3E3EA435
3DF4AD76
3C9F2DDF
BD774AFE
3C068E6B
BDC37824
BDB58A14
BE327436
BE5E9CCF
BE23E1CE
BE23ADA4
BDDC57C2
BD13B5E1
3D1AF957
BDBE67FA
BC8C3A4C
BD868068
BDC98969
BD10DEF6
BDC911E2
BD53864D
BE2CBBC6
BDCC6F58
BE0B473D
BE43376B
BE4006B5
BE48F293
BEA43285
BEE7DA82
BE31845E
BC363296
BC4241A8
3E11FA15
3D29B4A7
BD88790B
B8943B8F
3C7415F2
BDB7CCC5
BE112CEB
BE14A064
BEB5830A
BEEA352D
BE7C3A6E
3CD96CB0
3DAE2EEF
BD002B48
3D7065C9
3C847F16
3D28297B
3CE9C0A7
BCEA4699
BDF6BA02
BE1236D2
BE0575F8
BE804F8E
BDB002F6
3C8C555F
3E73D8A0
3E54941A
3DC9BD4B
BBC40C81
BD91F80A
BC78F0EF
3D4A2D68
3CAD23B1
BD2174F8
BE18BE3B
3C2A51C0
3E0AC032
3DB1BDB9
3E5B7908
3E2FB38C
3E1829B4
3E0CF800
3A0F933B
BD8EACEB
BC45AF38
BC2CA1D9
B9DDFD34
BDA5FD90
3CD5DEEE
BD75EF0D
3E334548
3E39191E
3E83D72E
3E541A7E
BDAB3CA3
3D6A33EC
3D93EEE2
3D83E034
BB5F2B30
BCBF24DB
BD71700C
BD1A5250
BC2B3597
3CFB29D0
BD8E64D2
3E418357
3DF40090
3E12BC4B
3E13CFEA
BC91EDEF
BE4653BE
BDB1E227
BC978075
BDAD87CD
BD4429EC
BD0C0C08
3DA18A0F
3DE90629
3B5CF1B8
3D71F227
3C710F95
3D80B5FE
BB12FF8A
3DEC9AFE
BC151751
BD418F6E
BE2438F4
BDE01C85
3D9057DF
3DB7F61A
3D234E82
3D4573AB
3D4673E8
3DAFA2CC
3BF82432
BDE06BA5
3C5BD156
BDDA44C5
BDF69AE9
BDB95A9C
BDAE2365
BE9750CE
3CA66B9C
3D10CA59
3E0992C4
BDACF953
BD891D5E
3CAA41BB
BDE7FCB5
3D02F4F8
3DF90E98
BDAE30DB
BE34A920
3D356E83
BE6CDCDA
BE39CE62
BEA7BDE8
BE2B3CD8
BD2DD59F
BD0D4BC8
3CBFC997
BDF4C810
BD3BCBBE
BD942059
3DD3D7C2
BDBE82D2
BD12C2DD
3C773402
BD84409C
BE3D0EDB
BEBF6C35
BE39846F
BE0BDE64
BE6483FE
3CB9C5C2
3DD762AF
3C9DFECE
3CD3DFBE
BA53D5EB
BDDCD224
3D5E5294
BC026C38
3E5E5E60
3D917169
BE0439AF
BDD0CF38
BD64686F
BD845D43
BD727C1B
BD6CB60E
BCD9D4D4
BD15895A
BBF353FF
BD5FE067
3CC29687
3DB78A4D
3E5F3D5B
BBA66A78
BD458AA1
BE435D37
3CB6CC66
3D8B01D1
BCD3C229
BB2E9E80
BDE9FA1A
3BD7C76D
BDCCD1FF
3E2CFEA2
3D9FCA5C
3E219A44
3DF80730
BC858A3B
BE7925E2
BE8C116F
3D6681B5
3DFD69C4
3CE183E4
BD73CE8B
3CE07354
BDCC3A62
BDC0FFB5
3DB34840
3D909647
BCC8CBE9
3DB160F8
BE441377
BE56C98B
BDDEC7F2
BDBA654A
3E163CEB
3BD4C986
3AB2B319
3D3CC0D8
BE262B7F
BE04B99E
3D9E2014
3DA453FB
3D929928
3B1E7C50
3D0FC965
BE271005
BC56245E
3E16F184
3CD2AE25
3D868035
3D0FF332
BDAE8E1A
BDEF70D0
BCD558B3
3C92ED9D
BD6E0E4E
BE0E8CF0
BDF9DF58
3E81CE8F
3E492A93
3E5BA75B
3C4EE7DC
3D0BBB04
3D803654
3DBA0628
BD48933D
BD28B369
BD49C732
BE042CA0
3C23BDBC
3E1ECADF
3E637580
3E4896E7
3DD40965
3CB27A3D
BD2521F2
BD3FC9F8
BE17215E
BA05658E
3BADAB24
BE2D36B4
BE24353F
BDEE3FAB
3AADCC46
3E486745
3DD2ED5A
3E065175
3D91C23B
BD890F0E
BD7C2247
BC923B29
BD44413D
3CEF191E
3BE38B14
BD198191
BE1979A3
BD9C43E3
BE13DEF6
3E8C8571
3DC6FC38
3C71AE45
3D18BE4A
BE015DD8
BD18BB00
BE02EDCD
BCF182D9
3DB7806E
3DE93EE0
BD9D8524
BBF98FE5
3CEFCF4E
BE0D636B
BE5CE0A5
BDA932B6
3D36E86B
BDCB6DC9
BC773E35
BC79F10C
3CB0DB1A
3D6348A2
3DA5C13C
BCA76D96
BD25C489
BD9230BF
3DBE6E4D
3D43920A
BCA8E806
3E060959
3E0EE14B
3E10FDCD
3DFB7714
3DC842B5
BCBBAB37
BAAEAAA1
BCE0EC2B
BD8B8FEF
3D4D5A0C
3D9C085F
BDA295D4
BDDFA392
BDCE535F
BDBB8D6D
3D10F3EA
BD946768
BD9779F2
BD37FCE2
3D2F3537
3D09962F
3CF5653E
3D672535
BCBEDC48
BDC575AA
BE22396F
BD9D3E79
BD7D98AE
BD99DF2A
BD5DBCE6
3D133EF1
BE03A9AD
3BC544E9
3D9DD17E
BE0E4EC9
BE586F7B
BE8C0E9A
BE96ACE0
BE49EC4C
BDF97B32
BDAB7FBB
3DBD7B6B
3D641040
3E8F994A
3E39E4C6
3E610F03
3DB8F5EC
BC8DA89D
BDCB767B
BD0D03D5
BE9383F4
BF20BB30
BEB61BC5
BD1E2691
BE159D03
3E0AC8F9
3E652DFB
3DF98925
3E16A6FF
3DB2D750
3DDEC020
BD46F2BB
BDB90A4A
BD48ABAB
BEEA8A80
BF074579
BE73C347
BC1BFA6D
BD31653E
BB921403
3E650F6C
3E2E83BB
3E84D099
3E277DC7
3E5FE85B
3DE67309
BE08DE50
BE75E6B0
BED6E767
BEAFFA04
BBCD870C
3DD088E4
BD9CDA3B
3E109926
3E900A37
3E6E9A06
3E844F46
3E88A386
3DF74AA8
BB97FFDB
BE066571
BD37DF54
BE9F30D1
BD50C5C3
3D4DBA2A
3CC69F02
3D4D20C7
3D44DB90
3E23A608
3E3A6F5B
3E4B5536
3D948A1F
BDA6759C
BEB1356E
BE3F54BF
BE2326EE
BDCAAE7F
3D12D09A
3E1B4D87
3E5829EE
BD86AEB2
BD32B359
BE0A6FB0
BE9EEBCF
BE807D76
BE9E16D4
BE96C70A
BE636FEB
BD882FFE
3CAD68D8
3DCD6E39
3EA8CC65
3E71F55E
3E613B6F
3D0122E1
BE14AF33
BDE7AF07
BE9919A8
BE8B542F
BDC4033B
BE23F030
BE13C34A
3C8CBDA6
3DEE7D68
3E74F006
3EBC8403
3EA3D44C
3E774874
3CBAC862
BC8C4032
BE485C9B
BE13EBFB
BDD09423
BD85493E
BD48286D
BC0609AA
3DEF9C3B
3E92D8DA
3EAA4182
3E993781
3E2D5787
3D71DC74
3D011CB1
3D46BD29
BE1F930B
BE649A82
BBEE891D
BC0436FC
3CAAAE17
3D0B6580
3E71F53B
3EAD6538
3E80D360
3DE47127
3BEA69ED
3BF45146
3E0F7FD6
3C26C5E5
3DCA11F3
BBF4014E
3D34889E
3BA30568
3D6BD0B8
3E105301
3E2A824E
3E548B87
3E1C45C6
3E151EA3
BBBDF294
BDB338DB
BDCD77E3
BC8CB3E8
BC7FE4D7
3D1F0BEA
3D761A9C
3DE206D4
3DFB1415
3DD7C74C
3E0BD31D
3D49320F
3D0287AE
3C358B68
3DEF6ADC
3C5DE0D5
