3CE17011
BD78A2D4
BCBBD0A0
BDD35F4E
BCB43C61
BE04B6F1
BD84DE6B
BE2FFE37
BDF6AA5B
BE2DF4A5
BE59EFAE
BE661AC5
BDBEC8F2
BDAC8F30
BD8CDD59
3D418427
3ADE9B35
BDE5EE37
BDED862D
3CDF6C02
BDB4CE46
BD95B9F2
BC98BD50
BD539AB7
BE272490
BD426CDD
BC8E8A72
BE8FAB29
3D4104C2
BE31CAC8
BE1E0003
BE01FC95
BD874F8F
BE2913F3
3B9CC06C
BDB12D14
BD332234
3B1C2EEF
BCFE42AE
3C87C1D5
BD734243
3C5A3199
BDADA43D
BD868F30
BDFFFDE9
BD2412D2
BDB2D675
BDC54492
3D7B8D60
3D46F2DA
3BFF7134
3D0272D3
BD4BCC5F
3C30B19C
BD18A1B9
BD5ABFB0
BDE7CEE5
3CEA34E0
BE0C45EE
3CDA5689
3D845716
3CECFB5D
3BB09B57
3DE6EB8D
BD605BA9
BE5C44F6
BDD2118A
BD0BDC2B
3D3AD451
3DBDEF5C
BCDEC055
BD9F268B
3BBFED8E
3E14D591
3DB76DDE
3DCBD472
3D034536
BD100AEF
BE82D217
BEF46420
BE82E732
BE460252
BD2B5819
3D68C0AE
BE47113B
BD069407
3CDA92D8
3E2A9EF2
3E3119D2
3E4D2369
BC8E7EAA
BE6837AF
BE943068
BE625CC1
BDA3E61C
BCF9EE20
BBBF3EF4
3C76A6A0
BE3ED472
3E14ACBE
BDA7E062
3E33ABA2
BBCE0DC4
3CF85AE8
BDCA273B
BE8BC499
BDF7493C
BE0CC2A8
3D7E7C28
3CCB7E2F
BD8888D5
BE4EFB94
BD2E8770
BD6702DF
BD7D3908
BDB26B82
BD520102
BD28C7FB
BCCEB22E
BDAB4780
3CC94280
3CB7703F
3DAF0595
3BF8884B
3C3EC485
BE89F9D0
BC6ABFE3
BCE2CEFB
BDBA476A
BE84C00B
BE00EF3C
BCC8FAB2
3D60CB40
3D818F80
3E2108B5
3D6AA052
3E1566BD
3D6608F7
BDBA2C7D
BC4B4E32
BCF6E373
BD58CF55
BE116EBD
BE502F04
BDCC8F35
3D849A3F
3E18F792
3D2400B5
3E0DAE04
3E4F7611
3DB9CD00
3D3E637D
3D0C2DF5
3DBE3B1E
3CE1B7F8
3DB8B2BA
BDADCB59
BE0704BF
BE9E4B02
BDB1E3D0
BDBF25DC
BD21F0FB
BCB5FC6D
BD937D67
BD41DE80
BBE65E95
3D27A714
BDFC68A5
BD77DF38
BE1BA78F
BE9712D0
BEB57EEE
BE8AAC21
BE95E999
BE191EA1
BE5CBD79
BE80FCD9
BE6231EB
BD558C9F
BDFC9BC7
BD14BBEA
3D880138
BDA47E3C
BD3BDCB7
BE8161E0
BEAA28DB
BEC8B313
BD786CA7
3E4C01FE
BD21A469
BC355D81
BD48233D
3DF047CE
BE706F6A
BD50C8CE
BE278F60
BD1D7C2E
BD9E2CAD
BC707311
3D59BEBE
BDD3AA9D
BE222C49
BDE197C1
3A60544F
BD786948
BE60767B
BE80971C
BD9C5481
BDC4C367
BB07C927
BE13A7B3
BD4D22CF
BDC0F5E9
BCDA7E74
BDA6C9B6
BC7AC5CD
BD75E333
BC55A9FF
BE7B67AA
BE724ED1
BED05F80
BE684C30
BE5E1F83
BE2099FE
BE65CA09
3DB944F2
BD923BEF
BD98F293
BAE510DD
BC7BA958
BC186A8D
BA69B96C
BDF595A0
BE239AB3
BEDF2F58
BE604208
BDCCF3E3
3D984A51
BE87B07D
BCBD7CA1
BD2D545F
BCBDA682
BDE212D1
BDA0BB92
BD48A4BD
3DC13569
3BA0EA9F
3D67375A
3E16DACF
3D13F201
3CE83DBA
3E3E407C
BDE4661F
3D84C29C
3DAFED30
3D17C0D7
3D269137
3DBEDA4C
3DBDDA2D
3CB695B0
3D365ECD
3E6C546A
3E19880B
3DBB8B59
BCB067F3
3E224259
BE42874E
3DB1B899
BC60D2AF
BC342D57
3D80446D
3CD90882
3D84D642
3E6C9022
3E460E67
3E762779
3E37AB3F
3E90B2DD
3E3F11E8
3D890872
BDAFF713
3CF0B1B8
3D21C42F
3D441267
3D39303E
3D38A635
BE06A90D
3E6EB956
3E2389B1
3E0BD177
3E7DAA32
3DEF8E85
3D81CED2
3D5EBD6A
BA926778
3D4AFB02
3DF56518
3DBB4D98
3A20151C
BE112B6E
BE3DCB93
3DBE25EF
3E11B72E
3E489C44
3E25365B
3CF93A60
BDAA9C88
3DDA9336
3CB7549F
3D9C6B5B
3CA639CD
3D103A68
3DDB7D94
BC113EF1
BE80EDC8
BD01B04F
BCA72370
3B4E4CB7
BB6F01A9
BDFA0052
BD9F151A
BDE5D0D9
3D8ECF5E
3D8EAA45
3D3E7A17
3DDCF8B4
3DF7DC20
3D8F072C
BE47694D
BE39F03E
BE4AC7D2
BE9C85D0
BDDE9AFD
BD573B13
3DB4F798
BE2A30DE
3D5BDB55
3DCE1D96
3D3F4EDD
3DBA4EC8
3E3346DE
3DF2A975
BE4FAB26
BED450BE
BE6216BE
BE834D70
BE94E671
BE5BF54D
BE2E594B
BDECAD6A
3E07E8C3
3D547445
3DC51FDA
BBE70EE8
BC63A11C
3D9CA2AA
3CAF4092
BE7ED7BF
BE9ABBC8
BEAAD948
BE2E5482
BE899A92
BE8342BD
BE29C168
3D0CA8F7
3E06BBD8
3DB8F4A2
3D5572D9
BBAE3653
3DE255DE
3D813893
BD82C52F
3CBD315C
BE2814D7
BD8B22FF
BD3982DC
BE4EDC62
BCE36FAA
BD983168
3E061566
3D36A182
BDB91886
BD4C6FCB
BE4A3B08
BDDB8AD7
BD9399AB
BDD214F2
BD8BD395
BDD6A7F3
BE232D5E
BE0C4C4D
BE00F0E7
3C977B3D
3D8C0814
BD2BFD1B
BE63A102
BD1C7C02
BDF8A82E
BC7033C5
BDFFECF6
BD4E9BEE
3CA179C6
BDB85CCA
BDA7A5F0
BE79FF16
BDC44E24
BCF844CA
BD5450CF
3A518954
BE166833
BE598FB2
BD746CC0
BD19C586
3E0DD088
3DB8B5A2
3B18398B
BD3E6A1E
BD94F864
3CF70BB5
BE36E3D7
BD7F5446
3DD341A0
BE521A78
BE580439
BE59CEA2
BE58B297
BE0A4066
3D24F740
3D0D0485
3D974746
3CC14624
BD8DDDE1
3D91634D
BC2F771F
BDD63647
BDAD640A
BE306CE3
BE804FF4
BE130802
BDC4B7B3
BB9C1E2C
BDE71F34
BE0C2170
BD821CAF
3D32711F
BC95C6BB
BBE0DC9D
BE0F94D5
3CC3E310
3D1FC6F9
BE7BF5C2
BD455954
BD5185F8
3DE56AA0
BD8323CE
BDF2BC9E
BD911809
BD8E27FA
BD14DE3D
3BFD0EF6
3D8CA7F9
3D95F6D4
BDEF0B61
BCFE76A8
BE2C2F1E
3CE7914A
3E6B0BC5
3D46F57D
3E09D1C1
BDB571E1
BD9913A4
BD1D9356
BD4FDB7C
3D32C7E8
3D9B067F
3D10FA03
BDD2F6A1
BDE6AEFC
BE0C92CB
3D428060
3E0E9A9D
3D3BAC61
3E16C4CE
3DBF38B5
BE11587C
BB941D26
3D93273F
3D199668
3DD8F736
3D197879
BDD6151A
BE4474ED
3DF40CBD
3E41B778
3DA905B6
3E34CBF0
3E1E2C69
BD58DE23
B9207B3F
3CE00862
BDA4B836
BD81F58D
3D5B1EEA
3DB2112A
BAF53E1D
BD2B72C5
BD8AA6DF
3C5B0D04
3D572163
3E08F8FA
3E37638D
BDAE40E9
BDF2C6C2
3D17E1E6
3C7FDED9
3DA3749A
3DD95D0E
3E381EEA
3D71ACDF
3D9AB69C
BE119BE7
BDB41AF7
3DB67929
3E381BBC
3D92C068
BD4C2C98
BBCD28FE
BB28446D
BD6F5A3D
3C2A55E9
3D8AA1FF
3D3084AE
3E16ECCD
BD8B7F95
BE1DB32D
BD9D217F
3D88DA98
3DFF9EC8
BCA04B99
BE2E5774
BE3E4458
B850FE84
BE067CB4
3C69ED8D
3C9D63C1
BDCD3554
3D4221AD
BE47AC8B
3C8970A2
BCB694C8
3D8FCE47
BD82D2D4
BC8BF9F4
BCFFB9F4
BDCF5A44
BDD32DB1
BDA13D66
BCE612EE
3CA2B683
BE45DF07
BD92B574
3CA53A7D
BE063696
3D4A602B
3D75C591
BD1A18B2
BC99FD18
BD3224BC
BD8A70AE
BD5B7C06
BE28237D
BE2B8D3F
BE0195DF
BD83CBC4
3D1D12AA
BE3A7DAF
3E223D9D
3E6E8336
3DE4EC16
BD10D9B5
BD99CC7A
BD0F0497
BD8218E6
BBC5981C
BD8343EC
BE6C46A4
BE6C1905
BE7D8ADB
3DDEAE70
BC3F5C2C
3C535E09
BCB6DB4F
3D790263
3D93A1F1
BDAC4380
BD8CBAA4
BD0F074F
BD558BCE
3C23AE5E
BD550111
3C88CF4E
3D9B7145
3D5A9921
3D62A1D6
3D98A3DA
BD2F64E7
BCC01FD2
BCE2DF1A
3CD1F177
3E087EA6
3CBFD61B
BDC0A82F
BD0FC57C
BD833428
3B17E4CD
BE1B508B
BD03C3A9
3C3E7884
BD1110B3
3CFBC30A
BDE76263
BE54E54E
BE12FA77
BDF38CED
3D8C1D9E
BCB104CA
BE3252EA
3D411889
3DF2E924
3E075E4E
3DAFF8CC
BD708D00
BCBC12A8
397BCEAA
BE2B2CC3
BDAA75F5
BE079AF6
BD22C057
3D8420E3
3C23FC51
BCEC2224
BCD21C36
BE2BC016
BD8E94F5
3C8EC3E6
BE07437C
BE2A5691
BE9F0338
BE3B4616
BE480191
BE743592
BE2E9A36
BE19A4A9
BD8095A8
BE11814C
BE193ED7
BE3B19D9
BC97DD12
3BC4E1EB
3DF55788
BE5CAB45
BE093457
BD442F5F
BDD80D8A
BE48D1DA
BD05D034
BDC33197
BE3E94C5
BEA0FDAD
BE82421F
BE90C496
BD706657
BD639893
BE51919F
BEB58BD4
BEB2C7C0
BE7A129D
BE150DCD
BE27851F
BDC0AD13
BD3E569F
BDEAE1A3
BE5BA4F3
BECF2C18
BEEEF24B
BDF93374
BE667FF7
BD956C5D
BEC7C39C
BEF47A49
BEA4189E
BE83C920
BE917090
BE6C8717
BDF0007E
BE354E52
BE303FC9
BE3F33EF
BE7E4072
BDFD9F73
BDF15214
BB91B312
BE8A39DD
BEFA62D3
BE96E43B
BEC4EE0C
BEB45BE0
BE9FBEB6
BE819987
BE939802
BDDE95F7
BE12325B
BE17EA7F
3C067FE7
BC436E39
BDB28C3A
BD85B404
BDC9827D
BE6E19AF
BEB8946A
BEFA579A
BE5D50D7
BD96A438
3C65126B
3D53BAE2
BCCA715B
BD22B036
3D2B7AD1
3D68D95B
3CB484AE
BE51C54B
BDD9A49B
BDFE4999
BD41C898
3DDC903A
3DD14593
3E2AC004
3D5770DC
3DCC3EDE
3CA75EFD
3CD6B147
3D766CA7
3DA24816
3D7B0814
BC79E09D
BE15D752
BC33A1A7
3D586EF1
3DAEDB19
3DB98B35
BB227F3B
3B0E673A
3C81D611
BDACB26A
BD799E24
3DC148C8
3CEC4563
3D44023D
3DD64E0E
3DBC7E07
3CA0C00A
3DCD5236
3D74ED7C
3DCCBB25
3DB49A81
3CC4A0FF
BACF5265
3D3199F0
BDC44F47
BA158D47
3D879751
3CF6E1A3
3D8DA71C
3D141424
3D77F63A
3DC5E918
3E1A83A9
3DA73DCC
BCA4DA23
3B943F7C
BC9C58BA
BE42767C
3C9204D9
BC87069E
