BCCDB0A6
3997FD0E
BDBC0AB2
BD792B4C
BE5974E5
BEA8A6C6
BEF9AC50
BEDD1DDC
BE9355F6
BE3E42C8
BEACE5F1
BE78ACF1
BC59CE2E
BE87BD46
3DAF90AA
BD9147B9
BD8614A0
3C770157
3CB6EFB1
BE0B64F8
BE3246E7
BDF2EDB7
BE0F16C5
BDFCC28D
BDDB70ED
BE80B7D9
BE044729
BEE5E31D
3D6E9038
BD6CB932
3D9F47C5
BDB4B83E
BD85A6C4
BD5D3301
BDC254ED
BD4CC2A3
BDCAF032
BDCA87AF
3DDF34F7
BDC70990
BD8DFE57
BDFDC9B7
3D9B414E
3C556548
BD09ED8E
BD168C8C
BD0B2E08
BDB55288
BDF92534
BC87583E
3D416735
BB9488C3
3D9A5486
3CDB21B8
3D263C18
BDFB998C
3DFD8782
3C987CB4
BD4A5D93
BD648A48
BDDDED2E
BE36054C
BD8C75ED
BDB71825
BD743290
BC96BAF1
3DB4CAA2
3E0C92D4
3E0FB5AF
BE2AF603
BC7A649F
3DA7E900
BC9169AD
BE2A7B64
BE14C312
BCF19FBA
BE181FDE
BE391133
BDDA41D1
BD92964D
BD5C4BBA
BE005F2D
3CD0D7B9
BE1FD469
3D7EEC68
BC55CB6F
3CD776F6
BDAA2DC8
BD965060
BD2E2CDC
BDA0B554
BE41C36F
BDBD5C02
BD8229F9
BADB9ED8
3E06332D
3C8427B1
BB533AAF
BD9992BA
BD88D3E9
39B84A6E
3C343158
3DCC8122
3DAF2A3B
3CF63C69
BD84874A
BDE1FCAF
3D8EB871
BCB44F01
3C8C7C97
BE018CF4
BE9B68DA
BE2297AE
BCFD46BC
3DA047F9
3E0780C7
3E53BA5C
3E87FA5A
BD681179
BD80EEFA
BD04FA88
3C7C680C
3E03265C
3E06DBFF
BE05FC1A
BE512E10
BD23887E
BE371E71
3C70CC76
3E5AF2C6
3E1B3D05
3E005131
3C10CCBC
BCC67E05
BE752BB5
BD652880
3DB46695
3D9DEDFC
BE7A923D
BEC19B45
BDBB44FE
BE6F4B9B
BD293577
3E04C305
3D2EF51B
3D404902
3C451D01
BE858FF9
BE2C204A
BE45EEC3
BDF7459A
BE838113
BDAB6089
BE9C4297
BE7F4828
BD50E9ED
3C5FBF95
3E224656
3DAE6F1D
3ABB6A26
BCBC3CF2
BDEF3919
BE5FDFC1
BEBD40A3
BE909593
BE37AFF2
BDF0E187
BE87CA39
3D7BF45F
3D0CE9A2
3E1C62CF
3E5DBED2
3E4EED77
3DF9CE0C
3E0FB41B
3DB0838F
BC9906D6
BBA973E0
BBE79C48
3D57FE83
BD837EEF
BE08D8BE
3E4635E5
3DF6F0F0
3D9A7CB1
3D22DBA5
3E10854F
3D16D25B
BE29CFAB
3E2DD488
3D15169D
BCFEF21D
BE4543FF
BD8E8752
BE8ACD8F
BE7E916C
3E0C3D90
BC9574EA
BDFC27BC
BED6C341
BE9E7110
BDFDFE67
BEEDAB6C
BF015024
BEDA82E5
BCE2D341
3D73CB09
BD106A28
3DE1F466
3DE0ECEC
3E35C4E5
3E3A3F88
BAF22586
BE56F71F
BD8F863F
BDA255F8
BE879332
BEC467F3
BF0AB410
BE60FE9D
BDA16DBE
BE7C2A91
BD07C21F
BE93DF4E
BDACC80B
3E37C1CF
3CD55EA6
3DA0E20B
BD20E9D3
BE1602AE
BEE2B2C9
BEE4CF38
BF01EE12
BD583CD7
3E83254D
3CCF6789
3E0D5E63
BE604071
3D5326CA
3DBCA964
3DFA5CD8
3DBE51BE
3DEB80DA
3D59450C
3CF976F6
3CB40F29
BE062340
BE154D58
3E3727EC
3D139AFF
3E0C798E
3DDB6A1C
3D231DF2
3DCB5311
3CD9F819
3DDA2C9C
3D7D1D72
BD4CFC4C
3DCE60A4
3D986ACC
3B0C247C
BDDAB341
BE98807D
BE2573E2
BE0EE1BB
BD827A19
3DA3A26D
3D9E8D0C
BDA8C810
BD91551F
3CDA2609
BD19D89B
3E25B7C0
3E6CD0E8
3D0C97D4
BD92D7BC
BE6538E1
BEAB2477
BEA17445
BE108987
BCAED02C
3D7BDB64
BE1CEBC9
BD9A99FA
BD8F9F8C
BD6CB45D
3E114047
3E2B9FA1
3DA2812E
BC043AA3
BD0A63D9
BE661548
BC566671
3D396627
BD1D1D20
BD8767E8
BE04CF0E
BE0F8EA6
BE0DC40D
BE2B3E6A
BD97D521
3D24FF68
3D9A51E9
3DE3E4B1
BA318DA5
BCDE31F4
3C39CCF7
3D80E3D4
BD191522
BE5D7B40
BE3591D3
BD9A5F11
BDEC63BB
BE01F098
BDB1A000
BD9D98CB
3DD2059B
BC76E6D4
BC72A3C5
3CB45FC8
3D64C313
BDA16786
BE556B0B
BE94145A
BE5F2C66
BE649219
BCCA5950
3DAD02E2
3C96B2BC
3CB80395
3C994F63
BCCAF566
BE86325F
BE282939
BE18B252
BE72BFA1
BE261519
BE0CDCF0
BDF124C9
BDC07B55
BB037517
3D2465B6
3E18E347
3E53679F
3DC8D897
BB70BBBB
BE4CD1DD
BDA4596B
BDD70E0B
BE052E18
BD772F48
BDD6BF0A
BE10332E
BCE93E35
BD0E34CB
3D247BCB
3E1136E2
3E1C0988
3C9154B0
BE06CC0A
BE06648D
BEAAB69D
BDFCD5C1
BE1E0645
3D44AEE1
BDAEA295
BD18F1E1
3D23E7AE
3C3C6ECE
BD25E518
3D80CBD9
3D8E1155
3D5CB03E
BDFDD699
BE33D5B9
BE52AD6F
BE3C5E74
3DD8FFB1
3DDA0DCE
3DE9C9FB
3E01C1A9
3D6E87C1
3D282A1B
3D738788
BD288CB9
BD2C235F
3DB051E8
BDED011D
BE3FF6FD
BE7922B8
BE0EACC5
3DB4E05A
BE2823C2
BE28ABD6
BDE8B398
BE872271
BE875B0C
BF0719B9
BEE9C33A
BE0DAEE7
BE9CB596
BEAFCD74
BEA0E8B7
BD80EFAB
BE091542
BE804B6B
BE03FA40
BE060593
BD81ADF5
3DC6AF4F
3DEFCA47
BDE319E8
BDA228ED
BC4E74AC
BD8EEFB2
BE21A276
BE2C3585
BE1CD365
BE35E17C
BF087B43
3D8311BF
3E71399F
3E15E5F2
3ED417C5
3EDFBBE9
3E17C625
BCC786DF
BD575838
BDDA7A7D
BD3044C0
BD50E5D2
3C7592DD
3CAD64D9
BDBBEC88
BDD4857F
3D8A3DD0
3E24D36C
3E9A3A53
3E4E750A
3DC345ED
BCA38673
BD2855C8
3C6BA3BE
3DB8F464
BB3865D7
3D6304D9
BCB9C3C3
BE8E247F
BC28B48C
3C4A4DB2
BE8384A0
BE9A69A2
BEB59155
BD90CC77
BD9E1E6F
3B556955
3D2A337D
3D9FAEFB
3E16BE79
3D37AF98
BD77FCA7
BE387878
BBE5AA76
BDAC7B94
BE8B4B90
BE8F190E
BE0F39EF
BBB339C8
3E0C8CA3
3D4B3274
3D3DA6F8
3DF61969
3DE5F160
3DF7071E
3D331972
BDFEFA37
BD3E3367
BC8B8F60
BE3C5DD8
3D6A2D43
3DBE7CF4
3E201AD3
3D99765C
3E1FF5A7
3CE5DAB4
BC91921E
3D0674EE
3E315521
3CF32028
BD727CF2
3D80A2EF
3DEA88C7
3E92B9FE
3E1D721C
3ECEBFB2
3EDD999E
3E610CED
BBA0E436
BC4A7793
3D6B265C
3D0BA8D3
3D87A423
3D3E9D53
BE3EC2BF
BD83976C
3E756483
3E7C06FB
3ECD6030
3EFE0660
3E9F3B4C
3D7259C0
BD27DA34
BD6F2AC2
3D39957F
3D545BB0
3D7754F3
BCA7733C
BDB044AE
BDAB0ED3
3E360F4F
3E5FEE0C
3E3CCF09
3E8D3182
3E32D570
3D9CAA99
3DCF89F2
3CA81C82
3D019AF3
3E1AD793
3DBA0FB1
3C9C4285
BE17FEC9
BDD1D695
BB8AD7C3
BD346333
BD9CFE9A
3DD7C2B7
3DB4A8BD
3E4036EC
3DC1D180
3C994C95
3D808B89
BCA973CE
3DB52B42
BDB2E4DB
BD961F84
BE7B5671
3DABB01B
BD1A5425
3D7EA78D
3E4F4427
3E5C99D0
3E254BF6
3E1358FD
3E169AAA
BD54C1FA
BBBFD495
3D158CC7
BE3C719A
BE99A6A0
BAA02A9A
BE1AB967
BDC1F309
3E12B84A
3D934711
3E1CA8A3
3D180C04
3D03B8B5
3D897974
BDB37409
BCFFB723
BC51AA62
BE22D1F5
BEB1F4CE
3C2159E5
BE22C8AB
3E0C065A
3D0C0898
3D15B374
3C0599E6
BCD0DB84
3DA68D25
3C747537
BBAC725D
BD968D17
BC0B6D46
BE29B73E
BE83F6A0
3DE3DF8C
3B097A92
BE0EC7A5
BE6AA905
BE85EBDF
BEAE10DD
BEA3D968
BEA00E11
BE6D7981
BD91AC5B
BD87DCB3
BD53A5DB
3D8263D2
3BC119DD
3CD42D96
3D64537F
3D2BF2D4
3C8C28DB
BC170E54
BC06EE0F
BE0DC3AE
BD31C81C
BAA96A56
BE4C2E6F
BDC30590
BE07D58E
3C461427
BD8D2CAF
3DA025D3
3CF9B579
3E03FB35
3E010C44
3E01BED9
3DB8A81D
3D892875
BD05116E
BD5BDDAC
3E039BA8
3DD93A3A
BD43C293
BC90B043
BCF82B4D
3E22D978
3E842B8D
3D37A66E
3D124C7E
3DEA72EB
3E2236C4
3E8134FD
3DE8C733
3D0009DF
3D772558
3C5BD38A
BE04BD06
3E107CD5
3DBB20EB
3DD405C0
3DD540F1
3E701BD8
3E0F713D
3E3E85D1
3E8EB514
3E4D6AC7
3E2A3E22
3D09C183
BDCE242C
BD727454
BDEB164A
BE10E47F
BE95F406
3E150739
3C9FA4D2
3D684E39
3E57244C
3EA69D1A
3E550100
3E3B1736
3DA6BD4F
3C84BF0D
BE3C55EB
BE335D9C
BE573D0C
BD73CC79
BDC456A6
3D34B8D7
3DE2F861
3DE376C8
3E8CFA4A
3E83F2DD
3E041523
3D3026B0
BDD06107
BE0C6B09
BDB37B11
3DDC306A
BE0AAE83
BD92DA5B
BE883BD5
3CB28F90
3DDA2406
3CE1DF96
3E888604
3E6DA935
3D8A9A42
BE0618A0
BD10A2E6
3C8F1661
3DCB4592
BD33943C
BE22B5C9
BCC9AE8D
BA32B6FC
3D529BC6
BD7662DF
BDAFF613
3DBC31CE
3D989D73
BE8E1578
BEBC70CC
BEA2D272
BD032EF1
3E056E21
3DDC783A
3C9CBDDD
BD2FBC64
3DDD6E8A
BDEA9573
BE533919
BDA42509
BD9AC2C0
BE233680
BE4EC0D3
BE22CF17
BE34F635
BD88F4E6
3E188221
3E3E1506
BCEA1CE8
BBA73425
BE791E8E
BC96BC0E
BE4904AB
BD2CE5DE
BDAE0FB0
BDFE682A
BEBB0272
BE5F6CF5
BE0870EF
BC23B97A
3DF8CB3E
3E14AEAC
3DC0B1A0
3BD0DA2C
3CDB8A03
BD28BA45
BE3B39A1
BE444DBF
BE6507D2
BEE4DE5B
BEC8BFBD
BEBD8DA7
BDF4E7AA
BE30E29A
BE883086
BE2DA7AB
BD316357
BCBB6C31
3D84E2DD
BE713F3C
BE515CE4
BE9E5D6F
BE590770
BE6F6355
BE9DC808
BD4BB19E
BE17EB93
BE7A613A
BEA01E42
BE1C6F9D
BE056F9E
BE0942B7
BDF9D94C
3D05570F
3D34007F
3D195577
BDB068C8
BDE09EF2
BE195F08
BE272B9D
BDC88461
BDE87CA7
BE1795E5
BE49B5D8
BE372E90
BE9B35E5
BD1D0682
