3D1D8DFE
BD52018D
BEA85D1C
BE885578
BD9CDAB6
BE1EEBE4
3D91792B
3D39F77A
BE552824
3C3AB3F1
3E3CCFEB
3E9D42EB
3E274750
3E4E9D96
3D2EA30C
BDE8AFDD
3A0F3FA5
3DB8DB32
3E828C5F
3EEA98A9
3E587C01
BAADC8A6
BE3197ED
3D317089
3E063E7E
3E218617
3E706A41
3E5A0169
BD72F1B6
BDD2EF99
BD787F80
BD3CAC80
BD1A3C19
3B5600AC
BBA8A60A
3D01FDF6
BD4F2BFE
3BD36E2C
BDC64F32
3CD4A3CF
3D36B70C
BD8D106E
3C6A1A6A
BCEA8E68
3E058109
BDCE2AFE
3DA6AE9E
3D65A2CD
BE5B783C
BAD1BE46
3DE2989A
3E249438
3D294510
3DB92CA5
BC07DA3C
3D8B4C62
3D9D2279
3D4E8446
3E198C92
3D45298C
3D23562F
BCEC80CD
BD892389
3D81BDC1
3DF97B7A
BD303FD5
3DD6696F
3E1A27BB
3DC5F54B
BD98BA2E
3D9291F4
3D6EDD56
BD20BF10
3C98036F
BD8BF642
BBA6FB71
BD499354
3C22D5CB
3B343C97
BDBD81BD
BD4F48ED
3B8EE724
BD87DC2B
3CEF05D6
BE9643E1
BD895302
BD564DD9
BDBDE610
BD8BFBE9
BE226FBE
3D95F948
BE91DFA6
BE101A35
BDDAEDBA
3C87FA06
BDACABA8
3CD64068
3C0BF4EC
BE0F4DCF
BE68BDCB
BEB6D88E
BDA0004C
BE4535AE
3DB02A8C
BDA0AA39
BCD0532D
BE554A90
3D86799B
3EB18516
3E0D9474
3E62618A
BD5211CB
BD2BC42C
3CBDF73E
3E78D83B
3EC72A9F
3E6C7664
3E14EC51
3D6997A2
BDB20130
3E1D3710
3ECC2B75
3EAF434D
3B89D8D9
BDBF13F3
3C1F80AD
BE815A62
3E1C2050
3E8338CA
BD9B2156
3D552DB4
BD4BA838
3C4AA069
BE13675F
3C78082C
3E46CCD8
B9EA5272
3DA5AA6F
BD10AFAE
BE4739B7
BCFE8693
3C54C75F
3E122281
BD2A5B1C
3E249E93
3DB192EA
BE3E704D
BDEE024A
BD3269F5
3DE1C941
3BDDE7C9
BC15E569
3D7486E2
BD98E3A4
BE86F313
BE22A6EA
3D9B7BBF
BE04BC6A
3CC45A7A
3D807867
BD38E107
BE8AF38C
BE07531C
BDDFE7DA
BE118B5E
3CAA7988
BD9154CB
BDEE00EC
BC837D52
BE47DD54
BE92B9E5
BE23E137
3D7E2EFD
BC83166D
3BDBA9D7
BD386694
BE2F9BF9
3BCFD1A7
3E50BE5E
3DD48784
3CEDE3A0
BC89FCAA
3C52CD39
BEA60C69
3D8D9DC9
3E858DB9
3D60F670
BCA79E47
3D0FCA97
BDCBCD4B
BE301632
BD5E9310
3DA118A8
BD0AFDF2
BDF041BE
3D7FDFCB
3CF6025A
BE5DCA5F
BEC0A8DB
BDB18200
BE177727
3D2EAB96
BD308C2F
BD8C9E73
BD8A549D
3D09DC38
BD125B82
BC0321BE
3DB51F6C
BE0F2176
3D045737
BDD75324
BCCB05E3
BCB9D17A
3E350C34
3EAB86F1
3E2F4514
BD36BE5F
BDCBEAA7
BBC31148
BD5C5A02
3E4B0C73
3EACBA8B
3DA77D3D
BDACAF87
3D44AC3F
3E263BC8
BE1B7D0A
BDF87A3E
BE22E3F3
BE45D177
BD3211F6
3D2E7F56
3D185AC2
BF04F002
3AF8F1B4
BE46A501
BD9D35B0
3D9CA059
3C9FFE50
BE104333
BE9C88DE
3D6C98AC
BEC5CE6D
BE489B02
BCCBC74D
BB1DA59B
BD858CAE
3D116E0B
3D552992
BDB65506
3E679851
3D8078BA
3DC1301A
3DB7FB7A
3E3FBE7F
BDA806F2
3E94AC68
BCA4CBB6
3D0A6FFA
BBF0C918
3E061C26
3DE55780
BE11831B
3D4D5458
3D1ED5E2
BDE14D17
BC1EAB7C
BD3DDD84
3D3C3D66
BD82D7C1
3CBC7C2A
3D9BB0B1
BD3E17CF
3D0D1A59
BD962F2B
BDF6A13B
BD908FCC
3E1A3EAF
BE3A16F7
BE294E11
BD78A6EF
BE031944
BEAF51C3
BE1AD67A
3E6A96CA
BCF3A87B
BDDC63A2
BE31CC27
3D22D7C9
BC8DCE3D
BCC6E1AC
3E0B2BE6
3BB0AB0E
BD9FBB20
BE30E9EF
BECE7536
BEDD5F39
BEB91D32
BE9B17E9
BDD70CED
BE397BCF
BE0B947C
BE59F5BD
BD9A1244
BD28921D
BCC7AAFA
BC172EDE
BD8F277B
BDDAE02E
BE048FB6
BE23EDED
BE9667F5
BD7D850A
3D85C5ED
BD5ED71C
BDF880DA
BD96E2FE
BE613435
BE862AEC
3C86CD23
3D6AAEF5
3C9EBC21
BD253F70
BD8BCEC3
BE7514D4
BE8E9EBE
3D5DA340
BD902857
BE0F49E0
3D50E4D4
BB970AA0
BD8A1B66
BD9EED12
3C9F75DA
BE138253
3CC7069A
BDE302FA
3C1CB0F4
3E036307
BD8EC8EE
BC2FBB10
3CD352A6
3E2587CD
BD98AC1E
3D2A0A4B
3D38A243
3D527AEC
3A4A497E
3CFD8A2E
3C1DC2AA
3D764DDE
3BAA0491
3DA6891E
3D1E2A2C
3D1D9581
BD49BBF7
3E2E0022
3CF30820
BCB32075
BD7D0454
3CDBB4E7
BC1F9E89
BE2B4A6B
BE66247C
3D3A9227
BE4A4200
BECAC6E2
BE4F7D2E
3DB99ACC
B9674070
BEA5CCA6
BD2BCD3A
BE957FF3
BE372F2A
BD8F8CB2
3C96A3D1
3C83C4B7
BE908811
BECE7910
BF04D36A
BD987488
BC9E4B65
BDED683F
3C7EFF17
BBB10605
BCBBCF31
BD0AA6E5
BAD31CE1
3D7C393F
3CB93338
3C823890
