3D868472
3E19CAA0
3E8924DE
3E849727
3E54236B
3E95F5C3
BCC613E4
BD952071
3E558DD3
3DCB91CB
3E1D2913
3E16212D
3C1D862D
BDDC70F1
BD36EEBB
3E20A24C
3DD571E8
3E3477C7
3E2E9AC5
BE1248CF
3B2FAA7C
BBFC169F
3DB6CB07
3D55D88D
3D3096CA
3CDD338A
BD8CD99F
BDD0BD2D
BDBBE12B
BC3E5845
3CF5A2E6
3C1D8632
BDB10327
BE8B0C14
BC69F43B
BDD29CAB
BCBAB1B3
BD4EBD07
3D9A6F5A
BE3694BE
BE44335D
3D17EB3C
BE97FCBB
BC839882
3CDBA7F7
3CA412E7
BE404354
BE1095E9
3B0A29F4
BE8E3554
BCF14150
3C3853AD
3CCD82A0
BBD9BF0F
3CAB9D17
BCD2E5F9
BE633416
BCAE3D46
3D12DB46
3D8B121F
3E310C48
3D6124E8
3DC5E87B
BE4CE63B
3C913AE3
3DFC5A75
3E37C933
3DB84724
3A2152F6
3D81CB3E
BDA948CB
3CE471F3
3DDDD36A
3DEF93CE
3D5FA0E5
3BEC896B
BD6F7B7A
BDEC8B3F
BDA0BC58
3D54664C
3D77E933
3D3755C3
BD3AC45A
BD1BE74B
BD71D08E
BDF4A454
BC828806
3D74F51F
3C538871
BCB978DB
BDCB2BAA
3BCE022C
BEA2FC26
BDFE0477
BE1A9456
3C623ED7
BDE8E499
BE388EB5
BC9FC948
3E797F24
3E0E7C8B
3E0739C1
3DD4352E
3EAA2183
BE22148D
BA804D36
3E7AEC6F
3E0770E7
3E39391B
BDA16FF4
BDDD1E4C
3DD7A751
3D73DC57
3DF96E32
3E167026
BE2F4569
BE3A69E8
BDB98AED
3E171010
BD65BB6A
3D8E49A0
3D2FFAB5
BEA11818
BE7D8EF8
BD1B1326
3DD72268
BE11E5F5
BC873CFF
BDE1116B
BE8B3B96
BE97C2C1
BB0D249A
3D78F57D
BD915371
3E2D4625
BDE3AFB8
BE1D4AE1
BE8F341F
BC454E26
3C90272A
BDF85EDB
3E024F06
3D1D89B6
BCF18616
BE1F5100
3A902866
3E217F41
BDD2FC70
3E4E4034
3CB9E1C6
BD2C6862
BD3B5AB3
3D0C48B8
3DF6960A
BD3979CC
3E822B3F
3DFCC1E4
3E1A1C49
3DE6546B
3B8E5CF3
3D012B19
BDF3F110
3C4261C7
3E1F3945
3DA89474
BDAC2033
3D673375
3DB3BC2C
BD1B2004
3C2E1E99
3E01418E
3E3827AD
3D2FEFBD
BD81A2FC
BD956324
BCC1666C
BDC11D83
BD530B29
3CDB9C7C
3DEB99B2
BCBD213C
BE01C2FD
3D6B1A9A
BDC1388C
BE9CA08E
BDDB5BAB
3D264FBF
3D1A7724
BE515949
3DB7A334
3C819361
BECCFC5C
BE885720
BDEF89F3
BD94C659
BE79FBCC
3D143C43
BB957687
3DAA2883
3D0F0EE0
3E14D383
3E390784
BDCD6266
3E4D8FAD
BC8F49D3
3C0D4006
3D547193
3DB71E01
3D07B2CA
3DAA152A
3DBEEC1D
3C90D329
BC27B56D
3E1C9FCC
3D0E53AE
BDA12811
BE7E7D00
3A4529CE
3D078600
BD3F9CE8
3D941C99
BDC70C71
BE3B86B5
BE5176B4
BE4D786B
3D1B721E
3DDD1248
3CC0D1AD
BDFBC8AF
3E3D1792
3DCA3708
BDF19F46
3DEEFAE3
3D913DDB
BD062A91
BE1817FF
3E51CD32
3E4A4D04
BE8AA893
3DD230CF
3D8D75BA
BB892C33
BE15A1F1
3E06D706
BE9B1C42
BE14A544
3D4CD2A5
BD1214B4
BEA893E5
BE51924F
BDE0A4C1
BF323B25
3CFFABFD
BB841833
BE03B7E6
BE880CA8
BD67C75A
BE958B85
BEDB59FF
3C8A7DAA
BD9CA673
BE2E73AC
BE80E247
BC9D3E8C
BE72F547
BEA48B21
BC2AC633
3D3EA1E4
BD693963
BEADC19C
3E36B437
3B1E374E
BE571C3D
3DE9F02D
BD28EDA6
3DB97F39
3D4F7226
3E6FA782
BDFD564A
BD921DCF
BDCE82B9
BD91F26B
3C469A47
3E5621F7
3DFD2013
3D1A18FF
BE0242AD
BCE823A2
BE45BDB3
BD6C3B0B
BC592D40
BCD65F92
BCF8282E
BE1F4CC9
3D82769C
3DD5658D
3E17F8D6
3BFF9D3D
BCCA9C41
3E863155
3E0A226B
3E16F6DC
3DB1021F
BD7151CB
BD1CF5BC
3D91159A
3E06219B
3D7E6169
3DCD8FFD
BE20421C
BE08B63D
BD88AECB
BDD11E3B
3C8A0A70
3C7D55C3
BC2474DC
BDDA401C
BE7D455A
BE7E05C7
BD5DB180
BD9D0746
BC95628E
BDB45541
BE55E7C9
BD9DDF4A
BEACEC45
3D2A5A41
BBBBE761
BDD1D3A3
BEDC56D2
BE15F49F
BDD3E70D
3CCA5107
3E368992
3DE7C1FE
3E0987AE
BEE3A393
BE420500
BE42CE82
3E03FDCE
3E64517D
3E2C890A
3DE17B18
BD19393A
BE7B3686
BDC4B38E
3E35D8E1
3E4D43B2
BCA7021B
BD9BB41E
BCA6935B
BE8A1C99
BE8357FD
3CE82796
3E4557BD
BB15BDCF
3DCAE1FB
3DA9C19A
BEE08E8A
BDAE2992
3D8CC45E
BD1AB252
BC80DC65
3C76F331
BE7F0ADE
BECA451D
BD620CDE
BCDE8BFE
BC170291
BA3B4B35
BE0B1ADC
BDEDD8C1
BEE00C03
BD368483
BC021E5F
3D33454C
3BF30B7C
BE4AC8DE
3D52EFFA
BE491123
3C840F92
BD16CA95
BE33D1C9
BE913052
BEA26E13
BC0A53C8
BC5CD948
BD2C44A0
BDEF406F
BE3C0B31
BE969829
BE164ADB
