1F6
1CD
00B
1C7
012
1DE
015
012
1F2
1F9
1EF
00D
019
029
1F1
1D5
009
1D5
1DF
027
045
1C8
1EB
1D4
1DE
191
198
058
15C
1C4
1D0
1EA
184
15A
004
1C6
1C0
1D8
000
197
187
013
1DE
1E8
1F8
012
1DC
1D0
049
1CC
1E8
1E7
1F4
00D
026
1E5
1E5
1EA
1E3
1F4
01A
018
1DC
1EC
038
1F2
1FF
00A
007
1FA
1EC
029
005
1F2
004
005
1F2
1FA
01A
010
1F8
1ED
1DF
008
1FA
1FF
00B
1EB
1E9
1ED
1FB
01B
1EC
1DB
1E6
1FB
1D5
029
008
015
1D4
1DD
1F7
1F3
00B
1EC
1CF
1B2
1A0
1F2
018
01E
1E5
1C2
1C0
007
03E
038
02F
1DD
1E0
1E1
004
05E
064
064
1F7
1E3
1F0
01A
03F
050
049
1E2
1F9
014
011
035
02D
04D
1EC
044
023
020
029
01B
014
1EB
02F
042
018
002
1FB
1BC
1CA
010
02F
010
008
1C3
1A0
1C7
014
022
1F9
1CD
1ED
1D6
1EA
1FE
011
00E
1F3
1F8
1F5
1F3
1F4
1F6
005
1ED
00E
019
001
1F7
00C
018
00B
00C
022
015
1F9
005
1FD
020
1FF
01B
011
1E0
1F8
00B
012
1E6
1EC
00F
00D
020
1D3
1F4
1F0
1F4
010
1F0
1F8
1DF
1E4
00D
1DB
1E2
1B6
1E9
01E
1F6
004
1F4
1BD
1BD
04A
03E
00F
1FD
1F6
1F4
1EA
002
03F
1F7
1ED
1C7
1EC
045
005
01D
1EE
1CF
1C8
004
06B
03F
018
1FA
1DC
1CA
007
045
006
1E2
1ED
1EF
1FF
1E2
029
1E5
1DF
1DB
000
1FC
1F3
030
1E4
1D9
1F7
1FF
000
1F5
013
01D
1EE
1F6
000
017
1F5
025
1C4
1CC
1F9
01A
00F
00C
1E4
1B9
1FF
011
028
032
003
010
1E5
1EA
000
025
1E0
013
1B2
1FA
001
1F3
005
1F0
1C4
1D4
1F2
011
007
008
1E2
198
1C6
1E0
1F8
004
1FC
1FB
1E6
1CA
1D8
008
011
019
1FE
004
1A6
1E0
01C
1F3
1E7
1D2
1FE
1C8
004
009
1DF
000
1DD
1D2
1EC
1F0
1E2
1E0
006
1FF
1D2
1FD
1E8
1FC
1E0
008
1F8
009
022
00C
009
1FF
1FE
1FD
1D4
04A
033
008
007
00C
023
1FF
02B
029
00E
01A
1FD
008
1D4
011
029
031
02C
007
009
003
1E3
1C3
1FE
1F9
1F0
1F9
