18
46
71
3E
20
2E
19
1C
49
33
2D
2B
0A
15
15
48
0F
1F
0C
D8
C4
3D
14
14
1C
E0
D4
C0
17
14
EB
FE
CA
D1
2F
E4
07
09
F1
B1
F1
F7
C8
1E
0F
D7
D9
11
87
BA
EB
07
00
F8
1F
97
A3
FD
06
EF
05
05
C1
B6
FB
1C
F6
FB
BD
C6
DB
11
22
E1
00
AA
0B
AA
26
18
17
DE
D5
E6
D1
E7
06
31
FE
E5
EC
F0
82
C1
CA
CE
07
CD
F5
19
C6
E1
0A
09
F6
06
DC
8C
B6
E2
FD
EB
E4
E2
8D
BA
10
31
0B
F8
C8
8B
D7
2B
6E
1C
EC
98
84
E0
34
2F
F8
E6
B6
90
D0
14
22
A5
FB
D7
B6
D4
D6
DB
AD
ED
E5
CE
F7
E1
EC
E8
06
EC
D9
FC
27
13
E9
1C
12
F0
43
28
0E
DF
EC
F7
24
17
00
00
FF
F0
02
22
06
00
15
E3
DA
FA
FF
02
F2
FE
D3
EA
E4
E2
E7
E4
FC
E6
FF
2E
24
18
F9
2A
03
15
17
E4
DE
E7
05
39
F2
F8
E5
D5
D5
01
14
D0
E7
FB
D3
D8
E0
EA
A3
E8
08
FF
D5
FB
D8
9D
DF
F7
03
E5
01
FF
C9
E1
09
12
DA
06
29
15
00
F6
1A
E1
11
17
FE
3E
1E
FC
01
1E
E2
E9
25
12
02
23
FE
E5
09
0F
17
E6
1D
02
E2
E3
D7
F0
D8
0F
14
E8
D7
AE
DF
BE
C3
04
D2
E8
CB
B9
9D
C1
E7
EF
1A
4F
39
33
FE
1B
F7
43
16
11
F5
0A
12
1D
01
13
F3
F9
E0
FA
09
C0
E2
E0
E1
D9
F3
C3
D7
ED
EF
E3
F4
F9
EC
D3
E5
0E
2F
01
FD
25
DC
C3
1F
48
1A
F9
13
EE
C7
27
32
25
FD
23
CB
BC
19
27
FE
F3
EF
06
D0
EA
09
F0
FD
01
E3
CE
E7
FC
17
E8
F9
A1
95
EC
1A
E9
EA
EC
DF
B0
C3
D6
E0
F1
CD
FB
D7
E8
B4
81
D8
E1
