1F0
1F8
1DE
1B5
1F1
1FF
1D6
1ED
1F3
1F1
006
1CD
01A
1C1
1CC
1F5
1FA
1E1
1B0
1EA
1BD
1EB
1EE
1E6
1ED
1DD
002
1A4
1FB
012
1F6
1ED
1F7
02F
1B0
006
014
016
1EE
01A
03F
1C7
009
01D
01A
1DA
035
02C
1A1
000
022
023
1CD
01C
02B
1E6
1D6
1F9
001
00E
1FF
00C
1F8
1CF
1E4
001
1DC
1F7
1F9
028
1BF
003
01B
1A6
1AF
1E4
1F5
1ED
00B
01D
1E1
190
1B3
1DA
1D3
01B
01A
1D0
1B8
1EE
1FC
1C2
1DE
1FF
1E5
1ED
1FA
1D0
026
00F
024
028
02A
017
006
003
008
1CE
1FD
019
1EB
008
01C
1C7
19E
005
1F2
1E1
1D4
013
1F6
1EE
1F4
1F5
1C7
1EC
1F1
006
1E7
1EB
1EF
1DE
17F
1D7
1E4
1DE
1E8
022
1DB
19C
1EF
1D6
1C6
1D9
1F8
1DF
1D8
012
1E9
1CB
195
1ED
1FE
1FB
1FE
019
1F1
1C1
1F1
015
007
015
008
014
1F5
010
001
013
013
010
1FB
012
00A
1EF
1E7
01E
025
019
002
017
1FD
1E6
00F
1F5
1FA
1E2
1E4
1DD
1E4
016
00A
1FD
001
1F6
1D3
007
001
017
1EE
1F3
1F8
1DE
01C
015
1F5
1F7
024
016
1F8
1DD
1E4
1E5
1D8
016
007
1FC
01A
01B
1C3
1E3
01B
01F
011
1E0
013
1C0
00A
1F8
012
1FC
1FC
1C8
1C2
00B
1F3
1F8
000
1FD
191
1CE
008
010
1FC
022
025
1D8
1F3
027
00E
1F9
00A
004
00C
016
01A
000
00C
00C
019
008
02D
019
00D
014
1F7
1F3
1D9
03B
06D
1EE
1FA
005
1E9
1F6
021
00E
1BB
1D4
1EF
1F1
010
1E5
1F2
1B3
1F1
1D8
1F7
1F6
1BF
1AB
18B
1C6
1D7
00D
01C
1DD
1F8
1ED
1E2
1E0
01B
1D0
1EC
1FD
1ED
1F4
010
006
1E5
1D2
1F5
1F0
016
007
012
1FF
1E5
1EC
00E
00E
00D
011
00B
00C
006
1FA
1F6
1FA
1F4
1F3
1EB
002
1BE
1CF
1FF
023
1EE
028
1ED
194
1D0
002
028
1ED
1F9
1FA
1C1
1DA
000
018
1E3
1D5
015
1E7
1FD
1F5
1E9
1D4
1D3
00B
00F
001
1FC
1DF
006
1DF
00A
01A
016
1F7
1CB
1D3
1DD
1FD
1FD
000
1DB
1F1
1C8
17C
1C0
1DB
1D9
1E0
1F7
1E1
1BC
1B6
1A8
1B5
1D5
1F7
