1EF
014
025
01A
021
1B7
1D2
00E
1DE
03A
04D
038
02F
1C8
009
1D1
1E4
00D
066
032
1E1
014
1EA
1CA
00B
032
1E8
1EC
1E5
01D
1EE
007
1D2
1CD
1DF
003
010
1FF
013
1B5
1C6
1C3
035
1FB
000
028
00E
1DD
006
006
1C6
1F4
009
1FE
1FF
02B
1EB
1CC
1C4
007
19A
1FC
00E
1FF
1F4
1E3
00A
177
003
1E8
001
1FE
1CE
02D
007
1FA
019
032
1DF
1C2
006
038
021
00E
1AD
1D1
1F0
01F
021
1E4
02A
1E9
015
1FF
010
02D
1F4
1E0
02F
02D
1F4
00B
014
036
030
023
026
1EF
1D3
1FC
029
035
01A
011
1DE
1D5
1C9
1A2
005
00F
1F0
1DD
1F2
18F
1E2
1B9
1FE
002
1F3
011
18A
1EB
1BB
1DF
1EE
1F2
1F1
19E
1F8
1BD
009
017
1E4
1E6
1DC
006
1E3
00E
00E
01D
01A
1F9
1FD
001
012
1FD
007
00B
1E7
1F3
005
1B0
00A
1F3
008
1EC
02E
012
1F7
1F5
1EC
01A
00D
037
027
025
1F9
012
003
00F
01F
00F
012
011
01E
004
018
003
017
014
014
019
018
009
1E6
020
024
00A
01E
009
1EE
1CE
1F4
023
012
015
1EC
009
1F2
1D1
02B
018
1EB
1FE
1DF
012
1EE
1F3
040
1FE
02E
012
1FE
1E4
1D6
005
1DB
037
013
01E
1E9
1E0
00A
153
001
014
1F2
1CE
1DC
1FD
18B
1FB
006
1F6
1F9
00A
1CB
1DE
01C
00C
1D0
00A
1E7
1C4
05F
013
00F
009
000
1F3
1D1
052
02C
1EC
023
003
1C4
1BA
025
03A
1E9
019
013
01D
029
063
1FC
1EA
026
003
022
03F
03A
1F7
000
003
00B
007
00D
00C
004
1F8
002
006
021
1D2
1F2
005
1EA
1D8
1D1
1D6
1C2
1EB
009
1FC
1F4
1EA
019
1CC
1C8
1E3
007
1F9
1F2
1DD
1EC
1D8
1FF
013
00C
1E4
1EB
002
1BA
1F4
00B
1F5
000
1DD
00C
1CB
1D9
01A
1EF
1E3
025
030
1E6
1FD
1EE
1D1
1EF
1D8
00B
1D3
1D3
1F7
1E5
006
1E3
1ED
1B9
1EE
1E1
015
1FB
1F6
004
1D5
025
004
023
00A
02D
00F
1E2
016
013
008
1FC
007
1F3
1D5
1D5
005
1F4
1D5
1C8
1EE
1F5
1B2
1D5
1E9
1E7
005
01C
1F8
1F9
1E4
1E4
1F6
