3CE4B3DF
BD48023B
BE89DA40
BE778625
BE1C4589
BEC1889E
BE81FC8E
BD3C6BA4
BD9BBC4F
BEA9E9CB
BDE33638
BE07E50B
BDF0D88E
BDDDD573
BDD30A30
BE3C9F50
BE21810B
BE7F4CCB
BD7D392B
3D61C70F
3DF39438
3E616961
BD90F654
BD94A528
BBFD6DCF
3CFB0306
3C3BE3AE
BDB853F2
3E442AD6
BD6970A3
BD0FA7E1
3D758509
3D9FD864
3DA06012
3CE8ACAF
3D368C30
BCEE077E
3DBD16B2
BCC88FFC
3D9D8291
3CA01CB4
BD7819F9
3E53A6A4
3C4C6A73
3E26D613
BE2A9AAA
3CE9DFD5
3D19D5FC
BCC29949
3E441037
3E25F608
3D7DB4A0
BE51B7F2
3D6CC15D
3C999D05
BDF48B4F
3D7BD58C
3B3885CC
BD782C21
BDEC66F1
3D6C1FC5
3CFCD342
BE2B29EA
BE0E7D16
BE090DDB
BDF67C40
BD35135B
3D58C14C
3E1B32EB
BDFB734D
BE9C9E4F
BE0B2C14
BDCB415B
BDC4A0EB
3BE809F1
BD8B0E13
BD6DD7CD
BE624472
3DDEF2CB
BD77CAE4
3CB92A65
3D53AF57
BE059E0F
BE275828
BD304115
3D2ACB86
3D8AD76E
3D88849A
BD431510
BD2DC369
BE90234D
3E08D5C8
3DC11F95
BC3F8AA8
3D1F7FEE
3C95A440
3D3E3335
BDA691E2
BC05C1E1
BE835A2E
BEBB264A
BDDE066B
BEFE8FEE
3CB4A09E
BE03EA73
3E26F76B
3D93E120
BE47F2E4
BD7DFB2C
BE759F84
BE2B110F
BEFE6594
3DC4957E
3E169796
3E0C4618
3E50FA7A
3D2B953D
BE506BE9
BF119D48
3DF0B894
3E7E82A0
3EA5FBEC
3DCA12DE
3D6371B6
BD58D238
BEB8AB34
3E909DB5
3E8F17BF
3DEE222F
BDAD8D1D
3DD8CC96
BCECE3D9
BE42884F
3E91C828
3C1C6E82
BDAF9ECF
BDC26F63
3DBC50F5
3CB2CD52
BDB5EB80
3DBA78D5
BE8D6CF9
BE37926A
3CA3DD3A
3DA0AC40
3C763B0A
BDE5E0CA
BCB14828
BE16BBA6
BD146F04
BE521F31
BE44670B
BDB1D4B0
BE8FBF4F
3DDCB762
BE2AF21A
3CC3252D
BE460DB9
BE1574EA
3C8CEF36
BDE4CCF3
3CBA1B32
BBE43C98
3DF58DCB
BE0F9B78
BD99BFF0
BCFD0338
BDA77D08
BE1BEEF0
BDFF606B
BE85FAA4
3D54F55E
BCEF662F
BDBF0064
BE8BD784
BB8E68BD
BE805BAF
3D9AD3B3
3E348A64
3C911C00
BE0ADBEC
BE932576
BDE22699
BDF41DE7
3EB96AD3
3E68929A
3DBCD996
BD6E8A64
BE74785B
3DA0D4E5
3E730A5E
3E9D448A
3E2E53A2
3E0CC38F
3D872ABF
BD7E8DB9
3D27B676
BEA17EB2
BE7EF097
3D6E3494
BEB59B86
3D838E3F
3DAEC8EF
BABF047A
BD2C3121
3CED70C0
3C942DF1
BCFE8113
3C5AA3F1
BDFC5136
BCBF4A36
BCD47348
BBA68263
BDACA33E
3DA9A66B
3D806832
BCBC4B28
3D660A6D
BDA85E2E
BE10DE65
BDD18FE1
3E12513D
3E8D8B7A
3D775C85
3E087A56
BDEFB2AE
3DC75101
3EBD42CB
3E6BC75B
3E0C2CB7
3B008102
3E2CD6E7
3C680BAD
3E866972
3EB61D3E
3DBFC549
BE196375
BE1A5C0B
3CA7486A
3DAE3B0A
3E89886F
3E6701C7
3D7298C5
BD9D7D76
BE82C3A7
3D8775C0
3E0A998C
3E582117
3DB61BEE
3E75D083
BDF59D59
BE99B2A1
BD23D979
3DCBA375
BAE1AA7E
3D1093C2
3DD551CE
3E5DD893
3E31F223
BD841E58
3CEDBFBB
3D1FC2CC
3B9EB0DA
3D74E5C1
3E0C1138
BDD92572
3D1B93B8
3DE28622
BC65B879
BBDFE928
BDFCAFFB
BD892E79
BDAECB24
3D9168EC
3DDBEC5F
BC90923B
BDE358F4
BDBEEF0D
BE7256A6
BE02C655
BD88E032
3CA8518E
BE79210A
BE4063AF
BE0BFB82
BE117EEE
3D1AD5C7
3E4991FA
3E513F1D
BDFEC0EE
BE5C7C49
BDF4EF09
BE7DF76E
BDAB5C35
BDCE824E
BE89BCEF
BE93C899
BE7DBAC0
BE7A1503
BE8250B7
3D590A0E
BE2837E7
3D113523
BB11E083
BD9FBD71
BE4A2FC3
BD8AB8E4
3CC63B0E
3CBE3B1F
3CA535B6
3CFE5AD3
3D00328E
BC08AFD1
BDBF7F40
BE8838EA
BDAB6B2A
3E029397
3E38F945
3DD41993
3D6F089D
BD459D72
BC4D1003
3E1C063E
3E048F1F
3E49A50F
3DADBF11
3D6DBB63
3DA8144D
BD680FE5
3E1C23D4
3CD1E9E6
3D6BAFF6
BD54484B
BCC73786
3BECD8E5
BE35AD87
3DD62601
3C4AF236
BDE5B438
BED47BA0
BCB818AB
BCBAC4D7
BB42C6F9
3D5EDABA
BE052534
BC8E8483
BEC9C1FC
3E1320A0
3DEC0097
BD62215C
BA5374B5
BE2A8829
BE190451
BE8124CB
3CB11A1B
BD85FE01
BDA84B59
BE3B3268
BDD03866
BE28A9C7
BE8F649D
BD5EA3F9
3CAFD044
BE37EB9B
BDB2D707
3D253935
BE38F4A9
BE9C65DC
BDB4BA80
BDDA396F
BEA2623B
3E60C52B
3E0B6EA9
BE7D228D
BE8FFA59
BE7B1468
BDB36D5F
BE7442D2
3E0FEE24
BDC7229B
BD9E2137
BD0D5890
BE2CD49A
3D29D8E3
BC8FEA41
BE06A427
3E45FE78
BDAFBA34
BE053D95
3C48FDE8
3D4D3494
3D07376E
