004
1E8
1D4
1FF
01F
1F9
00F
017
1E2
1D1
1ED
02B
038
01A
1D2
007
1F4
1DF
008
05B
03B
1D5
1F3
1E8
1B7
166
1F0
015
1CB
1D9
1D9
1C5
14F
198
01B
1CD
1F1
003
1C1
182
1C0
054
1E3
1E0
1FC
1DB
1DF
1EF
07F
1CD
1D3
1FA
011
019
00E
035
013
1CC
1EE
021
014
040
1AA
02A
1FD
1EA
002
008
02A
1D5
1FC
032
1F9
01B
01A
1FA
1EB
01A
1F9
020
1D9
1CD
001
1E0
1E1
1FF
002
1C7
1D0
1F1
1EE
002
1E4
1FE
001
1F8
1F9
020
1F6
012
1FA
1FC
1F7
1F8
011
1DE
1A6
1B8
1F6
022
015
002
1F2
1DE
1F7
031
043
028
01D
1E7
1D6
1EF
04A
074
05C
033
1E4
1FF
027
03A
046
041
041
00A
017
012
029
02E
043
066
023
04C
02B
005
016
01B
04F
006
017
02A
006
1FA
1D1
1F8
023
02C
033
1FB
1E8
1DD
1BB
00E
00D
02B
1EA
1F2
1F2
1F1
1E6
1EE
1E8
1F4
006
1F9
1ED
00D
1F1
009
1F7
1FB
010
1D8
1E7
1F7
003
001
010
024
00D
1EE
1EE
1FB
004
00C
1E9
014
00E
1D7
1EE
00B
1EE
01C
00B
00C
01D
1F6
1DA
009
1E5
1F1
1B2
003
007
1E7
1F8
1DF
1FF
1BF
1F1
020
1F4
1E7
1E7
01E
1E6
1D9
03D
030
1F4
1F7
021
001
1F0
023
02E
1F0
1C2
1FC
04F
020
032
028
1DD
1EB
1F9
03F
050
02C
00F
1DE
1EF
1DF
02F
042
1D7
1F8
1EC
1F2
1F8
01A
009
1DE
1E7
008
1F9
019
034
1FF
1E2
1F6
001
1F7
002
1FC
01B
1D7
1EA
006
00A
1ED
1CE
1FE
1C4
1FB
00C
1FD
014
1EE
1C6
1F0
1FC
018
000
030
017
1EF
1EC
00F
014
010
006
1D1
1ED
024
1F7
00E
1FA
1FE
1CC
1F4
013
020
1FE
013
1FE
1DF
1E5
1EC
017
014
1E7
011
1C9
1B8
1E1
018
004
1ED
005
1D1
1B5
1E4
007
00E
1FC
1F5
1F6
1C7
006
1FF
1EF
00C
1C4
1FE
1F0
1F8
1F4
1EC
1FE
00A
04D
1EB
1ED
1E1
009
1EC
01B
040
001
020
1FD
1EC
1F6
000
014
026
01C
024
1F2
1EC
005
009
035
011
1F7
026
014
1F8
1EF
018
04B
030
001
1F5
023
1D5
1D8
1EE
1D1
01C
1F5
1EA
