1F0
1F2
1FB
1CF
003
1CC
1FB
000
1E8
1E6
1BC
1CA
1F3
1DD
1F3
1F7
1EB
004
1C1
1B8
1F3
1E0
1F1
00A
1F3
027
02C
009
001
1EF
1E4
1EA
02F
046
029
1E8
1EB
1E0
1EF
039
030
050
1FB
00E
1FC
1F7
01D
013
06C
032
02B
00A
1F7
1DE
1EE
040
038
022
00A
1F7
1D7
1CC
048
02B
019
1FA
1DB
1C3
1AC
055
023
1E4
1F7
1EF
1E2
1D7
02D
1E2
1F5
009
1EF
012
040
02C
1B8
1E3
011
1F8
1F3
039
023
1D2
1BC
1D2
1EC
006
001
012
008
1FB
026
067
012
1E5
1EF
1EC
02E
05B
039
01A
1FA
1F4
1E9
00F
02B
010
005
1E2
1CC
018
1FD
02E
01A
018
1D4
1B1
1E2
00E
005
033
025
1E0
1CD
1D0
00F
031
027
1F9
1E5
1F7
1D3
1C4
1F6
1DB
1F7
1D2
01C
1EB
1F2
1BA
1D5
1ED
001
03F
1F7
1F6
1CF
1EE
1FE
020
03B
003
1EC
1F5
00C
011
032
031
026
005
006
1E8
01B
01F
1FA
01E
015
008
012
014
006
012
1FF
006
003
1F7
1FF
001
1EB
1FA
011
002
00E
1F9
00F
1E5
024
00B
01A
023
02F
1EC
016
1FE
1E4
1DF
00A
1F3
00B
030
1FE
005
1ED
015
1E2
1DE
01B
00A
005
1E1
006
001
1D9
1EB
016
01A
1DC
1DF
1F1
1E0
1E8
010
047
1F2
1F6
1F4
00C
1F7
000
017
1A5
1E2
1F5
1F3
1D3
1DE
1A7
170
1CB
1FD
003
1F0
1DB
1A0
1B7
1EA
016
1F5
1E1
012
1BB
1D2
00E
01F
015
00B
1FC
00C
022
020
1FB
005
1D6
000
015
017
1E9
1EB
1F8
1DD
1EB
040
027
1C1
1B4
00A
1E4
1FC
1FF
1E2
19D
1B5
1D8
1CB
012
012
1F8
029
019
1EA
018
003
027
1F2
1FA
001
1F6
026
1E8
006
00F
1FF
008
1ED
003
004
1FE
001
000
1EA
1F9
1E8
006
01B
1FC
1F0
1C9
1F7
1C8
1E0
04D
1F1
1E1
1D7
1D5
1E7
1EA
072
027
1F2
1DB
004
1E9
015
057
02F
012
1EF
000
1E1
033
031
021
019
017
011
00F
011
1F9
1E8
026
023
01B
1FC
029
1D9
1FF
017
01F
037
00F
1F2
1C8
1F3
00C
023
036
005
1A7
1AB
1D8
1E2
01B
01D
022
1FE
1DB
19F
174
1C6
1F2
1E0
