1C7
1C2
1B1
1D3
1E3
1F7
00D
1E6
1EA
01A
048
018
021
1F5
1EC
022
02A
063
076
057
01A
1D4
000
02B
03F
076
047
1C0
1E5
00C
027
00C
028
019
1E1
1BF
02B
017
1B9
012
009
1DF
1F2
023
1FB
1CE
019
1C2
1E2
038
1FA
1F7
012
1F9
1F7
1ED
002
018
1ED
003
1D3
015
026
014
002
1EE
001
1E4
00F
1DC
011
1D9
1E8
1F2
026
017
1F0
1E0
1E8
1C0
1F6
011
011
1A1
1EC
1E6
1DE
009
033
030
1D8
1D5
008
013
022
015
00F
003
1C8
1D1
1D6
1CB
00B
1D6
1E4
1D4
1BF
1C5
184
016
002
1F7
1DF
1C0
1CF
146
1A6
1CB
1FB
009
1B9
1B1
15A
14A
1D5
1E9
1EC
1B9
1B4
1BE
18B
1CA
009
1D8
1D7
1D5
1C7
1D1
1EC
1FA
00A
00F
016
00A
027
00F
1EC
01B
006
006
006
007
1F3
1CE
1F6
1FA
1FA
000
1F8
01C
1DA
01D
1FB
009
000
1FF
001
1EC
1F9
002
1CD
1EB
00D
024
1BA
1EA
002
1DD
004
002
1EF
1C5
1E1
1EC
1EF
1E2
1EE
004
1E9
1DF
00F
1F9
1FE
1DA
1EF
1F1
1E8
1C8
19E
1E2
1CB
1FD
1D2
005
01D
02F
1FA
1EA
1E1
1F8
1FF
027
022
1DE
1D2
1E4
015
1EC
003
005
1FE
1FB
1F1
1F4
1D2
019
047
027
01C
1F5
1D2
19D
01C
02D
01E
00D
007
1DA
1C5
1ED
02C
017
014
00E
1D7
005
1DA
026
003
027
021
1E7
1FC
1B0
001
003
000
012
1D6
1E5
1BA
1BA
1E0
1F9
011
1D3
1EF
18D
1C8
1FF
00B
00E
1DD
1C4
1BC
021
04B
005
1E9
1CA
1EF
021
063
02D
006
1E0
1F4
1FE
006
013
013
000
1C2
1DF
1F6
1AD
197
1AA
1D1
1EE
1FF
1A6
1EE
1E2
00F
1EB
1F8
01D
1D9
1EE
1CE
1CB
1FE
002
01E
004
1D6
1B7
1BD
1EA
1F2
00D
1D8
1D5
1E7
1F1
00A
008
1EA
1BA
1ED
1E6
1D6
000
001
1C5
007
1FF
008
007
021
001
1F4
000
1FB
004
1F6
030
00B
1FC
1E4
00E
005
014
028
005
1E7
01B
1FB
1E2
1FC
1EE
1F7
1E5
1FC
1E2
1AD
1B8
1FC
1DF
1EF
1FE
00F
1DB
1D1
023
003
006
1F9
1FA
1E3
1F9
004
1DA
1F6
1FA
1C7
1E3
1EB
1D8
195
02A
