3D83D2D9
3C007486
3E5D5E95
BE22F46C
BE042635
BCE1A13C
3D49A871
BD2554A0
3D80E248
3DF1FFEB
BDE311E1
BE5A5E09
BD9E45DD
3E01260E
BE0701D0
3E151B5B
3D6C116A
BE0B640A
BDBE9B40
BD97E30B
3D118640
3E001C58
3B241680
3D0A3934
BE1B6955
3DA194B9
3E173BC3
3BDC22EB
3DDDB195
BDB95323
BD62B870
BE076127
BCA96CB9
3E055CF2
3D4205D2
3E1ACE23
3D3B13B8
BE3CF175
BCEE8C5A
3D358A6B
BB7235CE
3D8C9885
BBD5A9B1
BD7ECA0A
BE55180D
BD868B20
3D6BB116
3DF7455F
3DAC0975
BDD9A5B5
BDA0B61B
3D87616C
BBBEA845
3D6D20B0
BC246D3E
3E946F64
3D3FBFCE
BB968BAD
3E595FDC
3CABE89B
BBBD8162
BBA302A8
3E951F15
3DD6DF1A
3E2A48D5
3D231D79
3D11B9B6
3DCE2C98
3D4C3BB0
3E24C138
3E4CF28C
3DAFAC6F
3DC3F57F
3D8A2044
BDC47CA2
BC68FA47
3C52C6BA
3D3A722E
BCD80434
3D64A19A
3BAC39FD
BC822654
3D3502EC
BE140C58
3D6E2D9D
BD378517
BD801CF2
BD963077
BE13E5EE
BDCB960A
BC9C23CD
BE1E6D97
BD8D76AB
3D59191C
BD71701C
BD9D2D7F
BE8A7D03
3E020C7B
BDE1EC4A
3DE89D72
3E2C3873
BC653CD8
BEA75885
BDE0FD26
BD5E0D61
BE28550D
BC8D18CC
BD35B2DC
3C99A46D
BCCF65C2
BE5F76CD
3DC21A04
BBD1EB4D
BCA68A77
BD2573A8
3CDDB3DA
3E04169D
3DCE89E3
BD52F895
BD9FA97E
BE5B8AE1
BCD3B983
3E19DB7B
3D60968D
3E3DE1E5
BDF64E73
3DC477BD
BEB54613
BDD2FFCB
3E27EB1C
3DA0711E
39C90B9E
3CEC0338
BD4CC9B2
BDFA3BA7
BD04E432
3BEB8602
3DA4696E
BDB0AD37
BEABCF2C
3CDFBA30
BE64D8A5
BE9EB5C5
BD801CCC
BDD1C6BD
BE5116EA
3DB43508
BE494149
BF141BA1
BE9D2C97
BE6CB794
BE38F9FF
BEA787AA
3E8AD89A
BE7B15DD
BE91CF3F
BE2CC75B
BE2D79A3
BDD7BE30
BE31DA63
3E7FE664
BD216F9F
BD60AF05
BCD8B2CA
3BA47D0C
BDA6B275
3CB3FAE8
3E265225
BDC2A011
BC6AE42F
3D86DEFF
BD525232
3DB74FA3
3CDF8E98
BDB1545F
BE0F9D31
3E1757D2
3DAEAC05
BD0691A4
3E080209
BD818CF4
3D8F30E5
3D677F65
BD570D00
BE3F3E9A
BE53979A
3CCF9891
BE0E4BDF
BB79666B
BD2F411E
BE6844F7
BEAFC690
BE62151A
BE086C41
BE8B26F4
3DD1EE74
BDB6AD79
3E0FA41F
3C77C66C
BD8D1B34
BE1B639C
BE65281D
3AC947C1
BDAF7DD6
3D3B3D29
BE1BC28C
BD8F9920
BD051B99
BD999EC7
BD0BF549
BD290487
BD12EB6D
BDC04587
BE7E4E34
BE773A5C
BEA1D481
BE66CC7F
3D064813
3DDBD8D0
3D7A9D44
3D6F03B8
BC94B868
BE311FB9
3BBFE51C
BDD1BE8B
3D4A01F7
BDB4C3D1
3E12C1CE
3D3D8BAB
BD9FC383
BDCFC837
BDE865AC
3DA153E0
3D372860
3E3C2771
3D5F9AE9
BD81A723
BD8239B7
3D7FB5A4
3E3E861F
3E2FBE76
3E3A1F03
3E3DBCE6
3CC655E5
BD25FD77
3E14C0C7
3E1EF803
3E5CB19F
3DD08A92
3C3DFF92
3E180CC9
3E3BBC02
3D12D70E
BDA4D737
3D74CDAA
BDC0E6E4
BD7338C8
3E358D72
3ED9592D
BD70B583
BDB5355E
BE6CD5AB
BE2F82A6
BD702DF6
3F16D983
3EB6FDA5
3D9D6A98
3D045A92
BE09C72F
BC40B28F
3E5A4D49
3EEDA3FC
3EA33188
BDCDA1B1
BE122E38
BCD01FDB
BC398BF7
3E936360
3EA645D0
3E1C1370
3D30CF4F
3C9B19C6
BD454F7F
BD91C2F7
3E3A6219
3E000941
BCF04ED3
BD9700B8
3E0611F5
3AC0BA83
3C41667B
BCE6157D
BD825E04
3E3006A4
BE0C87C4
3DBB38DC
3E864BE9
3E5BDC9E
BDCC986F
BD29076A
BB75A82A
BDB72720
3B3F1B95
BCD2F161
3C1F8C31
3CC5C067
3C58A392
BBE40C6D
BD2EB6AE
3CDBABC8
3DAF70EF
3D99ECFD
BCB0D6B5
3AD7C3FD
3D5F4CE5
BCABFCA5
BC33A925
3DCCEC66
BD9EEC12
BE053F50
BC489F05
BD0F245C
BD8C5FF5
BC0A57A3
3D55E49D
BE2C78F5
BE33F629
BD145531
BE33079C
3D64B5AC
3D75C9FF
39F8A0F4
BE71814D
BE00C9EE
BDE09449
3A73CB2C
3E3DCACA
3E10F1CC
3DB2B010
BD9BDB76
BDDF0ED4
BDD2C472
3E4A50E8
3E3BE68A
3E0BD679
3D1D1B9E
BCE965E2
BDB8D98A
BD94F99E
3EACA9B9
BD12BCA9
3D76E152
BDBAE1B6
39A27E81
BC91744F
3D920B44
3DD4B457
3DAA13CE
BE1930EC
BC4CBD4A
3CA42219
3DB6DBEB
3D93E080
3D4503C8
3DB56C82
BDD6CE43
3D9C89FD
3DA55993
3EA657F4
3DF1E821
3C23BAFC
BE4301D4
BE471EB3
3D2900FC
BA972ACE
3E873E1F
3E1A763A
3E2F6361
BD8FED29
BEAC1B74
BD01D348
3E5A8FD9
3EA5B847
3B9F356F
3E439A4D
3C8A37F3
3C40E577
BE5B41C8
BE546726
3DD3EB98
3BB468D5
3D5B12C0
