3D220FC2
BE59809A
BE21693B
3D062689
3DDA5254
BD0701C2
3D97CBDC
BD85B3EC
BE395ACC
BD3C23EB
BD84E0A3
3E36DEEB
3E3EEF92
3E0F4750
BE46D4EC
BD9802D3
BD449BE8
3CFE47A2
BDB8D963
3D7CA99A
3DB4E6A7
BE974CD0
BDD782D8
3D2618BC
3BA229DD
BE00B985
BDF37652
3D39C8E0
BE443CA5
BDC321FC
3DCE1020
BBC586A9
BE8745C0
BD2CD032
3D7571E6
BD2D0076
3D25788B
3D04C91B
BE2124FB
BEAA8B2F
BE0BF82C
3DB8A359
3CB7319B
BD332BED
3CCC71B6
BE55E5E8
BEA246AB
BDC70B5A
3E07EF80
3DEB6F78
BC76AC7C
3C68EBFF
BE295D1A
BDDB3877
BDECC189
BEB7E247
3C496560
BE042532
BD287121
BDDBCE0A
BE1E0358
BDB7CC51
BE5CA81A
BDA3F029
BE4FB4E5
BDC0C756
BD528B1E
BDB7B683
3D5CAC28
3CEA0044
BC183EC7
BD8DAFB3
BD81658F
BD3AA47D
3D80FE0B
BCDE10DD
3DB62C65
3D949B45
BDCAC354
3DFC2A93
3DA5C614
3D8A31F8
3C797DD1
BC3094FF
BD94CEDE
BDA57F01
3DBB8C21
3DA27535
3BF68B34
3DDF77CD
3DD0C83E
BDC07653
3D0C315C
BCF6CB7C
3E3AF653
BC49F419
3E124DAF
3DDD859B
BD975670
BE8822D3
BC4C9075
3B21DBEE
3E62C890
BD8C756E
BDE7B473
BDF9720B
BE0DB2A9
3C3EC52B
BD8AC3F0
BD65674A
BD316AD9
BDA23843
BE961A17
BE415936
BD81BD6E
BE8D0231
BE7FA9A9
BEC18C92
3D99CD26
BE64DE8F
BD8ACFD4
3CD0C423
BEAAC444
BE2405B0
BE680D93
3D3BC4B5
BCE20C0E
3E23C414
3DF48302
BE6CB64E
BDD96D96
BE44CB0B
3E3BB920
BD2BDE6A
3D7FC900
3DDACD9C
BE3AC40B
BCD3FE4C
BDC6A8A6
3E84D38F
3E1A1DDA
3DA496BF
3E330695
3D03987B
3DD8AF17
BD307B7D
3DA9F6BE
3E1F02CE
3E0F5F98
3D829DF6
3DA5D311
3DB5F024
BD89AB75
BE9062BE
3DF1D8A2
BD36F48A
BC902D4F
3E48F254
3DA6EAAA
BCDB0F74
BE8FA235
3DC04B13
BE1BF1C8
BDB30F44
BDED6C57
BC6EE3B0
BD2BDBA8
BC839556
3DC37027
BDEC265D
BE355B08
BDE9B3A2
BD629E1A
3D0604F3
3B9BE71B
BDB75EBA
BE76000E
BE563B6F
BDBBBDD3
3C935685
3D51A9A0
3CD1323A
3C8E2C4D
BEB6C9FB
BE758CBC
BD779D89
BD384E3B
3DD0D70E
3D9C2A09
3D437BAD
BE85988F
BE1B621D
BD57A8FE
BCC88A93
BC9C89F9
3E0F4D47
BDBE187A
BE0D7F28
3C860113
3DA99DE9
BD8555F3
3E33EB61
BE0142CC
BDD4FC5D
BBF7E1C0
3C604F3F
3E190315
3DD31044
3E6242DD
BD9B7CDD
BD94C82B
BDA0D6F6
3DD6DDFD
3C719514
3EA21B07
3DDA471C
BDDF4B1B
3C5CB8CC
BE3D9313
3D75C4C4
BE066B36
3E5390ED
3E62B186
3D866A54
3D2846D9
BE080C5D
BDA1219D
3CF3C056
3E3FE5B0
3EDFFEDB
3EB9AC7B
BDF744EB
BE5D0BEF
BE1150AD
BE01E643
3E9C4618
3F194F14
3E0612B1
BE0E9B18
BE1511BB
BDFAA748
BBAA1D07
3E6355CD
3F17BF6E
3EDB444E
3D23F983
BDE93CE8
BDB7D51A
3DBFAE4C
3E6A6E3E
3E1A7E5D
3E4F5C6E
3B876BD0
3DA435B9
3C58C377
3DAEB383
3DD221C1
BE01C2BF
BE735521
BD5525C8
3E11737B
3E345CA4
3E218CE6
3D7B365C
BD41E6EB
BE2C492E
BD4C7242
3D317FA4
3D946441
3BE4B46D
3B8FCF32
BEEB00DF
BE4C2238
BE2092ED
3E08AE44
3E44E622
BBDE33F7
BE861F42
BE7B697B
BDD29AAC
BE205A18
BD0E9DF4
3DCF2093
BDF534B1
BE00381C
BDE25547
BD3E31E9
3DE7A4B3
3CD4CA69
3DCE98B4
3DB11029
BD3F64C2
BC7DE47F
3DE20FD6
BDA7AFA5
BDEB0809
BDF5AAD7
3D91FB92
3E0DDCF6
3D0502D0
BBCEC735
BE7534A8
BDCD6E35
3CB7AC06
3DE90CDD
3D944C8A
BC61AB00
3C728E1D
BDE9A74A
BB9A4F4F
3D73AA84
3E0445E9
3DCFFD73
BD60C679
BD857D54
BDDFC980
BD8A3C4E
3CAE5153
3D8C27CA
3D89FE32
BD9EDA93
3D89A314
BDBEAD18
BDEFDD2D
BD983CDA
3E4C476A
3D538657
BD9CB139
3D063773
BE32861A
BE2B2951
3D0501F1
3DA7EE5A
3D16F262
BE606266
3DDD34EC
BE7A90DE
BDA28753
3B3A7EB6
3D56AB64
3D690345
BC2E23BF
BE47C4EE
3D15C952
BDAE29D9
BBF7B7C4
BD0A7216
3DCD5ADC
3DA58713
3CFE0E1B
3E280B3E
3E8A7690
BD2904AE
3D4D1035
3D566598
3D6FAA7B
3D7F5BCD
3DDE088E
3E65E457
3DC4525F
3C875656
BD886363
3DE80D10
3D3D74D3
3E2A055C
3E1D964E
3DD068E7
BD6567C3
BD63B70E
BD835A14
BCCE737C
3D3349E8
3E2A4063
3E23145B
3D83920F
BD5788A5
BC11B964
BD8322B9
BDB2201C
3D8BD5C8
3E23D29D
3C331CD8
BE28DAB7
BCED3C0B
3A450522
BE05EAEE
BC282B47
3D869C5D
3D8FB26B
BE3C8FD4
BE5BB677
3D439A36
