3B56A074
BBD172FF
BDBF5856
3C42211B
BE584128
BD5C92BD
BE977F4B
3E0265F4
3E4D4D81
3C9C319D
BDCAA6F9
BE9CCDEE
BEA3A9D3
BE316854
3D80A181
3DED6AF6
BD106695
BE53937E
BE2DE9A8
3DE06A9E
BE00C551
3E62A5D9
3DC01668
3C359554
BD0A6F70
3DB1C30B
BC6B7DAF
BDA49761
3DE43909
3E1EA76A
3D469ED1
BBFDD2BB
3CBFCF25
BD28276E
BD607E01
3DB3C8FE
3DA309EE
3CE6371B
3C8D3A25
3BCA8458
BD73F528
BDC884A1
BD944321
BE0C960B
BE15EF34
3CCEB4F1
BD058442
BCAB1716
3D92C433
BE650DD4
BEDF2A72
BE9970B7
BC9BC9B3
BDCCD112
BD99421C
BCD8A357
BDB8C564
BE6F709B
BEAB2F34
BE1EF259
3D494396
BD9D9BA3
BDB664B2
BD530890
BDC65720
BE84FCAC
BD83D924
BC78DBA9
3D4B5D76
BDE83CFA
3D57CCF0
BC1EFEE7
BD05D02B
BCD48B6B
3D95C847
3DB536CA
BC2E6EA0
3D61675E
3D7EEC02
3D039F9B
3D49C220
3C8363D1
3D278459
3C92FFDA
BD691EF7
BCAAF938
3D086AE3
3DB00B3C
3BECC4FA
3CB7DD8B
BD8EF145
3E1C8B3E
3D14B56B
3DEAE3BD
3D09650C
3DAFBC9B
3DB8B99E
BD0F12A0
3D253F2C
3E15D636
BDC5C042
3C9626C9
BC8226AE
BECA6225
BE06CA38
3D509534
3DCFB451
BBDD3A91
BDEA84BC
BBDFFCD8
3D2A24C0
BE741138
BDAD5920
3D5A1E13
3D7F7217
3DAC9635
3D925239
BC335105
BCF83DB2
3C9A45A7
BCED13F6
BDFEC1BE
3D616BCD
3CD275BD
3CD761EF
BE0634CC
3D9C13EC
BE6988AA
BEB8CA87
BE1DB3E9
BDDE10CE
BDC69FE2
BD70F234
3CB60927
BD317382
BEDF698F
BE802A1B
BDA48780
BDC96065
3DB7DD9D
3E55E112
BDCB418F
BE935A24
BE37627B
BCD96D24
BC247E0F
3D2949FB
3E53A5AB
BDA05592
BD2E55E8
BDEF6C69
3D6AF2E3
3DA629BD
3D05696D
BD93A6DE
3DEE5B08
3D324ED3
3D40A8EB
3D234F24
BD0459EC
BCAAD9D0
3C9EAB87
3BA620CE
BDD4787E
3DD3BAE9
BD4AEC47
3A3E41FD
3CB23714
3DF26EF4
3D3A4727
BDC5C7FD
BE8142D1
BD39A5DC
3B6F85C8
3C98D8C3
3E33FE4A
3E816F7A
BE63DBFA
BE90898B
BE13F199
BD72CB92
BDF19696
3BEB2BC5
BBB0EB00
BE2CCA1F
BE4A13E0
BE047566
BD99C413
BE6E4274
BBBC323A
BE343323
BE061CCC
3BA739A5
BDAD1A2A
BC696BA7
BE227407
3D634859
3E33FC2F
3D84063C
3C138ED5
BCD16AB9
BDBA9ECE
BE4D4329
3D1618FF
3C94A5F9
3D83AC1D
BBA7EC09
BE0CCDFB
BD7984CE
BE3B7828
BBB76234
BC9D338C
BBC9947B
BDA2BDF8
BE3E4A7D
BE8F451A
BE435BD4
3D3D436A
3DAF5B7D
BE02F505
3CD725D1
3DEB9351
BF038C96
BD912305
BC04B5BD
3D9E1EED
3E1873CF
3E377244
BD5B84A8
BF0F8B8C
BEE5949A
BE18CA3F
BC110CDD
3D98375B
3DB805C0
BE06F430
BF2ECE76
BED4B4AD
BDDD662A
BC86DDEF
3D689E0F
3C8EA890
BE4E10C2
BE0CC46E
BDFFB70F
3AAA3D78
BD69A018
BD7B758A
BD3F2658
3DDA8AA6
BDDA87C3
BDA73B8D
3D181E8D
BDBBF2CA
BD2C41C9
3D9BA3A2
3DC59D5E
3D89F0BC
BE912FF7
BDE99D42
BDA262D6
BD77033E
3D7AAC95
3EA17EC4
BDDB4F6A
BF2A6EEA
3C979D0F
BD0ECCD2
3D4C0AF7
3E259410
3DAE9CEA
BEE1B96E
BEBC7157
3DD53640
3E2D14E6
3D940C5D
3E262F91
3D8ACBE0
BEC19411
BEC02974
BDDC30CD
BCFBFB72
3E34D90B
3D8E5C52
BDF0A771
BDE95DCE
BEB9ADCC
3E2E6AAB
BD9E8211
BB6A8118
3D92AE6E
BD8A603C
BB01CFDD
BD8B6B2A
3D76B257
3E28E599
BCEF6107
3DD84261
3E0BDD43
BE215155
3CF60E21
3DAC32E0
3D98013D
3DAC0498
3DCA7904
3CFFD524
3E26717C
BDBB1661
3D8C6A70
3D8E149B
3D2E7B72
3DC7B94B
3D42C2C4
BC162CD7
38954292
3D4EED0B
3D53D6B9
3D7A8C87
3D9A12C2
BD9339E4
3CD0947A
BD073502
BD2735FD
3E2896F7
3E6F28C9
3D63EEC5
BDB83E55
39B8FAF6
BDF104E7
BDF11B96
3C638FC7
3D40F0AF
3D7F3DB8
3CE782DF
BD72EBFD
BDC4EE91
BE113192
3C3E37BF
3D5CF042
3DCEE683
3DE41B2E
BD9FEC64
BE388FF9
3C94E985
3CC71074
3D6F43FA
3E3F3CF7
3D855E73
3C1FCDF8
3E1D91FE
3DB1C38F
3D406D28
3E2760F3
3D952C60
3D5D6DDE
3D4E5BCC
BD8ACD2C
BD9CAF9D
3E704C3A
3D8EBB2D
3DF81D23
BC7F71DA
BD3991E5
3C528B8A
3C64E88D
3E52C623
3DA15F31
3DE084EB
BCE16955
BDD9A708
3A4FD984
3E7EA942
3E76FCF4
3E200A77
3DB5C891
3CB8DFD2
BE74A875
BE46929D
3D0DA9F3
3EEC6556
3EE3B49D
3E2AB905
BDB3E404
BDE0364C
BEC3E2E6
BDAFC422
3C432E0F
BD75B09C
3D49FC5C
3D136B88
BE0D9AE0
BE9A268E
