3D76BB5E
3DFBE1FC
BDD324CF
BE384BE0
BE9D091A
BE500CF6
BDD4DC61
BCA15FDE
3DEA4758
BDE230FD
BE984B5A
BEE126BD
BE87EA3E
BE890EFE
3EBE3F5B
3D969031
BE3CD00A
BE11C1B8
3D3F8F7D
BD994F16
BE978FAC
3E47AAB0
3D840264
BD2D7264
BCE57CE8
3DB9A374
3D89697F
BE83A6E7
3DF1FE0E
3D5EB34D
3DA02146
3DB3F437
3DBC5FFC
3CD4DD8B
BDC06FB8
3E3040C2
BCFCC67C
BCD9F23D
3E270C77
3D302F1D
BE220287
BD836C35
BD929146
BE525B2C
BD263E0F
3C9A64F9
BD1CAB30
BDEDEEC1
BDADB11A
BEA80D4F
BE95C866
BE50C886
3CC13B9F
BDA0E28B
BCB71D01
BEB4D20D
BE9EE790
BEBBFAC7
BE587348
BDD9261F
3C35F873
3DB144F3
BE3E5E75
BE1AB2FF
BE3DE913
BDF3C3FE
3D8A4363
BD852A54
3D867675
B90C9552
BC1CF915
BD16B55F
BD2E81DD
3D5852AD
3D2EF34F
3D6A9885
BD58C8E0
3C449207
3C87ABAA
3D341E05
3BB17D91
3E0B2EE7
BCDF69E9
3CC57588
3A43C721
3D70C28B
3D92CC4D
3D6754FF
3DE038D3
3D4E9351
BDB11E23
3E527495
3E51D996
3DE05831
3C5AD7BD
BC973DA7
BDA3B31E
BDE1FE57
3D81D38B
3E0D2AEE
3D860809
3DC38890
BDF13703
BEACB9BE
BDB6B008
3CB9C226
3C8B35E9
BDB9ADE7
BDE432BB
BDD5FC3F
BEC57627
BE08E786
BA62C579
3D5A01ED
3DB77A32
3C9CC7CA
3CC67D8B
3E0B1D25
BE8DCE61
BE1FDB49
3D033C1E
3D7BFACF
3D8FE54B
3C8D45AB
3D563BD0
BEC6C46F
BDA585E1
BEB9EEB7
BE751D69
BE08518E
BD51FCEF
3D1AD8F5
BCC8F8A3
BBC0E185
BEC62D6C
BEBCE5F7
BE2BF22B
BCC02DD8
BC31DFCE
BDEE2548
3E84DAA9
BEB87E22
BECD6DE2
BDD94A3B
BD11DF10
BD424F53
BD5AC2EF
3E90430B
3D93474D
BE4E3EA2
3DA3D759
3CA67E7D
3D9BF71D
BE91D97A
3EA92C90
3E0438AE
BE48B58B
3DFD245A
3D485780
BCCA5F37
BE2C1DFD
3E6EF0A7
BCEEBE9D
BDF887FD
3D9DB4DC
3DDEB0AE
3C3035E3
BC38C9A6
3E4FBC55
BD6A922F
BDCEEFD3
BE215D91
3DE0C150
BCF48B51
BD8EECAC
3E3150E9
BDD09F90
BEBB0FA4
BE3A8E7F
3D380C4D
BB6C4B09
BDE6C875
BD8ABA17
BE84C199
BE4AA5B3
BD8DFF4C
BC9B1423
BDD188ED
BDADA7FD
3B33AEAB
BE171AFA
BE0AFDAB
BD2C831A
BD36AA46
BD6A9E88
BB1FD1C5
3D486125
3D69ABC0
3D926380
BCE63722
3CA670A7
BDF7562C
BDE722D2
3D9E1C9B
3CA779F9
3D43DD56
BD407D5D
BE7E84FC
BDD519D6
3C56FC13
3E19A38F
3DB10681
BE039A6B
BE8B0A91
BE84178A
BEAA55C0
BD89AA2E
3D0BC4F2
3C98C276
3D0C0CF1
3D8CEB98
BE20DF68
BF1DBB9F
BDD32F41
BD22056A
3D813979
3DFA03B8
BD53DEDC
BE588261
BF393B6E
BEA5A108
BE4E33A7
3E1C4802
3DF6215E
3D5C497D
BE87CE01
BF365593
BDACE79B
BE33A51E
3BA6FF4A
3D6B4F12
BB9D5035
BDDD826F
BE0A89BA
BE07204E
BE4798EC
BE1E36E2
BB8AA0D6
3D76995B
BBC14748
3D7EBC75
BE717444
BE335055
BDC9592F
3C08B752
3E189727
3DF8A8FA
BE481C95
BE840492
BE1E5318
BC819D46
3C932246
3E478E40
3D9F32DB
BF2F0BE0
BDAA7ABD
BE18605C
BDA7537C
3E0F73CD
3E6DEF21
BC867F73
BEE3E914
BE0DF784
3D66EAFC
3E4114DA
3DDE4DC6
3E01007C
BDBE135E
BEDC68A6
BE9529F5
BD8CB2F4
3D30CE69
3D757DE9
BD88DB26
BE177FDA
BE022543
BE4A91B1
3CC5FF20
3D30BAEB
3D88E159
BB3F0946
BC7087ED
BE597E13
3C961A03
3E258319
3C90D57A
3C56D109
3E551E8B
3BC7AA31
3DA1F351
BD921D05
3DB8A7C4
3D38791F
BB2EACA6
3DAFFACE
BCCE3A4F
BD2BF7D0
3D2AFCD1
3D7AADD7
3D36B2C5
3BE2BA4F
3DF885D2
BD8ABDD4
3A86D97F
BCCEA6D0
3D461885
3DC8D644
3E05453B
3D5FC3CB
BD8C379E
3D629602
3D4D08C7
3DF8608A
3DD7D007
3E18B7FF
BC0AA621
BE048B50
BBC4C679
BE7EDAC1
3CBA61E5
3D3EA1FC
3DC11AC3
3E04AF46
BDA4870F
BE4A13C0
BEA9BAFC
3D708F50
BC76FB22
3D61638D
3E692272
BC7C10A2
BD27E914
BC83203B
3CF514C4
BE04BC0C
3D28B284
3DE2894E
3D80A4E5
3E19775C
BDA070C0
3DF09957
3D7A04F0
BB43BBD0
3DDE5E77
3B6BDA2B
BBBC77DC
BDB2531C
3CC31664
3DF47325
3E06A508
3D94DDC7
BD8828B1
BC81E4BE
BE89E71B
3CF79E09
3E2C1AAC
3E0F8DC0
BD5EDC17
BD8DB3B2
3B12BF07
BDFF8FB5
3EB2CD51
3E7A1184
3E3BB8EF
3D17244A
BE2C7BFC
BE4B0719
BEA81936
3E855021
3ECD3E9C
3EA8D745
BDF1F14E
BD50B5D0
BE2513B7
BDA1B95E
BD84E74D
BDBEDB24
3BF8E2E2
3D80A0C0
BC99F274
BE43CB28
BDB6A1B8
