00D
1E1
1AB
1B4
1BE
18A
002
1D9
152
1D5
197
1ED
1BC
1D8
1A7
02C
006
1EB
1C5
1A8
1A9
029
02A
00E
1F2
19C
174
19D
017
00D
00A
004
1F6
1C5
194
1F9
007
1F0
020
012
00C
1AE
1E9
1F6
019
00A
025
000
1D1
1E2
1F5
00B
013
021
008
008
003
1FE
1E4
1F7
1F6
1F3
1C4
1D7
020
00B
00D
1F1
1D3
196
019
024
00C
1F1
1D6
006
1B4
001
01D
1F5
1EA
00A
013
008
00B
1E2
1C1
008
01A
00E
000
004
1FC
1E9
02A
02D
009
006
1FA
00A
1F4
1F3
1F0
001
00D
00A
1E3
1ED
00F
1D9
1D9
1F9
1DD
1AF
1DF
023
029
1FB
1F4
1F2
1E3
1E1
1F0
018
007
1C8
1EC
1EA
1DB
1E5
002
1C7
1C7
1FB
1BE
00A
011
1C9
1C4
1C7
1F8
1EE
026
038
1CE
1BB
1DB
011
1F8
037
02E
1EF
1CF
193
01B
010
031
025
1F4
1C2
17B
1FC
011
02B
1DD
1E4
1C8
1AC
017
1F5
016
1EC
1CA
1EA
00B
1F5
1D8
1D8
1E6
1EC
1F7
00E
1F5
1DB
1FB
1EB
002
1F9
020
1FA
009
1F9
01C
010
013
00F
1FA
1E8
00B
1DD
1CE
1C8
008
1FB
1E5
1E7
1E9
1EA
1EA
1DE
1E0
196
1BC
017
02D
019
1FE
1AE
16C
174
1EC
00A
018
1EF
1D2
182
1C1
1EA
003
018
004
01E
01D
00A
1FC
1F9
006
1FD
009
028
012
1D6
00A
002
1E8
1D9
00F
009
1C5
002
1F4
1B8
1E9
010
1D2
1B4
004
006
1B6
1EB
1FD
1B1
1EA
00C
1FB
1FE
011
1D5
1B5
01D
004
1FF
010
001
1A9
1B7
01C
008
1ED
028
1D5
1ED
00C
034
1F8
1EE
03B
017
032
036
02D
017
025
00B
1F1
1CE
1A4
1AD
1E8
1C6
1BF
1E4
184
1FD
1FB
1E5
1ED
1AF
1CA
01B
019
025
012
011
003
01A
02A
011
00A
018
00E
1EF
023
00E
03B
01F
01B
019
010
015
019
021
010
00A
00A
1D8
1E5
1CB
02E
005
00F
1F9
1D8
1C8
19E
026
1D9
1F5
1E8
1C5
1F3
1B0
016
1D8
1C9
1D6
1D6
1A1
1F0
1EA
1CB
008
1D3
020
1EA
015
1E1
1FD
1D4
1FD
010
1F0
025
010
006
1FC
001
01C
003
011
1F1
010
01B
026
02C
02F
01E
046
02A
026
038
1FC
