012
058
069
04F
01E
037
1F4
1F4
05E
04D
03E
006
000
017
1FA
00C
028
02D
011
00D
1D5
1D9
039
02C
00F
1E1
1DD
1C5
1C0
032
024
1FA
1CC
1B4
023
1AF
025
1FA
1D0
1D1
1BF
1C2
1BD
011
004
1F5
1E7
1ED
18C
1A3
1FC
00E
1FE
1F4
1FD
1E7
1D6
1EB
1F2
1D8
015
007
1D1
1F7
1E4
1F6
01D
00A
008
1CA
1EC
1FA
02A
015
1DA
1F6
1E7
1C2
1C4
00F
03B
1FE
1AB
1EB
00F
19C
010
01D
1ED
014
1C5
1EA
1E4
181
1C0
1DF
00A
1D7
1F6
004
1D5
1DC
00E
013
004
1FB
1F9
1B0
188
1E0
1E3
1F9
1FA
1E3
190
192
1D5
03C
01F
00D
1EC
19D
1AB
022
04D
036
019
1F8
17B
1C1
00C
043
002
00B
1D9
19C
1A3
005
009
1E3
1F5
1E0
1B4
1AF
1E6
1E4
1CF
1FD
006
1DF
1D9
1F2
1DC
009
1D9
1F9
002
1FD
016
021
02C
000
003
012
00D
016
003
017
1E6
1F6
014
01F
00B
1FB
1E7
1FE
1E4
00C
015
00D
00F
1FC
1D5
1EF
023
002
004
003
1DF
1FE
1E2
1E0
1F4
1E9
002
1DA
012
02F
037
1F4
1E4
00B
01A
00F
023
020
1D1
1EA
002
015
1E0
1D3
1CB
1DD
1D0
1EE
1E3
1F3
1BE
1E3
1E3
1DA
1D4
1EA
00F
1D4
006
1E5
1E5
1E8
1E8
015
1E9
1F4
00F
002
1D1
001
018
196
01F
012
003
1D3
010
009
18B
023
008
1EF
1E9
01D
1D7
1C2
032
016
1F3
002
002
003
1F9
046
018
00D
014
01D
012
1EA
036
01A
1E2
01C
001
00A
1F1
1F1
1BA
004
1E9
005
1EE
005
1DC
1DE
1C6
1E3
1F6
1E5
1FE
1DD
1A5
1E2
1E6
1BE
001
037
053
04C
01D
00B
014
1FA
01B
018
1ED
1FF
1FF
017
000
002
1DB
00B
1E6
1CF
1EA
01C
1F7
001
1EB
1D0
1DD
1E0
1F3
1FB
1DA
1F2
1EA
1E9
1FD
1C0
1F3
1F6
024
00D
001
00D
1E1
1C8
1E7
03F
021
01E
022
1D1
1DC
1D9
035
01C
012
1FD
1F5
1D1
1CF
015
017
1EB
1F8
024
19B
1D3
008
018
1F1
007
1DF
1BA
1D6
1EC
00B
004
1F5
1DD
1C4
1B7
011
021
1E9
1DF
1DB
1C3
1B9
1BC
1E4
1D2
1CA
1ED
1F7
1E6
1BD
19C
1BD
1E4
