1DE
1AC
16A
1DD
174
00C
1F6
1DC
1E1
1AE
1F7
1C8
1D4
1C0
1D3
1C4
1CE
1BE
1F1
00D
1D3
1B4
1E7
1EB
1C0
00E
035
006
1DA
008
018
014
023
01C
1E0
1FC
1E6
1F0
028
015
1F0
1F6
1F1
1F8
1CC
010
000
1F3
1DD
009
1FB
1F0
1FD
016
1F3
1CD
1E1
004
1E0
008
1FE
1D4
021
1C0
004
018
1FE
1E7
1EA
1C5
1B2
006
1F6
019
018
1CA
002
1F4
1EB
1DA
01A
004
1C1
1B4
021
1EE
1C9
1F4
1EA
1BA
1E5
1D0
018
00A
027
002
1EB
1DB
009
00B
00D
1F7
006
023
021
010
1FA
1EF
1F4
00F
001
00D
042
04A
053
03E
1FD
1F7
013
1F5
02B
030
021
1F9
1B2
1CF
007
017
020
029
00C
1B7
1DC
00C
040
01A
003
029
1F7
1CC
018
026
007
1EF
011
1E5
1C4
019
001
1F8
1D2
012
1E5
1C1
1E5
002
1CB
1E5
008
1FD
006
1F4
1EB
1B4
1DA
022
00B
1CE
1EC
1E3
1C2
1F3
1E2
1F4
015
004
1D5
1E1
1F0
1DC
1CA
1DD
014
1F2
1EF
1E7
1F0
1E9
1FB
00D
009
1E9
1EB
1F1
005
1FB
000
1A9
1AE
1CF
1C6
1E7
023
1EA
1F9
013
1F9
1FD
198
1C8
008
05E
031
01A
1F9
1E5
1A9
046
092
048
1FA
1F6
00C
1CE
034
03E
1F5
1FB
012
006
1D6
00E
1BB
1D8
1C5
016
003
1EE
1CF
1DA
1D4
1EB
024
02C
1EB
1D4
00B
1EE
1E5
00B
029
1E9
1E6
021
04D
1CF
014
026
1FC
00C
052
047
1F5
1EE
009
1C1
1E3
1FE
1F3
019
1F8
1EF
1DA
1DE
1BB
019
03E
1F7
1EB
1E0
00D
1F9
04C
024
006
00B
1DC
000
02E
046
036
016
02E
1F5
015
1CB
18D
1C9
1C2
006
003
026
1AF
1DD
1E1
1F1
1C9
19B
004
1ED
1E3
1EF
1FA
1DA
1B4
1DB
1F6
1F7
016
01E
016
1E5
1FC
1FD
005
025
019
01D
1D0
1D8
01B
00F
1F8
01F
003
1E4
003
03F
1C3
1C7
016
033
1EA
1F3
045
1C0
1EC
00D
1FB
1FB
002
06A
1E1
007
00D
021
1D9
1F0
01D
1DB
1CF
1FA
005
1CA
1D1
1ED
1D3
1ED
1D9
1DF
1A7
00F
001
1B2
1D0
1D8
1EE
1C3
01F
020
1F4
1E7
1E3
00A
1E9
1DC
052
01A
013
010
031
020
