1F3
1E4
1BE
1FF
00A
1E8
1F0
1F9
1D1
1F1
00D
1FA
1FF
026
1A4
002
00E
1FC
1DC
1D1
1E9
1CE
1F3
017
1FB
1C3
1E9
1EE
001
1E6
1E8
1D4
1E2
01D
015
1F9
1E0
008
1EE
1F4
022
1CD
01B
1F9
027
02B
1E1
1A4
1BF
1A9
03C
01B
023
1CA
198
1F8
19A
03C
041
020
1D6
008
1FC
1DB
1FB
020
00C
015
02E
1BE
1CD
1DD
1C7
1FB
1FD
004
1D8
1FC
1FF
004
019
004
1E0
1FA
1B4
009
029
00F
1FF
1E5
1E9
1DC
032
00D
1FD
1F8
017
013
1BD
1C3
1D5
1D5
1D0
1CA
1B6
1C7
196
1C1
022
1E6
007
1E8
1B2
1F1
1EF
01F
1E0
02F
01E
1DB
013
1EA
1FA
1CE
00D
1C3
1EE
1F4
1ED
1EB
1E2
1FA
1E2
1F6
011
1FE
1EA
1CF
1FA
1E1
1F2
1E6
1DE
018
1F0
020
004
1E9
013
1DC
1F7
005
020
016
1D0
1F1
1F6
1EB
1F6
004
1D5
1ED
1E9
1C4
1CF
1E2
1BC
1CB
1EA
1E7
1FB
01A
019
1E6
1FF
003
003
013
004
00A
010
009
1D9
1F9
011
00D
1ED
005
1E8
1D5
1FB
008
1F6
00E
017
1EB
1C2
1C1
1F8
00C
1E9
1E6
005
1D7
1D1
1F7
00C
010
00A
1FD
1AB
1BB
1C8
1E8
00E
025
01B
1CF
1EE
024
010
1ED
029
001
1E9
1FA
029
020
1EE
1FA
019
01B
1EE
031
003
1EF
01B
00F
029
018
015
007
1FD
1FD
002
1E2
1D5
1B4
002
016
00B
002
1D5
186
17F
004
019
1EF
1F4
1C5
19D
1FC
01A
1F2
1DF
002
1FD
1E9
018
01D
1E7
00D
1FB
1FD
1EE
014
1E3
1EF
1F5
020
000
004
1B4
1D5
010
000
018
1B0
1C8
191
1D3
01C
1F6
1E2
1EF
1E3
1D4
1FA
1F7
1EA
007
1F8
1D9
015
00C
1F5
002
00E
1B3
00B
005
007
009
00B
000
01A
02E
024
018
1F0
1F9
006
012
1EB
016
019
02A
007
014
02F
002
1F4
01B
024
00E
015
018
1F9
1E1
1F9
030
1F1
1E1
1C6
1F9
1FE
1F1
007
1FA
1E9
1D0
016
00A
1F7
00A
1FA
1EE
008
1F7
1EE
01E
000
1FC
00C
1EB
1CC
1F4
1F9
1E7
1FE
00E
1F2
1E6
1E3
1F6
1DE
1F1
020
186
1D5
1CA
020
005
1F4
1F1
1DF
1A0
184
1AC
1E1
006
184
