3D15F2D1
BE6C3A67
BE9CE848
BDEC07A7
BEBEB1AA
3C0CC3C6
BE0850E4
BC2376D1
BE090D58
BE90A612
BD899310
BDDA4591
3D04B619
BE5F8176
3D60C340
BD69AB09
BE0831DE
BE9F898F
3DAB751E
3DBF7428
BE994652
BDE2B366
BE370852
BD8AA29E
BD7D7CE7
3DC16A2F
3DA354D7
3BB00E6D
BD56B53A
BDCF5F8C
3DDB3F17
3CEC5B7E
3E018D27
3D7C589A
BE1C2DE9
3D7598AF
3D901220
3E27AA01
BC8FAB2A
3D348CBA
BD9A4124
BD9D7420
3D4A0CA8
3DF2C926
BD2CFD44
BD0440D8
3D546084
3D017D9F
BE13F512
3E240815
3DD25629
BE832F74
BDF1029D
3DD01BA6
BE319C66
BE9CA71C
3D392BE1
3DC02DB3
BE68E328
BDCF388C
3DD5C22D
3DE123DF
BE347C94
BD8434BF
BE1315FE
3D035819
3BDD5826
3E24FD07
BD36E4F5
BE621302
BD78921D
BB271F74
3CEC8786
BC369B47
BC92AB8A
BC3BF240
BD49A33C
3D5F8045
3C2E8146
BD0AED8C
BD211CA8
BD8B103D
BE1FD99E
BE620460
3DF8DF24
3D677F21
BCA254B8
BD1EA52E
3D84AC75
BDA3A350
BE7B9E20
BB9AAE5C
3DE33B40
3AEE407A
BDC92B47
3D782933
3D87DAA9
BE3D1644
BDE2C416
BE765BE8
BE5DFB3B
BEF8E3DC
BE95F6DC
BE681C5C
3C548248
3D9F6210
3C217B3A
BD80F476
BE9B8421
BEBBB532
BE5CBFDA
BD4A6E5D
3CDFD2A9
3E59D478
3E6D40E6
3DC77518
BE2570E6
BD026808
BE7BE049
3D9081BA
3E8D7AC8
3E202E92
3D3DE03C
BB867980
BE3EE51B
BDB60CDA
3E573F28
3EA4E757
3DA6A577
BCBB6E98
BBC9D8FF
BE4A8453
BE8D0E47
3DE5CB22
BDED9B94
3D044B33
3DF41FB0
BD028E1D
3C0DDDDE
BE0393C6
BE16DCF3
BE2ED2C3
3DFBC456
BCF49228
BC8A86B2
BDB1415E
BE1762E3
BE9D9D9A
BD6704E1
BD6D3712
BE3EF47E
BE6032B2
BD85D761
BE63749C
BE92A4D2
3A20EFA0
3C45442E
BDF3077D
BE2345DA
BDDA9D1E
BDE1AC9E
BE269CB2
3C8E218F
3C49D48C
BD9E08F2
BB53747B
BD19D6ED
BE547601
BE5E1D15
BDC388E2
BC9B1573
BC68A267
BD876222
BE7B44FC
BC353433
BE1FCAAE
BD95BF14
3E27BD50
3DA12AD1
BCBB1559
BDAB14E1
BE5B2353
BC067E7E
3EA51F08
3E5EA818
3E6A16C7
3D52362E
BD8AB47A
BE3BEF0A
3D2DEF61
3E7A855C
3E8EA043
3E451C48
3DEA5C05
3CD92ECF
BE146F4B
BD92BB9A
BED23405
BD3CE5A8
BE2DBADC
BD905655
BDC80450
3D582E6E
3D8EE06E
BD7691FD
3DB2AE14
BCB64B41
3998F39F
BE8B4F01
BE052B6A
3C487609
3DA3002F
BDACCF15
BC1FA3DB
3C742F09
3E03DF0C
3C994FE2
BD107A63
BE665EB2
BE2F3202
B904963B
3D98A48F
BDBD4653
3D9DDF9E
3D6B3C87
3C1219A1
3DD525DF
3EB48788
3E4462CA
BDC4C477
BE60BEC2
3DF3427D
3D66716E
3E88F100
3E7EC37D
BD929CD0
BE51C49E
BDEE9C92
3C00A4D3
3E8F3C5F
3D60468D
3E81F53F
BDBF6C97
BEE0AA47
3DCDCA5B
BCF0D95A
3E6BFA99
3E0ED29A
3E267BA2
3E3B0CF2
BE21B042
BE773550
3CD2E888
3DDDE89F
3D6A4F90
BC110634
3E251DDF
3DEB58A9
3E3E010D
3D4B6309
3C1D4D21
3D994804
BD9C4765
3D9C5056
BD974920
BE63B10F
3DB6B73C
BBCB70CE
BD6A5EC4
BC8E293B
BC3685FD
3AA5781F
3DC6339F
3E1A3684
3DC0755A
BDA50F19
BDF5D3C1
BDECAD88
BD601188
3DFCAC7D
BD8F2F5E
BDB1204F
BE223E4A
BE016751
BE0A5FEF
BD627D14
3DA35388
3DF79B63
BD3670DC
BE399A92
BE36BCDB
BE58DBF4
BE9913B0
3E038F43
BDE2F91F
BEC77796
BE7E4FF2
BE89B7A5
BD3B9873
BE5D4583
BE221C59
3D9759F8
BDBC13D1
BD20C5D9
BD0E17E3
BEC241C2
3C65B0E1
BDDC1AEB
3DBE0720
3DD2ACA0
3BD99978
3D191AB6
3CEB7F50
BE34B774
BE4D285C
BD2F682D
3D66EE3E
3E13FF35
3CB00139
3DCD921D
BD9BCACC
BE427A81
3D05B6AA
3E65FD70
3E081159
3E1FA48D
BC8CEA67
3C2404AE
BE357D5D
3C95998B
3E3B1C49
BD99FB74
BE15EC3F
BD122C65
BB2D6AAE
BE2386A4
3B0A081D
3D2FE41B
BE93DD87
BE72862C
BD1C24E0
BD7973E1
BCCD4D4C
BDBBAD3E
BCF04AFE
BE93736B
BE5CE925
3D632B20
BC334147
BE899948
BE0E66B9
3C908552
BE751B78
B99E7CA4
3E11B77C
BCA5C9ED
3BB028C4
BD4FA1D7
BDBF534F
BE9DB835
BE22C7C7
3D0895A1
BE113216
BDFE9BBB
3D90276F
BDCC9687
BEC4CDEB
BDFCC271
BE46FCBD
BE35383A
BE41ED6B
3D1B5FE3
BCAD0146
BE97828D
BE411A9D
BDB79ECB
BD3391D1
BE177668
3C34921E
BC6208C7
BE6DD685
BDB24B64
BD3FF8C6
3E022D23
BD634C90
BE735519
BBD9AD75
3D95D03F
BB72FBBC
3C03B978
3E41E800
BD0E73BF
