3DBC75EC
BD9F5E42
3D8C5D3F
3C844A09
3CCBF8B4
BD7B11BF
3CDFFB03
BDC2975F
3D5AEA79
BE2F1ADD
3CD139AD
BCDA6058
BD041B46
BEA1DEFE
3B5CD85E
BE0A4CA2
BD38F217
BCB0F7D6
BD0E9991
BD3E58FB
BD9AAF11
BE103890
BD827CBC
3DC2C6F0
BD83EED6
BDB2AD40
BD2BFC2B
BE0C16D8
BD9EC42E
3E2264B8
3C8102E9
BBECD650
BE165B79
39083EC8
BE6CD377
BDB512D2
3E35A98E
3E09E27F
BC51BB67
3DA6BFDC
3DD38A3A
BD0CED0C
BDE6B47B
3E14348A
3D4FF183
BE3DD080
3D72C88A
3E36A047
398CB504
3DD1D730
3E170425
3D4FBC2A
BE7B5D19
3DBB1850
3E2D6923
BD6740A8
3D81C55C
3E0A3AD0
3D7A316D
BC97B66C
3CCC03BC
3D07EEFF
BD2D6D44
3D9906FC
3D2551A3
3D3D7C91
3D280DC9
3A0CA787
3D39730E
BC6CF15E
3DD44D0A
3D06AADC
3D4CBAD5
3DBE564B
BCB3837B
3C97B798
3D071031
BD2EA6E2
BBC86831
3C05E64A
3DEA07C9
BE18010F
3D4656C7
BE44C378
3E6C6492
3D878310
BD8772C3
BDB7161A
3D454A3B
BDE19707
BD9785CC
BDD47543
BDC01B10
BD6C1412
BDD668E8
BE3EE61D
BEBD117E
BE64429B
BCF1C350
3C64F9E3
BD56C6B8
BC23C8FC
BE5B8D1A
3C3C69F4
BDAFC4D4
BBC77E73
BE081819
3D177AF9
BB85BEF9
BCF0D263
BD940C23
BD9A0A7E
3BA83E61
BE3D4082
BD969239
BD733D45
3DF5D988
3D4ACE54
BDED2115
BDA02EA1
BDC8948E
BE42F523
BB843A10
3DD92743
3E3B36B7
BEA1EC32
3DCC119F
BD245673
BE0BDEA8
3DCB43BB
3E6C446D
3E57ABBA
BEA42825
BBB0F3D3
BD043192
3DED1E9E
3CFA296F
3E33C42A
3E4C7114
BE8BCC77
BDADD6E2
3C039C84
3E301750
BDA350A2
3CC4CD86
3E1A9D58
BE533AD3
BDBBC2D9
3D711847
3D8D931B
BD81C311
BCF1B5DD
3C20EC73
BD2D90EE
BE621B1D
3DC21BD6
3DADBCC4
BEC58DD0
BD598453
3DA89432
BD4A5DAA
BD92A899
3D968E5D
3E2574EE
BEB61454
3D2BC10F
BCEC83BE
BCE87B2A
3D64D43F
3E1985D2
3E0C26F3
BDF34DD2
BD90110D
BD9C4078
3D309F10
3DD2F37D
3DF6F174
3D5E8A46
BD4F16D5
BDE0CA5B
3CB0E98B
BE4F8281
3D6BEAE8
BDB4EE0B
BC6CE04C
BE7D463C
BE33C362
BDB56080
BE29FDFE
BCD8FB07
BE937E44
BE181111
BE896DED
BE15BB00
BE73E3CA
BE83769E
BD741519
BC81FA27
BD92F6DE
BDB4FE52
BDCAE8B3
BDA0CA19
3C099BD5
3D3BD23C
BDB29274
3D1B6DAB
BD5F1BE5
BD2C256B
BE02072A
BE116DCB
3DA92CBB
3D8E6345
BE1AC1A3
BCF1A520
BE63DC24
BD0803D8
3C2DD4D9
BDD1B14E
BC63B114
BC9DF685
3CF007D9
BD8FEBF1
BE59742C
BD5D7671
3C91180F
3DB71123
3BF0A8D4
BDDE6F75
BD50F36F
BDA5A80D
BE3B674D
3DB25C29
3D55CF21
BBF8480E
BE8FCB0F
BC3393F7
BDB2AC20
BE80E5B6
3DA087AE
3E39F560
BDD4151D
BDFE11C5
BDD8DD88
3C103D36
BEB191C1
3D15F8E5
BCDECF0B
BE9E0212
BE025D6E
BC50F76B
BDF7C8A4
BE878200
3DA493AA
BD872D58
BE3C25D2
BE8096DE
3D847BEC
BEA6E9AC
BE5D3C76
3DB428DC
BE025BFF
BEB32457
BDF92D3F
BD6510C6
BDEC3ACB
BCD15AA0
3E4958C6
BC54632D
BE13EA35
BD6B8BAE
3E35CC80
BD3236C4
BE0A17A2
BDA3DE55
BE1A22A1
BDECADE7
3DD930AF
BD7880FD
BD6B9C9B
BE5BDB96
3E30DE88
BCC84602
3D6CB167
3DA610C5
3B9BE091
BD475102
3BAB848C
BE26606B
3DFDBBB4
3D4B8FF8
3E051D9B
BE29931C
BDEE5CCE
BE3EE846
3C8CDD05
3CC36F91
BD189806
BE0FFB76
BCF9EA8A
BE251BEA
3D805A55
3DE99CAD
BC85AE75
BDAC5D39
3A9E1F6E
BCF8D637
3D0AB704
3DE22643
3A8BA225
3C7461FA
3D104F9D
BAD2CA14
BCF04D81
3E0C707A
BCA9D0BE
BE0BB59F
BC9A95AC
BD3BB5EE
3DC3442F
BC1349A6
3DD0ECFC
BE0E8CD3
BDA88673
BD7A9379
BDA3A15D
3D94CEEB
BC149F94
3DE17EBD
3B33951E
3DA363DA
3C4EAC8B
BE2AA7E1
BE2AA4AD
BDFB3827
BA94B45F
BDE9E754
BBA97C05
BD137FCD
BE82D941
BF0B0CF5
BE1F8E13
3DEA7102
3E0A5A57
3D9847A2
3D157356
BE56F015
BE98B8BB
BDE9656A
BD93E5BC
3D9E8B44
BE3F75BF
BDA0CD04
BCF4EC2B
BD1E4891
BE30217D
3CE00CD6
BDC87990
BE123465
3C1FA28D
3E0436ED
BD285F59
BD5640B2
BE4FD737
BE0DD254
BE68ECF5
3C83BFB7
3DB05B40
3D367717
BD72F0AD
BDEF93BC
BD91BEB1
BE7AEE12
BDB9DE1E
3C32918D
BD6B4251
BDEBCCFD
BE806E57
BD6C81DC
BE64CC4A
BED35D32
BE4C1FA6
BEACDC8A
BEAE1A44
BED77491
BC572902
3BCCF541
3CC2B3A5
3C887CFC
BDD2E82C
BE7E3180
BE821E6E
3B41C95C
