1E1
1DE
00B
1DB
1E0
00A
1FC
1B5
1EF
1D9
1A8
1CC
1C8
1E4
1E0
1F3
1EE
1EB
1A8
18A
1F7
1FA
1D7
018
00A
022
01D
000
017
1D7
1F9
00B
03C
007
034
021
1D8
1C1
01C
019
036
03B
016
1FC
1E3
00E
019
00D
04A
022
025
009
1E9
1CE
1CB
04F
009
002
00F
1F3
1A6
1C1
046
00D
1FD
1FD
1D0
1BC
1E4
060
1FC
1F8
007
1DA
1EC
04F
045
1F2
1FC
1F2
1F9
02F
064
017
1B3
00A
1F4
1FA
02B
03F
024
1F2
010
1EC
1F3
1F4
004
006
00B
020
036
023
002
1FF
009
009
069
048
032
011
000
005
1E9
020
017
023
010
1B5
1EF
1F9
017
03B
024
002
17D
1D6
011
011
012
022
01F
1C3
1CE
1EF
016
01B
001
1F5
1D2
1D0
1DE
1E1
002
1B7
1F9
001
033
1EC
1C8
1A4
1E5
012
025
084
017
1F7
1DF
00C
01A
043
060
1F8
1E8
001
1F6
02A
04A
044
02F
1E8
001
007
026
023
00C
00F
00C
003
005
01B
000
1F0
1FB
1FF
006
002
02D
1F3
019
1EF
00A
1FF
1EE
1FA
008
016
00B
1F4
007
00C
039
1D3
015
1CF
1D6
005
015
018
00E
02B
1F2
1EC
008
1EF
1F1
002
1D8
030
1EC
1E8
013
1F0
1FA
1E9
00E
1E8
1D6
1D4
00C
1F7
1D5
021
03F
1E2
1F4
1EC
1E3
000
02A
1D5
1A8
1FF
1DF
003
1FD
1DD
198
197
012
1FB
1FE
1FA
1D1
1AF
1CA
026
1F7
1F7
008
017
1BC
008
027
00C
1FD
1EC
1DF
1FB
015
002
01B
004
1E8
00C
028
1F1
1D7
1F6
002
1E3
035
1FF
000
1B5
1EF
1EE
1F2
00A
188
1A7
19F
1F3
1D0
007
008
1F2
033
002
010
1DC
1FC
1FD
00A
00F
1F9
1F3
01A
01A
1EB
00A
00F
00A
005
1E6
1EE
004
004
1ED
1E3
1E2
1E5
1E6
000
013
1F5
1CF
1E6
1DD
1E2
043
01B
006
1C6
1CF
1EC
00E
020
025
02F
1D7
1EC
004
018
051
037
029
1FB
005
009
1E8
047
028
012
1F9
01B
00C
1EE
1E9
1F3
01A
1FF
01D
007
1EF
1F6
1CF
004
018
04B
00C
1FA
1F5
1D9
00A
1FA
038
015
02D
1B8
15B
1CF
1EB
024
002
006
1F6
1C9
192
184
1CD
1F6
1D4
