1F7
1EA
1AA
1D4
1B8
1BF
1D0
1FD
1BA
198
1D1
1CC
1F7
199
1BC
1FE
007
1E8
1E9
19C
199
1A6
012
020
00D
1C5
193
198
1CD
025
014
1F6
00C
1EE
1E7
1D5
1FC
1F1
1CD
1E5
019
1F6
18E
1D8
1F7
1EE
1EF
046
1FD
1D4
1E3
00F
1D4
00F
036
00B
19D
002
020
1E5
014
1D7
1E1
1A4
039
018
009
003
1BD
1AD
195
010
015
1E8
1EC
1F6
1E7
1E1
016
008
1D8
1F2
025
041
1D2
004
1CB
1DB
007
015
035
1D6
1FC
1E8
014
008
038
1E9
009
1ED
1ED
1D7
1E7
1E9
00F
005
1DF
1C3
1FE
1F9
1E2
1EC
1FC
199
1BE
1E0
035
1FE
1C5
1D8
1B8
1B9
1D6
1F1
018
1DB
1EF
1E9
1C6
1E2
1F6
1F9
1E7
00D
1F9
1FA
01F
1F4
1C5
1E1
1F8
00F
013
05B
009
1C8
1F0
027
1EA
009
058
010
1EE
1E6
018
01B
00B
034
1F5
1D2
1D0
021
001
01E
015
1F1
1B9
1E9
011
00A
1F3
1FC
1FC
1E6
005
1F0
009
1DD
1D8
1EA
1EC
1FD
1FD
008
1F4
004
1E7
1E2
016
1EC
007
1F9
001
016
1F2
00B
018
008
1D0
1ED
1B2
1D2
1FB
1FA
1E9
1F0
1FC
004
012
1B9
1FF
1BD
19C
1E6
025
022
00B
1F3
17F
162
1DE
016
000
1FE
1E6
17B
1EC
1C1
014
017
006
1F4
1DF
020
1F3
010
018
00A
00A
00B
02A
1E7
1ED
016
1EA
02E
1EA
01F
1E8
1F0
002
00D
02D
1F9
00F
1C1
1E8
008
1E6
1E4
008
1EE
1D1
003
1F3
1ED
1F1
1E6
1B9
006
014
1EC
1F1
1FB
1F1
13E
1F4
007
1F6
008
008
1EF
1EE
035
021
000
015
00D
015
03E
035
006
014
020
1E9
1C6
1C3
1C6
1B0
1CF
183
1C9
1B9
19F
00E
1D7
1F8
1F1
1C2
01C
042
012
009
1E2
016
1A3
02C
031
008
1FF
005
014
1F2
1F5
031
002
1F0
00B
013
1DF
1F1
01B
00C
025
01B
1FA
1F2
1D2
1EA
024
1FD
1FD
001
00E
1BB
1E1
011
1D5
1DB
1F6
1C6
1C3
016
1E8
1CD
1D8
1DB
1AF
1C2
01C
1B8
1F3
1D4
1EC
1E8
1F9
1FB
1E9
00A
1E6
1FD
1E3
001
016
1F3
1E7
1F8
005
1EC
008
016
1EB
01C
1F7
025
001
00C
035
03C
024
028
02E
