1F5
1B0
1BB
1E8
1D1
009
1F9
1E6
1ED
012
05E
02C
009
009
1CA
020
034
04E
068
054
01E
1C5
1DE
011
025
068
06A
03F
1E6
1CA
1F5
013
01D
015
1E2
1B9
1E7
00D
1B6
1EF
018
001
1D7
1FC
009
19C
1F9
004
1F3
034
009
001
1E3
003
010
026
1ED
01C
1F4
1F1
007
00E
033
017
1FC
1F5
1F6
00F
008
1E6
006
1D7
1EB
1E7
1F4
022
010
1A8
1EB
1D1
1CE
01F
037
1D2
1C8
1AA
1D2
1EA
00D
033
1EF
1EB
1A5
014
00A
00A
1FA
004
1CF
1DB
1D5
1C4
1E3
000
1D3
1E1
1CC
1F5
193
193
028
1FA
001
1D5
1D9
1C2
178
1C1
1FB
1DF
1F0
1AA
1A7
150
18D
1F7
1EA
1DF
19B
1A4
1C5
1B7
1D8
1EC
1DB
1C7
1D3
1D5
1D8
1D8
006
1F2
004
034
1D9
008
1FC
00B
00B
02F
031
012
1FF
1ED
00D
1F0
1F3
01A
011
026
1FE
013
024
00D
00D
1FF
00F
1F4
1F4
1F7
1F1
1E8
00B
003
1F6
1E8
1E7
1E2
1DD
005
1E5
1CF
1CF
1FD
1E3
1F4
1FC
1E1
1FC
1CC
1DF
1F1
1F0
1F5
007
1E8
1E7
1BF
1BC
1E4
1EC
1BE
1D6
1CC
1FC
018
00E
1FD
1DE
1E2
1F1
034
03B
1F8
1C2
1C9
004
1EC
027
017
1EE
022
1F1
1FF
1D6
1E2
02B
044
014
001
1F9
1DB
1C3
00E
027
015
00F
1EE
1DB
1BE
020
033
1EC
018
014
1F0
1FB
00B
014
1E8
009
01E
040
1BA
1FB
1F3
1F8
00C
1F8
1D9
1EF
1D0
1AC
01B
1FE
1EC
1F2
1F6
1A1
00F
011
1E3
001
1E0
1E0
01D
04B
032
1F4
1F1
1B9
004
02C
050
035
1E4
1EC
1C5
1DA
1FF
018
000
1D9
1C8
013
1D3
1B0
18A
1C6
1C7
1E0
004
1F9
1EB
00D
014
1E0
1FB
010
1F2
1F4
1D6
1D9
1FA
1F7
02E
1EC
1EA
1CB
1EB
013
00D
01F
1DA
1DC
1DD
1EB
1F2
1F0
1C5
1D5
001
1ED
1F5
01E
009
1C6
006
1EF
1E4
01A
020
1F4
03D
1EF
01D
1F7
02D
006
013
1FC
007
1F8
1FD
024
004
005
1F8
002
1EA
1FB
1FC
1F5
1F4
1E3
1FC
1E3
1B4
1D2
1FE
00D
1C5
01C
1FE
1CD
00E
1FF
1F8
1E1
1DA
1CA
1EF
1F4
1EB
019
00B
00C
1B4
1FC
1E7
1CA
1BF
