3D1D8DFE
BC458A9D
BD52018D
BEABBAEB
BEA85D1C
BEA1A8C0
BE885578
3DBF548E
BD9CDAB6
BE26D91E
BE1EEBE4
BDA40520
3D91792B
BC58AAAC
3D39F77A
BDC5D783
BE552824
BDD1E563
3C3AB3F1
3D333AB6
3E3CCFEB
3E72A125
3E9D42EB
3E4BACA2
3E274750
3DD1AB1F
3E4E9D96
BDF6C0D7
3D2EA30C
BE490BAC
BDE8AFDD
BDC71396
3A0F3FA5
3D49115C
3DB8DB32
3E08D1ED
3E828C5F
3F0367F4
3EEA98A9
3E697AC1
3E587C01
BC83E15F
BAADC8A6
BE472FA6
BE3197ED
BD960938
3D317089
BBB96689
3E063E7E
3C05923B
3E218617
3E815D06
3E706A41
3E4C97ED
3E5A0169
3CA46D37
BD72F1B6
BE5C6241
BDD2EF99
BBB10AE5
BD787F80
3D8331AF
BD3CAC80
BD8D9345
BD1A3C19
3D50CB7D
3B5600AC
3CCA8C16
BBA8A60A
BDFB581E
3D01FDF6
BE10EBFE
BD4F2BFE
3DA23137
3BD36E2C
3E1A055D
BDC64F32
BDF06B78
3CD4A3CF
3DEC23CC
3D36B70C
3D2A2A23
BD8D106E
BD397412
3C6A1A6A
BD3C5F00
BCEA8E68
3E05550A
3E058109
3E08D3BF
BDCE2AFE
BDEC1386
3DA6AE9E
3C88F81B
3D65A2CD
BD295570
BE5B783C
BD8C3B1D
BAD1BE46
3DC6CA4A
3DE2989A
3E09A884
3E249438
3D401135
3D294510
3D2DAC16
3DB92CA5
3DD1DB9E
BC07DA3C
3D9707D0
3D8B4C62
BDE8E52A
3D9D2279
3DA20D08
3D4E8446
3E118BC8
3E198C92
BC85F74A
3D45298C
3DA298B1
3D23562F
3E0C116B
BCEC80CD
3D7CD69A
BD892389
BD7D119F
3D81BDC1
3D8130DC
3DF97B7A
3D6567C0
BD303FD5
3CB84080
3DD6696F
3BA9D0A6
3E1A27BB
3DE3E60E
3DC5F54B
BDC1986C
BD98BA2E
BC51E4BC
3D9291F4
BD3AF7C2
3D6EDD56
3D37E5F4
BD20BF10
3D5303AA
3C98036F
3CBBB05A
BD8BF642
3C53C6CF
BBA6FB71
3E082FD9
BD499354
BE0F59CB
3C22D5CB
BCB2D2C4
3B343C97
BDF6D78B
BDBD81BD
BD0AB338
BD4F48ED
BE0EFEAF
3B8EE724
BCF7F795
BD87DC2B
3D35930C
3CEF05D6
BD719DF1
BE9643E1
BE9B55BB
BD895302
BDA7B800
BD564DD9
BE153A92
BDBDE610
BDF4B993
BD8BFBE9
BE2B75C4
BE226FBE
BD4BBCC2
3D95F948
BD596092
BE91DFA6
BE39FA2A
BE101A35
BDDC4CA4
BDDAEDBA
3C9DB77D
3C87FA06
BDDDE564
BDACABA8
BD21DF7C
3CD64068
BDFB0B68
3C0BF4EC
BCCD04F6
BE0F4DCF
BE2BADEE
BE68BDCB
BE2526CD
BEB6D88E
BEC7420D
BDA0004C
BE18DD85
BE4535AE
BE4E1141
3DB02A8C
BDCA1B4E
BDA0AA39
BD1E3F0B
BCD0532D
BC2CA7BD
BE554A90
3D9FB899
3D86799B
3E1A81D5
3EB18516
3E906AE7
3E0D9474
3E03DD22
3E62618A
3DC7A730
BD5211CB
BE0F162E
BD2BC42C
3D45D795
3CBDF73E
3DA615FA
3E78D83B
3EC05E5D
3EC72A9F
3EC59A5B
3E6C7664
3E6E3AAF
3E14EC51
3E296CB4
3D6997A2
BDC2A310
BDB20130
3D176FC1
3E1D3710
3E9940FF
3ECC2B75
3EDC734A
3EAF434D
3DC317CC
3B89D8D9
3D69E412
BDBF13F3
BDC1E3B3
3C1F80AD
BD8339AE
BE815A62
BD8B5233
3E1C2050
3E3BCE0D
3E8338CA
3E50FAB5
BD9B2156
BE0A597A
3D552DB4
BDB27FA5
BD4BA838
BE602B0A
3C4AA069
BC5C6F7A
BE13675F
BDF7AFDF
3C78082C
3E0AF035
3E46CCD8
3E495F0B
B9EA5272
BDA230E9
3DA5AA6F
3B103338
BD10AFAE
BE2081B4
BE4739B7
3D0A29B3
BCFE8693
BDEEDED7
3C54C75F
3DA42E8A
3E122281
BD2F3A9E
BD2A5B1C
BDAB65E7
3E249E93
BCAF2B55
3DB192EA
BDEFC321
BE3E704D
BCEF468A
BDEE024A
BE8B17E5
BD3269F5
3E010C8E
3DE1C941
BD97862D
3BDDE7C9
BDC0DB12
BC15E569
BDB39DA5
3D7486E2
3A863AF0
BD98E3A4
BD661614
BE86F313
BED597A4
BE22A6EA
BD5262A0
3D9B7BBF
BDB7034D
BE04BC6A
BE0A8713
3CC45A7A
3CABB5F2
3D807867
BD1FB950
BD38E107
BE026F84
BE8AF38C
BE890988
BE07531C
BE6D3696
BDDFE7DA
BE21F6CD
BE118B5E
3C6F0CB3
3CAA7988
BD1E7EC6
BD9154CB
BCD4BF73
BDEE00EC
BD2B0340
BC837D52
BE67CF7C
BE47DD54
BDCEFA8C
BE92B9E5
BDE9116C
BE23E137
3D7B8A3A
3D7E2EFD
3CD65130
BC83166D
BCAC842A
3BDBA9D7
BCC43EA9
BD386694
BC93FCDA
BE2F9BF9
BCE19355
3BCFD1A7
3D58B81D
3E50BE5E
3E60F935
3DD48784
3CB27A57
3CEDE3A0
390EBE62
BC89FCAA
BE66F96F
3C52CD39
3CD84038
BEA60C69
3E0F2E02
3D8D9DC9
3E57EB54
3E858DB9
3E471685
3D60F670
BC986301
BCA79E47
3E0E680B
3D0FCA97
3D79454D
BDCBCD4B
BDCB00A7
BE301632
3C13682C
BD5E9310
3E0D70D6
3DA118A8
3C7E6CF9
BD0AFDF2
BCB46BD6
BDF041BE
BDA5DF4B
3D7FDFCB
3B0AA857
3CF6025A
BE7B5002
BE5DCA5F
BE545D8C
BEC0A8DB
BDF44F32
BDB18200
BE54442B
BE177727
BD5A7074
3D2EAB96
3DF561FB
BD308C2F
BE0DCD0A
BD8C9E73
BD6F28BE
BD8A549D
BDD04A62
3D09DC38
BD82AD58
BD125B82
3D16F474
BC0321BE
3DAFC95D
3DB51F6C
BD002087
BE0F2176
3D62CCAE
3D045737
BD18F5DE
BDD75324
BD212DEF
BCCB05E3
3DA34C32
BCB9D17A
3DF9D300
3E350C34
3E834194
3EAB86F1
3CFDD2FE
3E2F4514
BE3A94E6
BD36BE5F
BD7CEB39
BDCBEAA7
BC68E056
BBC31148
3C971ED1
BD5C5A02
3E39D94C
3E4B0C73
3E83BDB5
3EACBA8B
3E1EC608
3DA77D3D
BE15D5AE
BDACAF87
BCE101EA
3D44AC3F
3DAB378F
3E263BC8
3DEE05E9
BE1B7D0A
BE891883
BDF87A3E
3DE84202
BE22E3F3
BE6DE0C4
BE45D177
BE9E808A
BD3211F6
3D6F339E
3D2E7F56
3DAE50B4
3D185AC2
BE299541
BF04F002
BE6305AF
3AF8F1B4
BD6B2D51
BE46A501
BE43B2D5
BD9D35B0
3D774A5D
3D9CA059
BD69558B
3C9FFE50
BDCC54D4
BE104333
BEBBB633
BE9C88DE
BD00AC1D
3D6C98AC
BDF7135A
BEC5CE6D
BE5FDF01
BE489B02
BCBBC56E
BCCBC74D
3C261C46
BB1DA59B
BD23BD0F
BD858CAE
BE073108
3D116E0B
BCD23FB7
3D552992
BD00630F
BDB65506
BD0B7F70
3E679851
3E1A3E1C
3D8078BA
3D7A4953
3DC1301A
3D1540B2
3DB7FB7A
3D9D41BF
3E3FBE7F
3D96704E
BDA806F2
3E164CE4
3E94AC68
3E856AB5
BCA4CBB6
3D46CDE6
3D0A6FFA
3C6675FA
BBF0C918
3DF758CD
3E061C26
3DC30811
3DE55780
3DB401F6
BE11831B
3C92E0F7
3D4D5458
3DCACC86
3D1ED5E2
BCE48E5F
BDE14D17
BCD87A40
BC1EAB7C
3D74016B
BD3DDD84
BD0E258D
3D3C3D66
BD234EED
BD82D7C1
BD8F462D
3CBC7C2A
3E2859F8
3D9BB0B1
BD41E71E
BD3E17CF
3D8A059C
3D0D1A59
3D3704DC
BD962F2B
BE17A9F1
BDF6A13B
BE075A52
BD908FCC
BDA9BD43
3E1A3EAF
3B4C9D98
BE3A16F7
BE7C0F4B
BE294E11
BDE0B25E
BD78A6EF
BDA82B6F
BE031944
BE811303
BEAF51C3
BE7D2BDC
BE1AD67A
3E291217
3E6A96CA
3E1890CD
BCF3A87B
BB70751E
BDDC63A2
BE7D9BA2
BE31CC27
3D4D50E9
3D22D7C9
BD5ED54D
BC8DCE3D
BD45E8AC
BCC6E1AC
3D00D884
3E0B2BE6
3DFD0B55
3BB0AB0E
BDB02FB1
BD9FBB20
BDE6FD34
BE30E9EF
BEC47496
BECE7536
BECE6BE0
BEDD5F39
BEB3C5AF
BEB91D32
BED9D10A
BE9B17E9
BE92E40A
BDD70CED
3DF4A13E
BE397BCF
BDC37EEA
BE0B947C
BDF3A92D
BE59F5BD
BE5E0005
BD9A1244
BDDB96BC
BD28921D
BDDDB9A0
BCC7AAFA
3CC28199
BC172EDE
BCCD4994
BD8F277B
BDF0D7D9
BDDAE02E
BD4C4997
BE048FB6
BE47F918
BE23EDED
BE65E513
BE9667F5
BE931CB3
BD7D850A
BAEB6E41
3D85C5ED
BD6157B7
BD5ED71C
BD882BD2
BDF880DA
BB9739A1
BD96E2FE
BE1EF5A8
BE613435
BEAC1609
BE862AEC
BE532052
3C86CD23
BD527212
3D6AAEF5
3DBBCDA0
3C9EBC21
BC5B976B
BD253F70
BE0CC145
BD8BCEC3
BE9CDA46
BE7514D4
BE9DDFFC
BE8E9EBE
3D15883B
3D5DA340
3D47BB32
BD902857
3C9FC00B
BE0F49E0
BCF09268
3D50E4D4
BDA660E3
BB970AA0
BE18A3DD
BD8A1B66
BE8A8BDD
BD9EED12
BBB4E2A8
3C9F75DA
3D04F95C
BE138253
BE83C219
3CC7069A
3D567C54
BDE302FA
BD193B74
3C1CB0F4
3D30AA9D
3E036307
BDE9E6F8
BD8EC8EE
3D1CA08C
BC2FBB10
3D173A3C
3CD352A6
BCE75CCC
3E2587CD
BDAADBBE
BD98AC1E
3D015C32
3D2A0A4B
3D87D6D8
3D38A243
BD8FFB7B
3D527AEC
3DBC3595
3A4A497E
3CE68C48
3CFD8A2E
BE0E9F9E
3C1DC2AA
3D96B326
3D764DDE
3C845449
3BAA0491
3D9C58E7
3DA6891E
BDBE6E35
3D1E2A2C
3DC8EA74
3D1D9581
3CDC66FC
BD49BBF7
BDCDCB0A
3E2E0022
3E381330
3CF30820
BD19AA84
BCB32075
BCD2985D
BD7D0454
BD66B534
3CDBB4E7
BD96655D
BC1F9E89
3A72D9B8
BE2B4A6B
BE13E8CB
BE66247C
BD4A3BAA
3D3A9227
BD8BA290
BE4A4200
BECD776C
BECAC6E2
BED2DE29
BE4F7D2E
BD8BEC2D
3DB99ACC
3C41D5A8
B9674070
BE00AE3F
BEA5CCA6
BDF88D7F
BD2BCD3A
BE101E43
BE957FF3
BE8C726F
BE372F2A
BE068BB8
BD8F8CB2
3D949099
3C96A3D1
3E0D889A
3C83C4B7
BD1A5E4D
BE908811
BE8D5958
BECE7910
BEA4897F
BF04D36A
BE64C516
BD987488
BE079D0B
BC9E4B65
BE03A81C
BDED683F
BE0B8246
3C7EFF17
BD92755C
BBB10605
BDB083BC
BCBBCF31
BCF2BC47
BD0AA6E5
3D88D36E
BAD31CE1
3D137A0D
3D7C393F
BAC9ACC1
3CB93338
BEA6FB9B
3C823890
3E17B0F9
