018
1D4
193
1B8
144
1D9
1CE
007
1E9
1AE
1E3
00C
1C2
1B0
011
1AB
1F8
1E8
1E8
1EF
1E3
029
1FA
1DD
1CB
003
03B
000
00F
00F
008
008
022
003
1F9
02D
004
008
1F9
031
1E3
1EC
043
008
1D7
008
01E
1E3
181
01A
008
1DF
1E8
034
021
1BF
1FA
1F2
015
1F7
00A
1EF
1E5
1D9
1D8
1E5
1F6
1F0
006
1D1
1B5
1DA
1F4
1F8
001
1D9
000
1E8
016
1CC
1F7
01E
1E9
1CE
02F
1FC
1D2
1E1
006
1D8
1D4
051
017
013
018
013
1FE
1A3
010
019
01B
1F3
005
005
025
022
00E
01D
1E8
1EE
1FB
01E
1ED
032
051
03E
031
1E8
1E6
1FD
027
02B
01C
03E
1B4
1BB
00E
00D
03F
1FF
020
1E9
1AE
1EF
022
039
000
033
007
1E9
1F5
007
01A
1E4
00A
1EC
1C6
013
00E
014
1D2
1F6
008
1D9
1FE
004
1D3
1BB
1F2
018
008
1EE
1E6
1D5
1C8
1FC
010
002
1D3
1C5
1CC
1D1
1DD
1DE
1E9
00D
1F5
1D5
1E8
1E8
1C9
1A4
1FE
1F4
008
1ED
1F5
1F2
1CD
023
1F4
1FC
1F3
1F8
1E6
004
005
1DB
18B
1C2
196
1E4
003
012
1F7
1F4
1FF
00E
1BC
1B5
01F
021
054
027
1F4
006
1F2
00E
04D
07E
027
004
1F6
1F2
1EC
04C
035
000
1FE
1FC
1FB
1F1
1FD
1B1
1C8
1EB
1FB
01B
1EF
1E5
1AD
1EB
004
026
01D
1E6
1E1
1E0
018
00C
006
01E
1C7
022
025
1FC
1F2
01B
016
1FF
01D
04A
1F6
00A
01A
1E9
029
1FA
1EA
016
014
1E9
1C8
000
1BA
1EE
02D
011
000
1D6
001
1EB
06D
04B
010
1D7
1EF
015
031
03D
022
01C
1ED
1F7
008
1ED
1BA
18F
1B3
1D8
005
00D
1D4
1A5
1E6
1F5
1DD
1BF
025
1E3
1E1
1FE
1FF
013
1D1
1ED
1F3
024
001
1FF
00B
008
002
1FC
1F2
02B
011
027
012
015
008
1F6
1F8
1EB
1FB
008
013
1FF
1F7
1AA
1EC
009
012
1F4
1F6
1EF
1AA
002
02C
003
1FC
046
00E
1D3
000
029
001
01E
00C
1E0
1C8
1F1
1FB
1F4
1C5
1EB
1D0
1C9
1E1
1D9
1A9
1FF
1F7
1E2
1D1
1E6
1D4
1DC
031
029
015
1CB
000
1E8
00E
01B
01A
01D
00D
1FC
1F1
02D
