3DB039A1
BE2978AA
3E44522D
3E1CACBE
3D2DD3DD
BE52B142
BE77DABB
BDB23C70
BDADD0FE
BE2E27AD
3E0E449D
3E1F4997
3DA0539D
BE7323F9
BB1021AD
BDEB93D6
BE5D84FC
3C85DFE7
3DEFBEF9
3E04C284
BED8324F
BD3C6C69
BDD867C3
BE4B2906
BD379CB4
3B9916C8
BDABA3E0
BE4C0009
BD751411
3D9790E4
BC090A38
BBD5B0D7
BDA633F6
3AD7829C
BD121943
BC3C95B0
3D73E8C1
3BFE9951
3E04DF64
BD5392EE
BD1CE9B7
BD4C02D2
BDBC80FB
3D322139
BCA6293D
3E2D9BCD
BC092BC0
3C63E8C0
BBECBA54
3DC9C0CA
3C8962C9
3D048408
3D02DC37
BE143BAE
3DB64D91
3D8FD5A2
BD85434B
BD8A36A6
BD28FECA
BDB9F5F3
BC357637
BE579665
3DFE8AF6
3D0A5B4E
3E01BE92
3DE33850
BE05D984
BDE52026
BE0D63C7
3CC2BDC6
BD3609DC
3CEA07B7
3CB91635
BBE0D522
BCDBFB74
3C6AE81A
BD2D4C4F
3C293AB9
3A485327
3E11FD7F
BCA8B6A4
3C5530CC
3E10AA14
3E05D030
3D5204FF
BBBD91D2
BD692985
BCC11C6A
3E222432
BBBD6CE0
BD04EEA6
BE6AA162
BD27FCEB
BD5F3571
BD3601A8
BE082FB8
3D34696A
BE538538
BD9D365B
BD6592AC
BE09AE5B
3DC85553
3D887387
3C691F79
3CFDC3FF
BD8BAA84
3E137B2F
3DD78979
3E9437DE
3E5DE2D3
3E72EBFA
BCD5B554
3E0DD1B0
3E22F1CB
3D825829
3DE57DAC
3C4E381F
BDAAC05A
BE27477E
3DB5223D
3E284E25
3E1F15D7
3E017C3D
BE1933E8
BDD06540
BE868F40
3E0ABB1E
3E110BE2
3DDB6FB2
3DA92252
BDFF1970
BCB1D1EB
BE7173DE
3D23A4A5
BE00CA47
BAEABA10
3D855C51
BBFC75D4
3E1C262B
BDC3D875
3E5AFBAD
BE2078CF
BE951A4F
3D422BD7
3B6E45EF
3D780AC0
3B23A2AE
3B90A047
BDC9B2A7
BD5B665F
3DA9993C
3D20E5DB
3D1BE9FD
3D8FDC61
BDBF8F10
BE67F379
BDEFBB20
3E226ED0
BDD56CB5
BCCF7F54
3DA65549
3DE0C58D
BE3AB66C
BD492EEB
3D82808A
BDF0E81C
3DD99DCE
3C001A44
BDB2032C
BE86F112
3D9C9E8A
3E2A42FA
3D993642
3E08D6D2
3D929164
BD4BA368
3E2760BB
3E9A7913
3D00121F
3E4EC031
3DCBBF53
3E2EAD4A
3B830E85
3E229F04
3E5A8761
3C5B4F3C
3D478691
3DAAA33C
3DA05F28
BD89E85D
3C1FF0F6
BCA6D7D4
BC974A4A
BD7C6090
BD86BD88
BDFDE55C
3DE3C898
BDC8F3F2
BDFF6B76
BD4195AA
BD8369C5
BB03E253
BC88AB6C
3DC0FBF7
BE040472
BD901E89
3DBC8616
3D8ED602
BD6BBC92
3D92E21A
BDC7D257
BDB68C54
BC94D562
3E538094
3E891A65
BE6CEC99
BE08FFFA
BD15185C
BD6BFABC
BE4AE7F2
3EB4A417
3E364D17
BEBDB0C2
BE4B6D80
BD856F4C
3E329F18
BD18C93E
3E6223B4
BD6F5F37
BF1337F6
BE6596C4
BD649E3E
3D94430D
3D3B9387
3DB2B1BC
BE9E354A
BE80468F
BEA16514
BE52BF87
3C604419
3DB905D0
BD44795A
BEA888BA
BE029962
3DE9BB57
BE0F38B8
3D80CE9D
3D5493D3
BE16084A
BE14EAB1
3D99C41A
3E6FB09E
BE1D1D29
3D3D2085
3DB31FF6
BC8C3ED7
BEAB4183
3E76E4C4
3DF93AA4
3E4A342B
3E3753A1
3DDE04CA
3DDDA008
BEADE851
3DB128B3
BB0254B5
3CCF27E8
3D407EB9
3DA339A2
3DE9CBDF
BDEE9760
3E1B0922
3D15BC09
BDF08F49
3CB4CF1E
BC4DDAF0
3D0D74CB
3E5DD5C0
3E94F60F
3E1F1B8E
3D64367D
3D1D2C65
BB30968E
3D0BBC3E
3E836413
3CC0F496
3DA590D5
BC65E53D
3DE81E95
3E2185BA
3E5199CB
3D3F6CEA
BE190A98
3D439CC4
BE10CF4B
BE0E431F
BE2EC6F0
BDB97F90
BD1A9D9E
BD998E6A
BE1F52D5
3D7AD10F
3C15158A
BE012A76
3CE7B450
BE19B386
BD238913
BE39DB34
3D4FDCB3
BD31C850
BDDE6285
3C3CFFE2
BDA33A7F
3D442D89
BE975F52
BC52564F
3DC643D5
BE4F2A4C
BDA008EA
BC5BE48F
BD076278
BE4E11DA
BD541FBE
3B97050F
BDFE8049
BDBC5904
BD2862D9
BB3717AD
BDCC170D
BE14DB4E
3C57AFC0
BCEEA464
BE005975
BDB48AE0
BD9A65BC
BD7EE420
3D14BCAF
BD26FFAA
BEA9967B
BE006A21
BEA873BF
3D9EF0E3
3D89878B
BE85D965
BD033D46
BE82186E
BE147B64
BE7B8969
3E011D30
3D3C1390
BD9945EF
3DE6B299
BE9F805D
BD945E9E
BE4E09F5
3E12AD19
3D93191B
BD2003C7
3E17D351
BE4A1782
3D968A1F
3E033D65
3E5A240C
3DA394C2
3E27A50E
3DCDD335
BE707394
BA0CD2B1
3D8D0711
3DF1DFF1
3E596310
BE33BE02
BDD6B16F
BE9071CB
BD351848
3D639995
BDB95D17
BD788968
BE83E639
BE83222A
BE16A362
BE10FA7E
BE2D1E67
3C62A600
BDBFE94E
BC8DC59F
3E46D6A0
3D03E84F
3C9E4A39
BD3C9D92
BD4907C5
3DB894DF
