BCEFEE68
BE41CC92
BED754AA
BC935FCD
3BDEBF01
3D6E5956
BD91BB75
BBA4CC3E
3CAB9D5B
3DF6DF1B
3E1D6E75
3BE9939E
BD590439
3E162231
BE2D7272
3D51DA17
39765476
BC3D9783
3C8B7810
3DA7DE3C
3E151114
BDB26399
3DFBB99D
3CEDDD25
3D09AC76
BB39D87A
3DD58501
3E11B6AF
3D95D0B1
3D344A43
BE0FC14A
3CAF4154
3E1557E7
3D9D4913
BC8E5E83
3D42D03D
BE005D23
BD9B6E46
3DE92797
3DC89879
3DECB666
BD1D9C65
3D8375C6
BD8A60A4
3B44B04F
3D733D06
3DC913E4
BCA329C4
3D7DA681
BB1428F8
3E10BE05
3D514A2C
3C9203D5
3A8E2538
3DACA661
3D9CCD47
BCF98843
3E8E4AFE
3CA3D3E4
3C21E9B6
BDC69C0F
BC8CEA0E
BE707879
BCB90A31
3DA15D62
BD58E34D
3D35F853
BCF7973E
3D4F3FD1
BDFD8FD2
BD06A218
BC2144FB
BE0C8BD3
3D1EC2BB
BC2C486D
3C40D161
3DC59835
3D69891A
38FFF3B9
BC888DA8
3C88EDDA
BD452CD9
BCAE2D48
3C17EB50
BE27C3B6
BC38A8C8
3D38D72C
3DAA4062
3D348225
BC8A7AA4
BDAB3B48
BD274AEB
BB3C3088
3E09FA1A
3E0737FA
3D62DC29
BD018210
BE7E5FB2
BAD2434C
BDD1857D
BE8D60C3
BE32A014
3D2B2510
BDAE4B0E
3D54B41B
BE5E8FCC
BDE5033C
BE00BD17
BE09E86C
BD3BD2A8
3CBC0BF1
3E025425
3CE85F6E
BE3473FE
BE6B68BD
BDE81A65
BCEC2EF5
3DB7E163
3D1C3062
BE295626
BDA317F4
BE160E21
BD9F646C
3CD4B2E2
3DE705A3
BD77AAF4
BE63BE99
BD020ECD
BCADCE9D
3D0FC739
3DBC24D3
3D9B7C6F
3CA0269D
BDA9BF7C
3DBA8076
3E0FB265
3D227785
BD8AC7A2
BB753277
3D53FB67
BE901122
3DC99973
3E192936
3DA294AD
BCBA0624
BD20DDE9
3D514447
BEB03F93
BD9D54AE
3DAF4A19
3D3B30BA
3BC00209
BD1021F5
3E0CC5C2
BEEA0C11
BEF691A8
BC9216FB
3E361C45
3DBDF945
3DCD9AC8
3CE3AE1F
BEEF969E
BE283136
3D1430AE
3DFB1C09
3DBBD607
BD0679FD
BE0350FF
BE82DD69
3EB093D8
3D97D6DF
3CF2C879
3B7EBD63
BDA5A255
BD9AA694
BE79EA04
3E41C462
3CEE58DA
BE067E4A
BD7E1AF5
BD59814D
BD7B055A
BD2ED245
BE1D722D
BD95AD44
3D087BCC
BDDCF43C
BC468DD4
BE4FCA70
3D39E271
BECE989C
BE368E1C
3DB2CA0D
3ADDDF63
BC6F5229
BDC8216D
BDBD4612
BA8D102B
BC562221
BD535149
3D161B6F
BE0182B5
BDA75A19
BDE8C5F8
BB01D6EE
3CDA97FE
3D8149AF
BCB6435A
3B9498A6
BE85DB4F
BBA1536E
3D58CE2D
3B8550CD
BE0DEA5E
3BA928C1
3A94B084
3E77A09B
BD89A188
3D005CFE
BD4354E8
BEA7F5AC
BE0F63A6
3D929787
3BD41888
BDE92069
BCF37C7C
BDCC21E6
BE21B5E3
BB29887E
BC3E426D
BD59044F
BD0A8737
BE553672
BE09608A
BDD5614F
BC807220
BEBDE690
3D507810
3D0E0724
BE0E6DAC
BD264E2E
3D7E9C1B
BEC8FA3D
BDD42365
BE4C52C6
3DA32F34
3CFCA81D
3DE19887
BE4DC1F5
BE4DFDB9
BCA9B2FD
BDDAC93E
3D8240CF
3D943822
BDB90A42
BE3DA304
BC936189
3E12C2D7
BE19CB4A
3D7981DD
BD7C0D83
BE916AA2
BE504B08
3E2D0D8F
BE1A7F97
BE96DEB2
BC362BD3
BE425706
BE95AC6A
BE3CF65B
BDDA66D7
BF063851
BE4C2622
BDB64895
BDC232B5
BE260AE5
BE0508D9
BE51E4E7
BE241A71
BE5C01A3
3D56B3DB
BBC20993
3D95A07B
3D2CDB35
BD6FC889
BE0FF5F7
BEB24CBC
BD1282CF
3C8599C8
3D95506F
3C21F90B
3A61B7DD
3D9CFCC0
BE896902
BE10C28B
BE15CBE6
BE041A24
3BBCF464
3CFE29F6
BCF3EA07
BC1B36D5
BE3A107B
BD1D92FF
3D180027
3E0AA108
3A8C96A2
BD6CF5B4
BD301DD8
3C9E515E
BD95B4CF
3DC4DE58
BC3BE432
3CB85378
3CE1DB6D
3D055703
BD832527
BD94FC8C
3CFA4AEF
3D68A42F
3DB59B96
3C2EF5EB
3E2D9DE6
BAE4FE6A
BD5C89F7
3DC15255
3D668C37
3DE054BC
3E203DE3
3D6642A7
BD3389FE
BD13EB27
3DB955D5
3E47D778
3DBF88B5
3DDFADD4
3D98D098
39F0D7B9
BD8F4860
BC9090DB
3E01BA20
3BF23C99
BD9326D4
3D0CC9C4
BDBABE89
3E429E37
BD54813B
3D455E45
BD08EFB4
BD983726
BE904876
BC02A2B1
3B49DE0C
BDA5BD85
3DDB0CE6
3D815C3E
3DE74980
BD65FB1D
3D632B1F
BE79C9A9
BE3DC5B3
3DB7BAE2
3D235885
BCC872FD
BD83BD5C
BDA89EC1
BE036D62
BD482D6D
3D7830C6
BCEAD747
BC64F1F1
BE42C42B
BEB3AFC0
BDE48CC1
3DA470D5
BC8F5793
3D98993D
BD982A60
BE5B135A
BEF9A9B8
BE221FC4
BCF33B90
3C084D2E
BDF21CA0
BE802358
BEA1AA45
BD274730
BD8C8F70
BE0C4965
BE246AD3
BE113F4C
BE89A7A7
BEA78E62
