BDF888CF
3BEEC98D
BEF19862
BE2E36B4
BD5B2A16
BE96CAC2
BD98A809
BDDB222E
BEA48061
BE6DD46F
BE72E3DD
BE0B851D
BE24CB10
3CBC2771
BE620DA5
3E167EA9
3E1967C0
3CD322F8
BEC81432
BE283412
BEC27DE5
BD53C9FE
3E3B1B34
3D088E61
BC788C4F
BDDF6A0D
BE89DFAB
BE9EA7F9
3C0D6BA7
3D19BFE6
3D66ED98
3D274164
BD5DEABB
BD8761D8
BE8E99FD
3DECB645
BD77646E
BDE89A22
3D627029
BC191C24
BD1CDC67
BE2C45A2
BC0E02CD
BCDCFE9D
BBA578D7
3E353E85
3D3D95A7
3D71C4D9
3AFA73AF
3CFDD9E8
BD9040DF
3CB3EA49
3D8EB78E
3DB799B1
BD56F5A9
BCD2C479
BDA0D07E
BDB90C93
3CFCCEC8
B80C26EC
3D94AAF2
BD292A8E
BE63052F
BD332E91
3D7C4D17
BC835D54
BD4C0A62
3D81FB8D
BE29F660
BE7D2EE8
BCA5BCEB
3D7D8C0A
BC624D12
BD6E8FA4
BE112C71
BD04DA99
BE49D2F0
BD15108B
BC6D8F84
BD8DB704
BE1CD78B
BE5DB03B
BD617146
3D900392
BAAEC020
3C6582A2
BAA2DA75
BDF888D9
BDC43B7A
3D6552FC
3E02264B
3D24FBEA
3DC01377
BDDCA6D7
3D134A15
3CDF0A08
3E37EB6B
3D7100E1
BCF38F6F
BE474FEA
BE44196C
BEDC0FE6
BE2D28AE
BE57AF67
3CD0EE0B
BDBBD581
BE664F8E
BDF89F04
BEF09E33
BED93047
BF245E3B
BD8653F5
BEAB9601
BE99E1C7
BEC3FC1C
BE3A4952
BDA8871D
BDE7F4B7
BE27AFB0
BE729744
BF131104
BF229A54
3C8D14E7
3DAB3ADB
3DC55520
BDB4681E
BDB7085A
BEC2CC9F
BE46E516
3E4C21EF
BBE3F393
3CAB6FA4
BE5AD5B4
BE0B9C41
3DA13E45
3DBBC406
3DBCD8EE
3CDE3B26
BC468FC2
BD8FB4F4
3D20AC63
3E6DD991
3D4DA4A8
3CB70AF7
3D4C993F
3C74E890
BC81CB0F
3D5B8E54
3D7631E3
BC049D59
3DA9E149
3D3D1349
3B0BFCBB
BE0B6496
BD830B70
3DAE4C20
BDE915A5
BD64ED28
3D52A9A6
BDC88680
BEB8443B
BEAE692D
3CD26067
BE3687EE
BB83E11A
3D26CE92
BBF83DD6
BEAE11C0
BE4767C7
BDEF1213
BE22D0D5
BB7DAEBA
BD3B745F
BDEBF163
BE390567
BE4F7C2C
BE90321E
BDFB8AA0
BD7C7E3E
BCDBC700
3D08CD00
3E65D17B
BD770010
3DC58634
3E039DFF
3D97FE0E
BC6157B3
3D633D9C
3E01D37F
BC922044
3EB057DB
3E96DBA1
3E4A1DE5
3E3C97EF
3DFD00E7
3E3B8973
3D5AC336
BEBF0976
BD099DD8
3CF64FF3
BE5AA612
3C0234AC
BD5EA50B
BDDBBD57
3E1D51C8
BB96AB4E
BAFE6CFF
BD902BA5
BE11BA9F
BD96CCB6
BD24C104
BD2DEB15
3DC14800
3E1D818E
BDE85467
BD275632
3D608F28
3DDEBDD3
3DFBF92B
3D8CF88D
BDFB224B
BEAD0DF4
BEA6EBCF
BE16F73B
3E1CF182
3DF7781C
BE0C3303
BBE59580
BD098637
BD07146B
3A4C8A08
3D662253
BE13D205
BE86663B
BE28242D
3E1F394E
BE186F08
BE4DA676
BDFC80E4
BE530FB3
BE7E196E
BDA75A1B
3E4E21E1
BEE46265
BE4C9BF3
BE412267
BE571B59
BE63FAB2
3DC0BD4F
3BA2ED27
BEC258BB
3C6E7EDE
BD9F3B6F
BE52F2D8
BCED0DF2
3DF9783C
BE190D00
BEE95896
BE249290
BCBD42E4
BD4634B7
3DC47D97
3D6FA4E8
BE0E0B68
BEE203AB
BE8C67AC
BDCFCEFC
3D86DCA5
3DF5D404
3DD77828
BDE0178B
BEA7635B
BE45E870
BD780EC9
3D71551D
3E18334B
3C36B403
BE8ADD9B
BE01394B
3DC25B47
3E00AE6C
3D3C9AE0
BE0ED93A
BDF18015
BD41481A
BE32836D
3D94847E
BD8B7699
BE3E8381
BE4EC6B3
BE063E06
3BBDEA80
3E1579CC
BBAFF2A4
BC7DDAC1
BE4602A8
BE9DB050
BF06C1F2
BE877797
BDAD21B5
BD87163B
BD8C7F53
BE328930
3D390393
3C9065DF
BD22C296
BEA38A59
BE916877
BD09651A
BCC2B377
3D0979DA
3C5F67E0
3DFC1FCA
3DA37F72
3D77FB9F
3DDA5400
3D8AFA1C
BD44AC85
3D404984
3DE3B4F4
3D25F703
BD9CAFF2
BD18BFFF
BD76241D
3D1B9571
3D5E7917
3D4F3192
3D581ADF
BBE074C3
3CCEE9EB
BC823AFB
3DCB5287
3E1B4DFC
BD616B0F
3CEC595F
BDA8DA76
BD400FFB
BD96B22D
3E38DE8A
3DF9379F
BD21C67A
3DE32333
BE4A4EA8
BE5E6467
BD34E996
3E4A76E3
BDD635CB
BE2B6795
BD3366DE
BEC7E708
BE8DE6F8
3D6244E5
3E9E9E4C
BE8238A2
BE81AE70
BE579EE8
BEA6878B
BE9ED177
3D86AD4A
3D1F7D14
BE860B8F
BE557930
3C6D4603
3C95F74F
BE023F59
3DEA5C9A
3D4CD4FB
BD23E3AF
BD617EBB
3D3F2159
3DF37620
3D89FCC3
3E4BE588
BCA64779
BD3DB401
BACFE4E7
3D57189C
3E3CD3BE
3E579565
3D57B473
BE4CBA0A
3E1DE877
3E1DAD01
3E6E51D0
BA586574
3E8102B0
BD2F434B
3D4F7ACF
3E0B4494
3E012B1F
3E57C429
BE15E6F3
