BD37C5CF
BD9ABB80
BE7F9DB6
BEAF5E23
BE56DE0F
BDDFF1EC
BDA47970
3AA0DAC8
BE46E2CF
BF204575
BE111C92
BE98F94D
BE7BBC9D
BE280D66
BD8665A3
BE1FF491
3E4D4CE1
3DB1AAC7
BE3ED988
BEE3ABEF
BE430685
BE88EF58
BC92F16A
3DE22A33
3D17F643
BE182BCB
BE4E86CE
BE8DD4E5
BE292517
3DE2FDA3
3D71925B
3D0BF06D
3DAF4886
BDA59E99
3D67B92E
BCE4E9CB
3DAB4F8E
3CA2883D
3D3315BB
3D054F13
3D03F4CD
BDBE9413
3CE93421
3D40C31D
3BA5E137
3E1D33FB
3E073898
3DC442D6
BE1FD984
3DB0C854
3D0C7B87
3CCA4652
3DB5C43A
3E403F37
3DF650DA
BCAA9793
BD906974
3D8674E9
3D1F9F73
3D908866
3DC931DF
3992C631
BD83FAA2
BD9037C9
BD0FC9B4
BD2454C2
3D4585E0
BDBC2146
BD899697
BD707C4D
BE466553
BDB77033
BD1662E1
BD657EC4
BE2B1731
BE0577A7
3D316C82
BE1C03D7
BD31BA60
BE18FC35
BD1F1075
BDA907BF
BD91CCE0
BDC58369
BE4780E0
3CC1E5EA
BD05737B
BD5273F1
BDF16AC1
BD70B14B
3CB4AEB8
3B99545D
3D47D01F
BCECF4C6
BC79EACA
BD54318B
3DC4F264
3D471E40
3CE44FD0
3BE3D7F2
BF0F6FE0
BE4D68C8
BED9F3D1
BE666099
BC1B0BF6
BCDE8D29
BECC1B23
BE5C9EF2
BE8C3658
BE8530F4
BEC8EAD6
BE3627E1
BDFB195C
BEB88EDB
BEB52A0C
BEBDA225
BE02EC68
BC30493F
BEDEE03E
BE83C634
BEE0757C
BF3C0366
BEB4EED9
3D4012B2
3DCE4DB6
3CB5D6BC
BE74E6E5
BF0F96F2
BEBADA3A
3B796A3C
3D8B290E
3D04AC18
3CCFB189
BE2E3F88
BDD7D07F
3D4BB02E
37B589EE
3D61898C
3CF857A4
3CC1A86A
BDD7D1A3
3E2C69B7
3D89FA93
BE224096
3DE371EF
3DA8D2A3
BD745F22
BDD3FB48
3E33A43E
3DF1A0C1
BDFEED78
3DF8EE46
3D85C1AF
BDC9F5E1
BE2D4EFE
3E16BA54
3C03CBCA
BE5C61DD
3DF542A5
3C8AD1D5
BD1B0D78
BD1504BD
BD26CB1B
BD1FA6E7
BE78B1C8
BAD5A3A9
3CAD1D25
3CE1A421
BE40FECB
BD3EFB08
BE2C31C6
BD874395
BCDAFF6C
BD04B076
3DF79BAF
BE1CFB97
BE2CF9CC
BE8A171E
3D81D9CA
BD1485BB
3A902390
3C8A40F1
BAE6161A
BD6488D0
3E32FA5B
3D5C96B8
3DF0628D
3E25F258
3CCB52C2
3CEB852D
BCDB6DB9
3E493DB0
3E9FBEB7
3E02CC51
3E38DD04
3DA8E836
3D9891F8
BD4E59EC
BDC2D36C
3C8CDC96
BDE06E3B
BE986E00
3D6640BC
BD6AAFFB
BDA1D61F
3CB0C9DA
BE13A960
3DAB48FA
BDA4A65F
BE0D7CFD
BD8EF8FE
3BBE9315
3D476594
3E1DDB2E
3D4FF9A3
3B004800
3CC39375
BE0C3404
3DF64E4F
3E8B32E4
BC655B0B
BE91A5A6
BECDB564
BE027999
3C0893BD
3C1CDC6E
3E083E9C
BDB78C08
BCA8348B
BE83C2F2
BE654AC8
3E5E7AC4
BD1BEF01
BE4D3ED2
BE3DF0AD
3D6F545A
3C642910
BE319CDC
3CC081DA
BE4E419C
BE937750
BE29BC97
3DFDEF4F
BC54A0D1
BDF5AFB0
BE1BBE6F
BE0704D9
BE72DEDC
3CACFA53
BB8591E8
BEB9B2B0
BE4E2CBB
BE4BF05F
BD822728
BE27BE88
3D9A8CAE
3DD019AF
BF0335B9
BE4B4A7A
BD37CDCB
BDCF88A8
3C3AFD4C
3E31CE31
3C2929DE
BEAE5204
BEAE0AA8
BE3853B9
3D8526D7
3DC348A0
3E023A36
3CB41A31
BE3EB4A6
BE80853C
BE0F54A0
3DC8529C
3E051092
3E48BC1B
BDF715EF
BE7AC7E1
3D7E4C45
3D1C0FEC
3DAC1FD6
BD8DD456
BE3275AD
3D9BFB68
BDC305B3
3E36B8EB
3D7C30C4
BDAA0B86
BE23F599
BE511D3A
3BAC887A
3DC38B47
3D8E3EB5
3C15CD7B
BE678EB9
BD9696DA
BEC1D400
BECF3A85
BDF922FB
BE568416
BDD5FE83
BDF99632
BE3EEEF0
3CF58B38
3BA36F9E
BD0F14A3
BD867936
BE689A2B
3DAAE365
3D8B0330
3D40C824
3DECE86D
3D8184EC
BE569A03
BE0268E7
3CF733F4
BD4BF563
3DEC6BBF
3C210D29
BD4DF2E4
BCD7124C
3D33411E
BD87B934
3DB4FDDE
3E1267BC
3C97BD16
BCC40E25
3D031C5F
3DEDCAD8
BD650592
3C9EE318
3DE95E5D
3D0BA84E
3DC26753
BB84534C
3DFA37E7
BD9F3400
3D68E9F9
3E1E10B5
BC07B66C
BD17CBB0
BE164E87
BE1891BE
BDC4D300
3D6F87D8
3E24319B
BDF0F054
BE5DAFCC
BDC7EB3F
BEC56F7B
BE180C90
3E69DBD0
3BBF4003
BEA67F9A
BE59FA5F
BD3BACFA
BEBDF152
BDCACF34
3E58F9A3
BE5B1823
BE708B52
BE45914F
3CB6313D
BE81AD19
3D3217F6
3DEEB141
BD6DD1AD
BDD86DAB
BE26B04B
3D81DEDC
BD70CCE2
3DE5EB89
3D33ED91
BD1BBA5E
BDBA1E79
3D15B7C6
3D365D2D
3C78B77D
3D834461
BDBDBA27
BBB11A37
3E03D92E
3E3A7638
3E20E00E
3E05D983
BE136EF7
3C890A63
3E131169
3D9AEB17
3E1A7969
3E134181
