3DA58405
BDE03109
3DD6D275
3E05B0A4
3E760A00
3E1406B4
BD4808DE
BD370933
BD58F18E
BDD7BC0B
3DDBB9FC
3E9DFEE1
3E0D2C9F
BD8BADED
BDCB3279
BD1E22B5
BE32FD07
BDF0B9A6
3DD115AE
BD9D07A9
BDA41D25
BE430879
BDD5ED0F
BE2B3723
BE3A4905
3E0B5F93
BDCA2369
BE4C85FC
BDD067F6
BD5B7A44
BCEE1316
3D0B0610
3D90574A
BE22198B
3C2F5262
BE510E43
BC12F04B
3CE37523
3D25E96F
3C570A73
BD938A23
BC558841
3D0E1402
3C855657
3D9EA63F
3E22E7E5
3DAC268E
BE4477F5
BD7C9CE5
3DF96A77
3D8D7348
BE168D68
3C4FCFDC
BC652E2C
BAD84CCA
3D738673
3E121F0E
3C76BC42
BDE6A0A1
3C989D83
BE297130
BDC3872A
3E0CB515
BCE0FACA
3C806771
3A4DD88B
BD780B38
BD1A7B9B
BE2FA5E3
3D3B11C2
BD5E0147
3D81AAFF
BCC92EDF
3D25EBEA
3D5C0263
3D1F2BE3
3DA44E4F
3CB73C88
3C14B70E
3D8FFC4E
BC6E818D
BBC4BA97
3DC82ABE
3DA46686
BD6791C5
3D6704A5
BD4BD7F4
BD25FED8
3D08080E
3D98691A
BDCA2CC6
BE06FF41
3D41F57D
BD28E9F5
BD30845F
BCDFB5C6
BD845287
BD866C33
3C1ED8E1
BE70BFD4
BC8B2DD4
BD244F09
BDB688A7
BE18C1A9
BE064E4F
3C30760C
3DB6BEAC
3DE3E9EE
3DF6A0B3
3E506FB4
3E8C7A6F
BEC69432
BE2E05B0
3DDC47C3
3E63E65B
3DB51C5E
3C950744
BD9623AA
BECE8D3C
BE214FFF
3DD35510
3E863E76
3DF2BB37
BE054F26
BE8F8827
BDBA74D6
BDA4AA57
3E0F7561
3CD796DD
3E7A6264
BDA84832
BE890491
3C6FDC95
3D85F913
3E1B703B
BED4A9FF
3E06504F
3DD0EA42
BE4EC3E9
3DD4C2F3
BC3B57ED
3E209838
BEB4179D
3E060ABB
3DC0AD98
3D69E6D2
BC91C49F
BD1ABF0D
3D0CFDBF
BE883766
3D29DD5C
BD0F1BD6
BDDE5A64
3D1BA9B8
BD8FB0FE
BE8A9CFA
3CA87AE8
BDF09AF6
3CF61794
BE47577A
3DF76294
3D907EFA
BE4BCE7B
BDEBA6F5
3CEAA902
BD37F107
3DBDF4A5
BDD88256
3D45141F
BE86C710
BDBC68E0
3E375390
BC3363E4
3E19D8FC
3E327643
3DDC6960
BE02FDE0
3E85B8C9
3E45D8C1
BDC85CB2
3E81B4CF
3CC21584
3C86403A
BC8CEAFD
3EBAECE7
3CB52089
3DB2C0DD
3E5232D6
BE2ACB5E
3C3A1B9D
BDAFFD3F
3D6EA19D
BDB408DD
BDAD0800
3E0F0D61
BE623C3A
3D8F2A6C
BE193624
BCB26442
BC27446D
BDE3C3FA
BE425066
BDE0A722
BC1B03F1
BDAB8609
BDFEFDCF
3CD9679E
3DEA94D7
3D8E5E4E
BDF74D29
3D2DF3C6
BE3595AD
BDC82730
3CE91C48
3E8F3A3D
3DF01915
BD860F69
BD25E928
BD73805A
BE308C39
3DD40958
3EAAE0F2
BBE020A3
BE9A56C9
BC84426E
3D97EFA6
BE20C6BE
3DD6AF71
3E132F4A
BEC90335
BEDBB7FB
3E0803AF
BB690CBC
BCE3A0C4
3E1C3A63
BCC85395
BEF51B88
BE69880B
3DB32304
3D38A031
3DBC8280
3E18ED10
BDC67D52
BEECC100
BDBA17EF
3D8413EA
BCD6E261
BD66DEEA
3D1C8716
BE1D418A
BE03E7CE
3D7D46A9
3C1B12F7
3E13060C
39661404
3E1F2098
BED41F30
3C9B3513
3DAA3BD7
BCF542AF
3DE50D2B
BBEED8FD
3E8B01ED
BE443D70
BE9C5BE8
3E53FC37
BDDCE5CB
BBA63C1E
3D98260E
BCBA8DCB
BD50DADC
BCC85CD3
BD544889
BE007641
3D8CEE91
BCE290CA
BCFD6EB5
3E284D88
3E8A0FA0
3DF43BED
3D6E3CF2
3E3F999D
3D710F26
BDA8C499
3DF44702
3E3AADFA
3C87C15F
BDF32FD9
B9F7FC6A
3CDBF197
3D335A70
3E409BCA
3D112DB2
BCBCFB81
3D9E19E2
3C9BBE06
BE143738
BD57BA27
3DDF35F5
BCDF4535
BE06E671
3D408DBB
3CFAC516
BDEEA418
BDF7FF13
3BC5853C
BDD84027
BE15EC8A
BD9EAE7A
BCC965BE
BDCC4559
BD817CCA
B8815058
BCB62664
BD8296B6
BDBCA8FF
BDD0C01B
BE510740
BD6B3773
BDD0E188
BD21220C
BDD2FAD7
BC7A91E3
3D34FA7A
BDCA2E24
BE7EB39B
BDE44E93
BD8BD924
BD9E9B9F
BDB63B8F
BC9E393A
BE842152
BE7A8F13
BD4BA1D5
BD5FE6A9
BD12EB29
3D338C49
3E1E5746
BE3B5AE5
BEBEAFE9
BDA00266
BE7AF20F
3DB9C365
3D0441D3
3C87FE15
BDF7F86E
BEB9E5E7
BE51177F
BDAA0272
3C05ACF8
BD413A77
3D7F9AE5
BE85C2F8
BEB7B33B
BE45AAD2
3CFBFA97
3C65FB49
BD5FD9E7
3D94B0EF
3D4A7441
BDEC1593
BA26C2A4
3E03379E
3D3FA763
3C85C9A5
3D970EE0
BD77666D
BE1E9DC1
3B919CC1
3DBE0E1F
3B5300FD
BDBDCDD6
BDAF9912
BE8E017F
BE1A606A
BD1096EB
3E31456D
BE3650A0
BE4D1CF9
BE43C554
BE0546DB
BE82F0EB
BDDB9028
BD28AFB7
BE14B6D0
3D29834A
3C6BBB9F
3E23CFA9
3DAEF029
3DF22222
BD80CD7B
BDA5AF47
